#version: 0.2 - Trained by `huggingface/tokenizers`
Ġ c
Ġ p
r a
Ġ m
i n
0 0
Ġ d
Ġ 1
c a
r e
t e
t a
o r
Ġ a
Ġ s
l a
r o
Ġ b
c o
t o
Ġ f
Ġ e
Ġ 2
Ġd e
a n
e r
Ġ l
a l
d o
i s
Ġc o
t i
Ġ 3
d a
Ġ v
Ġ g
a r
e n
h a
e l
e s
o l
a s
o n
Ġ 4
Ġ n
0 1
Ġ t
i a
p a
u n
s a
h o
5 0
Ġ re
i l
u l
m a
d e
r i
2 0
Ġ o
e m
Ġ 0
ra n
q u
Ġc a
Ġco m
Ġe s
1 0
Ġ 5
i o
Ġp a
Ġp re
Ġ 6
l e
e d
Ġ in
u s
Ġ x
i c
m m
b o
i t
ta m
i ra
Ġ ro
g a
i m
o s
Ġ 8
Ġ 7
l u
Ġ un
e ta
1 2
ca o
Ġ k
te r
in a
Ġ j
00 0
Ġ h
l o
Ġ la
4 0
3 0
v a
Ġ 9
d or
la s
Ġ1 0
Ġpre to
Ġm a
Ġ1 2
Ġc or
g o
i x
t or
Ġ r
1 1
Ġpa ra
c h
u ra
i ca
b a
Ġd o
Ġe m
i v
6 0
m l
u p
c i
t ro
n e
8 0
Ġa l
i d
2 2
Ġm o
u r
i co
Ġ /
m is
1 5
te n
z a
m e
t ra
Ġf em
Ġl o
Ġ2 0
ca l
1 6
Ġ i
v e
m o
p o
Ġv er
Ġd i
s e
p e
n a
Ġb ran
c m
c ha
in o
9 0
g u
1 3
co n
2 5
1 8
in ha
7 0
Ġ1 00
in ho
Ġb o
Ġ1 5
Ġm ar
1 4
Ġa z
Ġs a
Ġ w
qu e
Ġo c
Ġ tam
en to
Ġm as
Ġco n
ti l
re s
ca mis
1 9
or t
3 5
Ġ 00
Ġs o
1 7
Ġ te
j a
2 4
n o
Ġn a
Ġt ra
ti co
lu sa
Ġbran co
i g
Ġa r
s o
ta l
Ġ3 0
Ġp e
Ġs t
Ġaz ul
Ġre f
Ġp ro
u ro
c e
u m
Ġb a
Ġ to
Ġd a
k it
i da
Ġ 50
Ġ ra
Ġs e
2 3
4 5
Ġp ed
1 00
Ġp ol
l i
i ro
Ġc ar
Ġ1 8
Ġm an
7 5
Ġmas c
Ġl is
Ġ Ċ
i r
Ġ1 6
Ġ2 5
ix a
8 9
Ġlo te
2 6
f a
ti do
i do
u la
3 6
i te
Ġ4 0
j un
Ġb as
Ġin f
tam pa
Ġa n
Ġ 01
u to
l or
2 1
b lusa
v es
3 8
Ġ2 00
g e
f e
b ra
an d
cal ca
c k
t ura
Ġt ri
Ġf a
m el
ol e
3 4
2 8
or ta
Ġv al
Ġa d
ra l
v el
ta n
b e
3 9
v o
Ġp o
ten is
Ġde s
2 7
Ġl e
2 9
Ġa m
ca r
5 5
al ha
Ġ1 4
i ta
b er
or te
Ġn o
Ġc h
t s
Ġfem in
m ento
Ġm m
in e
Ġp las
Ġm e
in g
3 7
la n
Ġb r
g r
t ri
an te
a d
Ġb e
camis eta
de ira
Ġ2 01
Ġp c
4 4
Ġ z
j o
Ġe n
Ġ ti
r u
Ġes tampa
Ġe x
Ġro sa
9 9
Ġc x
el o
6 5
v er
jun to
Ġb or
ra f
d i
Ġv e
Ġ5 00
re n
m p
Ġn e
ves tido
Ġc in
Ġ u
en te
Ġa co
2 00
8 5
Ġ6 0
Ġver de
im p
m in
Ġs em
3 3
c or
Ġm l
ar ra
m an
Ġ or
Ġl i
Ġ3 6
Ġa c
k g
Ġ2 4
Ġs up
p ro
t u
b r
s s
Ġc ha
an ho
Ġj e
i e
il tro
g em
b u
la r
on e
Ġ1 9
con junto
s h
Ġ3 5
Ġcom p
4 6
Ġl u
Ġg a
is co
i to
Ġ qu
i z
and al
Ġc ur
a do
4 8
Ġ1 7
h e
Ġ3 8
f f
Ġl on
Ġc as
Ġo v
Ġs u
Ġ4 5
Ġver mel
Ġc al
Ġ q
ca s
Ġm es
i p
c ho
an s
7 6
9 5
Ġf or
Ġbas e
ra s
le x
er s
sa o
i on
p t
andal ia
Ġs in
m u
g g
3 2
Ġman ga
Ġc an
l us
o x
00 00
Ġc m
r is
p p
s or
us o
Ġm ed
m b
an til
Ġmasc ul
Ġk g
Ġ ta
i za
2 01
Ġ1 3
Ġg g
4 7
6 6
p re
Ġs ol
4 9
Ġ1 50
Ġe le
Ġmo d
Ġf re
Ġinf antil
m ar
i es
e la
p ol
Ġje ans
m g
7 8
t r
Ġa ma
ca n
p la
Ġ3 00
ran s
Ġp ra
da o
ti ca
Ġm c
Ġs p
Ġm alha
e ira
mu da
Ġcin za
d es
9 8
b re
Ġplas tico
p el
camis a
Ġp v
Ġmar inho
Ġvermel ho
Ġg ra
Ġfemin ino
in i
an t
Ġtri b
Ġc ro
Ġp r
id ro
f or
Ġp orta
Ġco lor
gu a
co l
c u
Ġp in
Ġf lo
Ġ9 0
do s
p s
m i
Ġ1 1
on te
Ġm eta
4 3
an a
Ġs h
sa pa
9 6
Ġp la
ta s
sh ort
7 7
Ġ8 0
4 2
Ġmo tor
ix o
Ġs er
v al
8 8
Ġ2 50
Ġlis o
Ġco l
ci do
Ġes t
to n
ca ixa
re lo
ole o
Ġ ter
c ia
Ġk it
s t
Ġg o
Ġt rans
Ġ2 20
Ġpre ta
Ġb ol
Ġp ar
ta r
ci al
m s
ro n
go dao
Ġm on
Ġdi re
er f
Ġc e
Ġtam anho
3 1
til ha
s andalia
Ġl t
Ġm ul
Ġs l
3 00
Ġv ol
p i
Ġin ox
Ġ0 5
pa raf
Ġpv c
Ġm ic
4 1
ro s
s up
u t
m ba
k e
c la
ca bo
g ra
Ġ2 8
Ġ3 7
Ġfre io
ren te
Ġ y
co la
d u
6 8
b i
Ġ ri
m as
Ġ0 2
b y
Ġp lus
da s
Ġ1 20
Ġ ha
p c
ne x
Ġw h
Ġ2 2
5 00
Ġa uto
Ġ4 2
d y
9 7
Ġ7 0
01 0
re ia
Ġf iltro
Ġc re
uto s
Ġ4 00
ber muda
Ġfemin ina
t in
Ġq t
6 7
p os
Ġre s
to m
p u
Ġv i
Ġg ol
Ġs il
Ġf io
ro l
Ġped ido
Ġe las
Ġal godao
Ġf e
b ol
Ġla r
on a
ida de
Ġl ed
Ġc la
Ġa lu
6 9
Ġde n
Ġ imp
Ã §
Ġp p
ga ta
Ġj o
ra cha
Ġi b
Ġn u
pre to
la mento
Ġde co
Ġsup er
c es
Ġco uro
Ġmeta l
Ġt u
Ġd up
Ġ3 4
in d
Ġp t
Ġb an
Ġbran ca
ter na
il ha
Ġcom b
Ġp as
e t
Ġ on
Ġ3 9
v en
ul o
s te
p en
n da
Ġdi ante
Ġj a
1 01
p or
p orta
s u
0 5
in el
ca pa
p r
ta o
Ġg r
Ġh id
Ġca mis
Ġs k
Ġ ho
Ġ7 89
Ġ0 6
Ġtra se
Ġ0 8
ar d
Ġm ole
Ġp al
Ġestampa do
iv o
Ġ ic
la do
ies ter
Ġval or
Ġ 000
iv ers
4 00
el e
Ġc ho
Ġ2 6
c ed
Ġdes c
1 50
Ġwh ite
ra do
b s
Ġes c
d er
Ġco s
v ol
b or
Ġo ff
jo go
Ġg ran
Ġla te
Ġv idro
Ġf onte
f iltro
Ġsin te
Ġb arra
ir t
Ġ oleo
t ina
6 3
v ula
a m
il ho
o k
Ġt r
Ġ3 2
Ġv a
Ġca b
Ġa nex
Ġm en
an el
7 9
Ġb la
Ġmic ro
i or
is o
Ġor ig
u al
Ġf lex
Ġb lusa
ch e
te s
ra cao
Ġama relo
Ġmascul ino
ma ca
ra o
Ġa s
7 2
ti vo
0 2
Ġ0 3
c inha
Ġtrib utos
paraf uso
p as
t h
Ġ4 8
l on
Ġanex ado
Ġg u
Ġe l
v an
f t
con j
Ġf o
Ġcur ta
ran ja
Ġp u
Ġ0 4
Ġs al
Ġ4 4
Ġs us
x i
Ġ2 3
to p
Ġqu ad
te l
Ġro s
5 8
f i
Ġ2 1
0 8
Ġb i
Ġdi ant
te m
Ġib pt
b l
b ri
in al
Ġn f
6 4
Ġb u
la m
Ġ1 10
Ġlis a
iv el
Ġ2 7
ig h
00 1
Ġcla ro
Ġc r
l es
Ġ7 5
sup orte
Ġ1 000
ran te
Ġpol iester
g an
co s
Ġp es
Ġ3 3
Ġlon ga
g en
ro m
qu eta
Ġs en
Ġmul ti
b ran
v as
0 3
Ġf ci
Ġad ul
Ġsl im
on al
m es
7 4
k a
Ġan ti
Ġlar g
s en
gu eira
Ġc las
c re
s er
Ġbor racha
Ġcal ca
Ġmes cla
Ġbla ck
d ic
5 6
Ġ4 6
i cao
Ġa p
e x
Ġf i
Ġd is
Ġse x
Ġf er
Ġc ris
m al
Ġtam pa
Ġm b
Ġs an
m on
a dor
Ġes p
es t
g re
ma do
Ġre c
Ġpra ta
Ġp or
Ġre nda
Ġba by
Ġlis tra
Ġcha ve
Ã £
Ġp to
Ġs or
0 6
Ġro da
Ġbe ge
d ura
Ġca bo
b an
2 50
1 20
Ġbor da
p in
Ġqt de
g b
z e
r il
Ġmascul ina
Ġg e
Ġd ia
Ġo uro
u x
re f
Ġbe be
Ġk id
c in
Ġadul to
Ġun ica
Ġ1 80
Ġmed io
j e
5 9
n r
ced or
tu bo
5 7
Ġhid ra
Ġf ol
Ġd d
Ġalu min
0 4
Ġte cido
Ġm d
e a
0 9
f ica
Ġne w
Ã£ o
Ġ2 9
l y
Ġve ic
g i
Ġpe cas
Ġme ia
Ġdo ura
Ġm ini
Ġna tura
Ġe d
Ġca ixa
Ġb l
Ġpre s
8 6
Ġalumin io
f ita
do n
Ġf il
Ġb ra
m po
Ġa gr
Ġv isco
Ġg l
Ġtra s
Ġp i
bu cha
d ia
Ġ6 00
Ġp is
7 3
ten tor
c el
Ġ que
io s
f o
a da
pa ra
p ed
Ġi tem
Ġsa pa
an o
Ġc u
Ġma x
ti c
f er
te ira
is s
5 4
Ġla ranja
Ġa g
Ġpro te
lu e
ri o
8 4
pa inel
l t
en ta
s c
Ġpre mi
Ġ0 9
1 10
Ġa t
en a
Ġre d
Ġorig inal
Ġp ri
5 2
Ġl d
igh t
re l
en o
ti vel
sa ia
la o
x o
Ġti po
Ġpol o
ca deira
ula r
co lor
Ġsinte tico
6 2
em ento
Ġa gua
il i
8 7
Ġp er
Ġco d
s i
0 55
dic ion
ul os
ne u
Ġf it
c j
Ġpc s
to s
i as
Ġo s
Ġg al
Ġele tri
Ġpin k
n y
Ġl inha
Ġb er
1 000
0 7
Ġ00 1
Ġ5 5
Ġso la
Ġin ter
Ġc il
ti on
erf il
Ġ im
m ol
Ġcris tal
Ġtributos r
Ġmar ca
do ra
Ġ12 5
Ġpremi um
v is
re gata
m c
Ġi i
b one
Ġs c
Ġlate ral
2 20
Ġco res
6 00
Ġb ar
la dor
Ġmar rom
c il
in elo
Ġto p
l s
Ġmod elo
p al
p ra
Ġm t
Ġla m
c t
u cao
jun ta
p ar
Ġdiante iro
9 4
pla ca
Ġma deira
t re
Ġpr in
Ġse q
Ġcamis eta
Ġ12 7
1 40
sa co
Ġgo la
Ġter m
Ġt or
Ġv w
Ġal ta
c c
e ro
lu va
min al
Ġestampa da
short s
Ġcur to
m er
bran co
ra m
Ġclas s
ar ia
Ġb ico
6 1
m t
Ġcomb us
Ġe an
Ġf un
Ġf la
b ro
c li
00 3
v i
Ġp an
7 1
Ġro se
12 5
ti va
Ġin d
Ġd u
d s
Ġsh ort
Ġnatura l
ti da
pa ro
Ġj un
re la
Ġkid s
Ġp h
ta no
cha ve
Ġn y
Ġlon go
Ġ1 60
Ġ3 1
tro s
a o
8 3
Ġc l
b al
Ġ us
pa da
pp ed
Ġs imp
cola te
c r
Ġdi r
qu er
5 3
ma da
e te
Ġt ur
ida des
ts h
Ġ ol
Ġro l
Ġ tenis
p h
Ġesc uro
Ġb lue
Ġla n
te x
p on
a z
b as
Ġdoura do
Ġsin t
qu i
ta dor
8 2
br in
Ġ4 1
Ġ0 7
Ġmes a
9 3
Ġ4 3
Ġf u
b c
Ġd ivers
que te
Ġv el
f lex
Ġs andalia
ro lamento
bo dy
Ġte x
Ġcomp le
00 2
Ġes pe
9 2
tsh irt
Ġv l
ti a
d en
Ġpc t
p is
Ġ tan
Ġser ie
ia t
tam anho
p er
a g
i an
bol sa
f ort
Ġna o
ra da
Ġca m
d isco
bo ta
Ġn r
maca cao
Ġoc nr
ca ra
man gueira
Ġf os
Ġv en
Ġsus pen
Ġac ril
Ġmole tom
ch inelo
p an
w er
Ġbo x
ha s
Ġ6 5
Ġes quer
di go
Ġes ta
w a
Ġ9 6
sapa tilha
Ġ1 40
t ton
Ġpro f
Ġe ixo
Ġh d
Ġtrase iro
pol o
pos ta
Ġc ru
p es
ca do
g ar
Ġp on
Ġdire cao
Ġgran de
Ġre g
vol ucao
Ġs ar
9 1
pe te
7 00
orte cedor
g as
Ġflo ral
bo mba
Ġa ca
Ġa ba
c x
Ġex tra
h er
Ġun idades
Ġcho colate
Ġg en
Ġb ras
p l
Ġm g
Ġma g
Ġj u
Ġde volucao
Ġa ro
Ġt in
Ġm id
5 1
p erfil
gg ing
Ġf ran
Ġcombus tivel
Ġb al
re tentor
ind ro
Ġic ms
Ġl it
Ġg el
Ġo u
Ġ1 01
g el
tro le
Ġdup la
Ġto t
l en
ja ma
Ġpro posta
8 1
im ento
Ġm il
Ġp os
Ġg raf
Ġl im
Ġb el
Ġm ol
Ġdup lo
Ġl y
r y
Ġso ft
Ġtrase ira
co te
Ġdeco te
val vula
ter ia
ca da
b le
is ta
Ġca fe
c ro
Ġsk in
e las
Ġc en
is a
Ġk a
sapa to
Ġsimp les
re de
Ġelas tico
Ġca p
Ġro lamento
Ġb c
Ġbas ica
s p
cal cinha
ma o
j g
Ġa pro
c tor
me ia
8 00
Ġde l
n iz
ar io
Ġvisco se
ta do
in s
ico ne
Ġre don
Ġ ul
Ġ3 50
Ġbo mba
ti m
es s
Ġval vula
b on
w e
s em
Ġb iv
Ġm in
2 10
Ġny lon
1 30
Ġl ight
ch i
Ġc el
da r
Ġca pa
p neu
c l
t ch
Ġ9 5
Ġm s
Ġb co
a c
es ivo
Ġ8 5
Ġf ixa
Ġ7 90
b ar
Ġv es
d io
Ġes q
ta da
Ġ2 40
Ġte c
Ġf iat
o t
Ġc b
Ġf r
Ġal ca
ma x
co mp
Ġe co
z er
Ġhidra ul
Ġbo v
ber tura
mes a
Ġ8 00
Ġre t
y s
Ġredon do
Ġde tal
b ina
Ġca be
iza da
za do
Ġ7 50
1 80
de ja
n icao
Ġm al
Ġplas t
Ġcan ela
o la
fi bra
s al
iza dor
k o
Ġsuspen sao
gu lar
Ġtu bo
Ġ4 50
pc s
00 01
Ġpe qu
Ġb d
en da
Ġbo jo
Ġpres sao
bo ok
Ġpa d
c to
c b
ru ela
Ġw a
p ino
Ġp d
Ġnu de
Ġsar ja
ro la
Ġauto mo
u me
Ġ9 00
Ġfor d
dia dor
d is
pro te
ul e
pa pel
Ġf ru
Ġ2 10
Ġb b
iv e
g io
Ġbol so
va do
Ġborda do
Ġpe t
Ġca mb
Ġti tan
ter minal
Ġa v
bre a
1 60
Ġa o
Ġa no
Ġp en
Ġc p
3 50
lan te
Ġs tra
x im
Ġm er
por ca
Ġc ir
Ġdire ito
Ġmo to
9 00
ip er
le te
Ġf ron
a ma
on da
Ġpa pel
Ġre gata
ci onal
cor reia
Ġp l
y al
Ġd os
Ġ Ġ
Ġb ri
Ġve da
to alha
ro sa
tro n
Ġpa rede
Ġg re
Ġg as
Ġeletri co
an co
m pe
Ġros ca
Ġespe cial
Ġal to
Ġelas tano
b il
y o
ca dor
un a
co po
Ġpla ca
Ġa te
Ġsil icone
cho que
pi jama
Ġn i
Ġ8 8
Ġg m
Ġs tar
Ġbr in
ve la
Ã ¡
ico te
Ġb ro
es ta
Ġa bs
f io
Ġv o
Ġcro pped
Ġsa ia
t y
Ġm i
Ġcar ro
Ġlu z
n er
Ġp erf
Ġa u
it or
tor io
h z
Ġul tra
Ġsup orte
m ed
p res
Ġpara f
Ġrec orte
Ġin t
tin ta
Ġfa rol
Ġdi gi
i al
Ġf lor
Ġno vo
i va
Ġdeco ra
b arra
Ġ za
Ġbras il
mo d
Ġ1 30
ver mel
ca m
f ic
3 01
p ul
Ġc d
Ġcas ual
Ġskin ny
Ġus b
le tor
qu inho
Ġca ra
Ġma t
te cido
Ġli qu
Ġves tido
g er
Ġs i
Ġp ers
lam pada
Ġlarg ura
ja queta
20 20
Ġcamb io
qu a
Ġmicro fibra
Ġgraf ite
te ri
t inho
tan te
Ġmid i
z z
Ġ ur
Ġdigi tal
o c
n te
Ġf as
ne ira
10 5
Ġfos co
Ġb lo
Ġco tton
k s
Ġl inho
20 21
Ġplas tica
Ġsuper ior
x a
Ġa b
n s
ul l
Ġr u
for ma
Ġgol d
Ġ2 000
Ġfil t
Ġcor reia
m ic
Ġber muda
mo tor
c en
iza do
Ġ1 70
Ġu sa
Ġp mc
er va
Ġun ivers
Ġna pa
Ġra diador
te la
Ġre ta
ina da
Ġver niz
Ġd t
bra s
co lar
Ġsp ort
ol t
f il
Ġ45 00
Ġ ten
dicion al
car re
Ġf uro
Ġk o
vas o
Ġjun ta
Ġcomple to
b is
ra dor
ic e
mel o
t ur
Ã§ Ã£o
ita r
brea gem
gu ar
brin co
Ġdetal he
Ġmon o
20 22
Ġcor te
tra l
Ġsor tido
f r
vermel ho
Ġun i
Ġtra dicional
1 12
Ġca ps
sen sor
Ġpal io
um bo
Ġic m
Ġvermel ha
a t
e ca
lan terna
Ġfa b
ta na
2 40
Ġd iv
Ġclass ic
co va
Ġb io
Ġun o
k er
ba la
min i
un g
bra cadeira
Ġv in
Ġsex ta
Ġf lu
Ġveic ulo
az ul
Ġga v
Ġdivers as
Ġco bre
Ġcre pe
Ġb ic
Ġl ine
Ġso lado
Ġun d
Ġme tros
Ġo p
qu ad
can eta
Ġcan o
Ġin ver
Ġun id
Ġbiv olt
Ġ1 15
Ġbas ico
Ġunivers al
Ġfer ro
g l
Ġs m
Ġte mpe
Ġinf er
01 5
b el
Ġbo dy
10 3
el emento
m os
Ġh e
ar ruela
l in
Ġda gua
Ġesquer do
c d
Ġv ar
Ġre paro
Ġcamis a
Ġsal to
g raf
re z
cha pa
Ġm ix
Ġma cho
ix e
Ġqt d
ia o
Ġ up
Ġv d
na gem
Ġbu cha
c ra
Ġro yal
b us
10 7
ss i
Ġpol ia
Ġ6 4
da do
qu ini
Ġfem ea
Ġm or
inha o
mo fa
ga te
c er
Ġba ba
Ġmd f
mar t
Ġdiante ira
Ġco racao
arra fa
Ġi g
ver de
ran go
bas e
u do
Ġh y
Ġem breagem
7 89
ci da
Ġin j
Ġve rao
s and
ca p
Ġce ram
c v
Ġp el
Ġin te
iv ro
Ġcom pa
Ġpro d
Ġ201 8
Ġinfer ior
Ġan el
00 4
ra y
Ġfol ha
22 5
Ġm el
y a
Ġo x
Ġd in
Ġb en
Ġca ma
b lo
Ġm f
Ġcal cinha
Ġx ad
Ġh p
Ġ17 00
Ġf rente
Ġle ite
Ġam arra
c s
Ġlit ros
Ġd isco
en do
Ġpol i
Ġcro mado
Ġp ul
Ġ5 6
Ġ201 9
Ġ9 9
me tro
a p
Ġc li
l inha
Ġalu m
ula do
ga dor
Ġ2 15
Ġ1 99
il ux
ida s
b b
11 3
ne ctor
fa rol
Ġsapa tilha
Ġden tal
Ġ3 000
v in
Ġm is
Ġem b
Ġsil k
on ia
Ġt p
r up
Ġpad rao
Ġpa mp
j u
in ter
Ã§ a
im e
Ġcre me
ch icote
10 2
Ġ5 2
Ġcon junto
4 01
Ġpla no
co es
Ġun ico
Ġtra va
Ġ iso
iz e
p las
Ġm r
im enta
Ġin color
Ġveda cao
Ġso quete
Ġpo wer
pa rente
qu ina
1 70
tri b
ian as
es to
Ġpa inel
Ġcon trole
Ġ00 2
Ġp s
Ġ um
pel ho
se ira
Ġla va
ic m
va ianas
mm x
Ġ il
Ġla do
Ġpro mo
Ġco z
Ġro lo
Ġh or
Ġl in
te c
Ġsex t
Ġquad rado
ga o
i en
gra de
Ġxad rez
ca ne
Ġex t
Ġc v
ta vel
Ġmo la
ta pete
Ġ7 00
Ġv is
lan ge
la x
Ġf ri
u pa
n t
Ġa ra
in t
Ġes fe
Ġch e
Ġsu b
4 50
Ġv inho
c ur
i jo
11 5
al e
Ġre v
Ġcor rente
Ġ12 00
Ġ201 7
mal te
ca d
Ġo mb
Ġc pr
co ol
an e
Ġbas ic
c ort
Ġs is
Ġca re
Ġm ts
Ġst d
Ġb anho
Ġ9 8
ion al
chi la
Ġ2 30
Ġ9 7
prote tor
bo x
lu x
Ġv m
p tador
s k
inha s
mofa da
Ġb p
Ġe r
Ġcas a
Ġs ho
ic k
mo la
Ġ0 50
it y
Ġma ca
ja o
Ġna t
ar t
Ġfe cha
b d
Ġ ĠĊ
ol o
Ġf an
Ġma d
Ġ1 90
i de
n d
lo te
f one
Ġle ve
Ġcolor ido
20 3
sapa tenis
f l
Ġmen ina
Ġcar re
ran ca
Ġra p
Ġam ortecedor
00 5
us e
Ġfilt rante
Ġin je
8 01
ha mpo
f ar
Ġpamp ili
Ġlo ve
s il
2 000
Ġr f
ca ca
Ġb ron
Ġ8 10
Ġpara choque
ms ung
b ico
Ġ uso
se t
Ġlu xo
le t
40 4
hampo o
co m
Ġ5 4
Ġacril ico
f ol
Ġbr ilho
bo la
Ġw e
Ġa ss
Ġso bre
iv ela
bone te
le ira
Ġs ch
Ġre tan
Ġmo rango
Ġtri co
Ġtrans parente
o d
Ġor gan
1 90
Ġr s
Ġap l
Ġdes car
Ġsol da
Ġh er
Ġsen sor
Ġca t
Ġz in
es a
la da
Ġtu b
Ġin s
Ġapro x
i re
Ġre tro
Ġ6 3
di al
Ġel emento
Ġb os
201 9
Ġco f
2 30
a ra
Ġco co
12 7
mas cara
Ġcor sa
mo to
Ġcas al
pa dor
Ġne on
Ġt ro
c ci
Ġped cli
Ġ1 75
Ġpo p
m ida
20 5
b la
Ġc t
Ġfor ro
Ġde t
p v
u ti
Ġe va
Ġco digo
go la
Ġliqu ido
el l
Ġa na
ad esivo
Ġes to
un d
i k
m ts
Ġc j
Ġlo cal
Ġc ra
Ġc z
mol dura
Ġ2 60
Ġ5 7
Ġflex ivel
i i
Ġc er
Ġman ual
Ġval idade
Ġpar tida
t is
Ġf us
Ġ2 80
20 2
Ġ0 22
o m
Ġ00 01
r inho
quad ro
Ġs tan
en d
Ġ ran
Ġvl icm
Ġa reia
Ġm us
Ġf ita
Ġcara melo
rup tor
Ġbarra s
Ġ3 60
Ġ5 8
p f
Ġs ize
Ġcin to
Ġs pe
er ica
Ġ1 12
Ġpo a
Ġd r
ho s
Ġshort s
Ġmed ia
bor racha
h eta
i ma
10 6
ul ha
Ġes sen
ma deira
Ã ©
Ġch umbo
Ġfron tal
u las
Ġpers onal
Ġig nicao
Ġte la
Ġcil indro
a a
bro ca
tar ia
Ġflo res
Ġe di
Ġli las
Ġterm ica
Ġc le
01 2
ten te
Ġlo go
Ġparaf uso
Ġe u
ma c
Ġs el
Ġf l
mis sao
Ġna tal
to es
Ġ is
te iro
Ġdo ce
Ġfa ce
Ġ201 2
Ġha vaianas
s os
Ġsp ray
Ġal fa
xi al
Ġre tor
Ġomb ro
Ġprote cao
tra to
su tia
Ġcar bon
Ġla co
b en
do nda
ica l
po te
201 8
Ġsexta vado
Ġt h
Ġex p
17 5
c p
co xim
is e
Ġso cial
Ġpe rola
a bracadeira
Ġd n
Ġk ing
Ġun idade
c io
Ġad es
Ġa ir
an do
Ġz iper
in as
ente s
Ġlistra do
Ġsa bor
Ġgra ma
Ġcos tura
Ġh ilux
Ġce tim
4 000
Ġp ino
Ġa f
ic le
Ġno va
Ġfun do
ro z
ra r
Ġt x
in f
p to
pro d
Ġg ira
pla y
Ġcon j
10 8
13 5
Ġdes en
Ġprof iss
fe ite
Ġco la
Ġbr il
Ġv ia
14 5
Ġcomb inada
mon tina
cin za
p ivo
Ġl ts
Ġb one
re a
Ġb is
l im
Ġ2 25
Ġfio s
Ġm u
Ġf enda
Ġlam ina
f re
la na
Ġf el
/ /
to ne
Ġ01 0
gre nagem
Ġso m
cil indro
al o
Ġinver no
tra da
Ġlate x
se x
Ġsa msung
Ġsem i
Ġjo go
te ma
Ġre gu
bo bina
Ġn or
Ġ6 7
t rans
3 000
f us
er g
Ġl g
Ġin v
Ġcomp os
Ġvi as
Ġa da
Ġc s
Ġref or
d r
Ġcar ne
Ġli q
00 6
Ġda ta
tu re
cin to
Ġs x
Ġco ra
ul t
Ġsus p
Ġ4 7
Ġa ci
Ġco ral
Ġt he
e p
ta cao
Ġre to
gu e
Ġ00 3
la ma
Ġt w
Ġm p
Ġh el
Ġcin tura
ph one
Ġs w
a b
v idro
Ġc g
Ġf ino
do rante
Ġcu bo
e ixo
Ġd ol
Ġprofiss ional
Ġm un
Ġcor po
2 80
Ġmen ino
oc ulos
cort ina
Ġa ux
ve ja
Ġcor re
Ġim pa
res so
cha o
01 8
Ġpas tilha
h l
it ter
20 23
Ġfo to
pa rel
Ġ6 000
Ġm os
m pa
Ġ1 19
Ġama rela
ca b
Ġpas sa
con d
Ġam erica
Ġmeta li
Ġpri me
mo chila
ga do
Ġpre co
Ġr n
ba mento
Ġla c
Ġgav eta
11 6
Ġse gu
Ġ1 35
ban deja
Ġk ind
Ġqu al
Ġlu bri
Ġ3 20
Ġtur bo
w n
ica te
Ġre na
Ġto tal
2 12
ch u
Ã ³
01 6
11 4
gu ia
Ġ0 40
tra s
Ġg ar
tam p
Ġf d
fe ren
10 4
Ġcen tral
Ġu v
Ġa la
Ġbor do
Ġretan gular
Ġp un
Ġph il
e ti
Ġcab ine
Ġo f
Ġt ule
Ġcolor s
m ole
ca ma
v d
Ġb t
re g
01 3
Ġca pu
relo gio
ti ve
za da
Ġh onda
Ġele tron
Ġamarra cao
Ġa ber
Ġti gre
Ġsu a
maca quinho
Ġre donda
Ġtra montina
g arrafa
t t
Ġe book
Ġi r
he iro
me t
Ġ20 20
p iso
11 8
Ġc f
Ġa ce
ma tico
mic ro
z o
ce lana
ie w
2 60
m em
mm er
s ol
Ġ5 3
Ġcom fort
Ġveic ulos
re paro
Ġra ste
f un
e an
b ic
d ente
mar inho
Ġkind le
r s
Ġ6 6
d an
am ortecedor
Ġhidraul ico
d ica
Ġs un
cre me
g ol
01 7
Ġ0 23
01 4
Ġ7 8
l is
Ġli mao
Ġmas ter
li que
Ġcarbon o
12 00
Ġca po
Ġque en
Ġrol os
z ul
Ġf res
Ġfi bra
Ġ3 80
de ral
Ġr p
m alha
Ġle gging
Ġl en
Ġt re
k i
lu b
vis or
h i
Ġ1 14
Ġf ull
Ġso lar
Ġind us
Ġhidraul ica
Ġfa ixa
Ġp ele
Ġme t
Ġa j
es cova
p k
Ġf ar
Ġ00 00
Ġprin ces
Ġre tentor
Ġ one
Ġdia m
Ġde c
u ca
Ġ10 5
ba teria
ve is
3 20
Ġc k
vel o
an g
30 4
Ġban deja
Ġdo bra
Ġeletri ca
7 50
Ġdivers os
Ġen ca
Ġon d
Ġmulti uso
bi quini
ri m
Ġ201 3
pin k
Ġcir c
yo ta
l ivro
so ura
Ã§ o
Ġbox er
en t
Ġfre e
Ġpequ eno
Ġpolia mida
Ġceram ica
cane ca
Ġbron ze
Ġun is
l ente
ve iro
cu eca
Ġ1 13
ti lador
Ġfas h
Ġja c
il e
18 5
Ġa ta
Ġn as
Ġnu me
Ġfol has
Ġbo toes
Ġne o
ta gem
Ġval v
Ġl um
Ġtin ta
Ġprin t
f as
Ġh i
n i
Ġbo ta
Ġpo te
12 4
Ġlon a
Ġs mart
Ġf esta
Ġsu ed
Ġmo da
Ġro xo
Ġ9 4
Ġ201 6
fica nte
Ġl iv
30 5
16 5
b f
van ca
Ġ id
20 8
Ġp n
Ġco po
ie la
10 9
ma te
20 6
le y
11 7
Ġcha pa
d f
Ġw or
parel ho
tam anco
Ġcabe cote
Ġne u
Ġun iv
fica dor
Ġ201 0
Ġtrans p
Ġha ste
g ico
Ġcon fort
f u
Ġon u
Ġbol sa
w h
de a
Ġla t
Ġgra de
Ġ9 2
lan ca
Ġa e
Ġst re
Ġcoz inha
Ġ8 4
ten cia
ca fe
d d
pol ia
Ġ1 45
ral da
b ana
ves t
es pa
in os
ras co
g ne
cm x
Ġsegu ranca
Ġg f
Ġ30 4
Ġman gueira
tri co
Ġh ig
g al
i ana
Ġd ry
20 4
3 80
m ul
co nector
ro lo
Ġn s
sa dor
Ġga lax
Ġre al
Ġc ig
Ġ4 9
Ġ7 6
lo w
Ġbov ino
Ġam endo
Ġsapa to
Ġt c
pas ta
Ġgrama tura
Ġo m
Ġter mo
Ġpri ma
res sor
01 9
15 5
Ġ tal
Ġca ca
Ġres ina
nex ao
Ġj g
Ġbo tao
for m
ven il
Ġs li
Ġf is
Ġlis ta
Ġd an
Ġb s
il l
Ġse g
Ġt ran
0 50
o me
or ia
ies ta
c f
Ġg ir
le gging
Ġga mer
Ġporta s
Ġgu ia
Ġin tel
e iro
12 6
Ġ15 00
ter n
Ġi p
pu ma
de m
h d
ona mento
el ho
Ġcas tan
o ff
Ġs ti
Ġ201 1
Ġz ir
cro pped
n u
Ġd ar
Ġri o
Ġii i
f ls
co bertura
Ġlan terna
f im
van da
re t
ter no
que t
Ġan d
Ġvol vo
a co
ris o
Ġac es
lam ina
can ia
Ġest rela
un da
Ġf sc
bo m
Ġcon d
Ġcel ular
o u
Ġs on
Ġad esivo
Ġlistra s
Ġbaba do
Ġcos tas
ti mento
Ġv ul
Ġma is
Ġlistra da
ic ula
18 8
Ġmat te
Ġs s
Ġ1 16
for d
Ġinter no
uti en
icle ta
Ġv r
Ġc it
ti cal
Ġbo la
Ġ0 25
Ġcom ando
Ġz ero
Ġbe a
bis c
bo tina
Ġcol cci
Ġp neu
en s
f em
Ġs b
sa do
fe cha
Ġtan que
Ġf ox
20 7
Ġma te
Ġ100 00
ada ptador
Ġd ura
du cao
Ġfash ion
os s
tri al
Ġbos ch
t c
Ġc ic
Ġin digo
11 9
ro da
i dor
Ġfixa cao
2 15
un o
Ġba ixo
30 3
Ġaba te
g ran
Ġh b
Ġa ero
es el
12 8
bu ck
Ġag ri
Ġto yota
Ġco le
pra to
Ġ1 17
pul seira
to ra
Ġo uto
Ġcof ins
es malte
Ġti ra
Ġc c
Ġapro xi
Ġp alha
Ġmas sa
Ġho t
Ġ6 8
Ġ200 8
Ġ201 5
bala gem
d c
Ġal terna
eta l
bol eta
Ġbril h
Ġsa ida
Ġ00 5
Ġv aria
sa bonete
11 1
Ġsu e
ca be
Ġ00 4
Ġres erva
Ġpal m
Ġdol l
n ess
Ġv as
Ġal t
Ġ201 4
v inho
00 7
Ġenca ixe
Ġ2 75
Ġj an
calca dos
Ġ6 9
ic or
ti v
Ġcon dicion
Ġbl in
Ġouto no
Ġd ra
Ġes ca
u ch
30 6
mar io
ve ra
Ġcapu z
p il
Ġla vanda
Ġimp er
40 3
Ġmil itar
Ġs d
Ġes pa
mod ulo
Ġr us
col ine
pu x
Ġf ra
3 60
Ġg tin
isco ito
Ġgalax y
prod utos
ia do
le ite
f lo
Ġ1 38
Ġretor na
mas sa
Ġbra co
g ral
00 000
Ġ2 70
Ġt v
Ġtra d
Ġce re
Ġju venil
Ġretorna vel
Ġc ri
w m
Ġ1 18
po t
tur no
Ġc i
Ġ3 25
20 9
rar te
c ul
pe u
Ġele tro
Ġter ra
Ġfe deral
Ġs and
Ġf ixo
Ġg ros
Ġflo rarte
Ġba g
201 7
onte ira
Ġp lan
Ġcha ssi
Ġindus trial
o a
t b
t x
Ġpromo cao
c ina
00 8
22 2
camis ola
Ġcab elo
Ġfi re
Ġlote s
Ġcon s
Ġen erg
tic ula
m il
is k
Ġ7 2
Ġter minal
Ġni ke
t us
Ġv elo
ip s
Ġgl itter
Ġ5 50
Ġli ga
c ris
Ã Ń
Ġb on
30 2
Ġdire ita
l d
ga da
ico s
qui ti
Ġb g
Ġ5 9
Ġro upa
c ula
car ne
Ġe g
tu cho
Ġrecorte s
Ġaproxi mado
Ġj ard
Ġfa bri
tor ia
as s
Ġch u
Ġapl ica
ta to
13 6
Ġs cania
es p
Ġpequ ena
l er
Ġd c
ca saco
Ġlista dos
Ġno te
Ġs te
qu ard
Ġunis sex
Ġc lub
Ġcar go
il o
Ġimp orta
Ġaj us
c le
30 8
tor neira
3 15
re te
ira l
Ġ8 6
l ha
Ġp lu
Ġdi esel
Ġcho que
para dor
Ġa x
ig n
gg er
Ġlubri ficante
Ġe li
Ġden im
Ġtrico t
Ġbo m
Ġh idro
me ra
car ia
Ġbol o
30 7
m x
is ter
Ġpa la
ma cao
teri al
i fa
Ġ9 3
Ġlam pada
01 1
Ġcomple ta
g on
ra to
Ġrap ido
6 000
h p
Ġe uro
Ġcon f
m ix
tra va
Ġ20 21
po io
Ġfru tas
Ġc lo
ing er
Ġd as
ne y
Ġ200 9
Ġcabe ca
g os
Ġpon ta
a f
Ġs ur
Ġbor boleta
v t
va da
pol iester
blo co
es pelho
Ġar t
te leira
Ġam p
40 5
Ġfa cial
gra mpo
Ġgal v
f an
so quete
th er
Ġg or
qu im
Ġ5 000
io g
Ġcare ca
ba lao
t ula
Ġte mp
du tor
ck er
ine te
vin il
i um
Ġx g
Ġ7 7
e f
m r
Ġstan dar
Ġprima vera
Ġdi feren
Ġped ra
Ġd al
Ġb x
Ġfor ne
ilho s
Ġma o
v s
ra p
m f
Ġp b
Ġp ort
Ġfla re
l ts
Ġma qu
13 4
Ġsa co
Ġex terno
cu bo
Ġse da
z ol
Ġp iso
Ġba teria
Ġfor ma
s on
20 24
Ġ00 8
3 25
re ta
des o
der no
m en
f ri
Ġf ix
Ġ6 2
13 8
Ġcar ga
la ranja
Ġb iz
cor rente
he ira
Ġbrilh ante
m or
t l
Ġmd p
ol la
Ġ8 7
tro na
sa cola
is tro
12 9
Ġi ta
Ġb iela
al godao
so utien
cla do
f onte
fa ca
Ġs pa
Ġve la
Ġm ine
Ġf iesta
p ort
Ġb y
tri bu
Ġpra ia
l ona
u re
Ġp erfil
Ġf ina
Ġ8 2
Ġimpa cto
00 9
ma ti
ce te
guar nicao
Ġpe ro
man g
14 4
ido s
Ġser rada
Ġl r
14 8
Ġhidra tante
Ġlim pador
Ġf c
bo tao
Ġsa o
Ġgal van
ba by
Ġal l
Ġme can
b io
Ġver m
Ġref il
Ġmetali zado
Ġnume ro
Ġpe ca
Ġg elo
Ġr t
ba ta
Ġov al
im al
Ġcas e
Ġesquer da
f b
Ġt sh
Ġje quiti
w p
Ġsh irt
lu min
Ġtrans missao
Ġraste ira
h n
pa ck
Ġro bus
12 3
Ġ18 5
andal ias
mo v
Ġ00 6
z ina
Ġ it
is h
br isa
Ġdecora tivo
n io
t to
Ġma ra
Ġon ix
Ġden tada
Ġaca bamento
t p
Ġ20 5
19 8
Ġ3 30
Ġt l
que do
Ġfuro s
Ġpa cote
Ġsa b
Ġpa pe
Ġtin to
Ġ00 7
inter ruptor
k v
ti fica
Ġan gel
Ġno buck
2 70
Ġpla y
Ġnu tri
Ġesfe ra
Ġla ser
Ġcanela do
Ġs ta
Ġb lus
Ġkid y
Ġinte gral
ele tro
pin cel
i tivo
ma io
Ġa le
ha do
a ro
3 10
s hampoo
Ġv on
Ġforne cedor
Ġz z
Ġu va
2 90
g s
un ico
Ġpol y
Ġstra ss
Ġcor preto
Ġjac quard
Ġn c
24 5
bu a
Ġcanela da
Ġt s
id er
up o
Ġjo gger
Ġaces sor
sa b
mo c
4 10
Ġcur va
ili ar
im o
Ġbone ca
Ġneu tro
ge la
Ġlu x
Ġin terna
se iro
Ġquad rada
Ġsub li
a gua
ha ste
2 75
al mofada
Ġ12 8
que ira
ter m
6 01
b co
Ġem bu
Ġpis tao
l ixa
inho s
Ġsol teiro
elas t
Ġstandar d
Ġpor celana
Ġqtde ml
Ġpe q
raf t
Ġa ut
Ġ19 5
ma quina
Ġvel udo
da dor
a la
Ġb ig
Ġla v
p d
pe za
ca re
Ġes por
Ġblin dado
Ġmag ne
Ġ2 19
30 9
Ġfi la
g ia
Ġd s
Ġla ta
ke y
mul ti
Ġr l
Ġco lo
Ġt n
Ġto alha
Ġporta til
s un
y l
Ġf s
Ġca val
blusa o
Ġch ar
3 40
Ġd re
Ġta c
Ġrobus t
Ġex terna
Ġg d
Ġd y
re x
Ġun c
Ġf h
pal heta
Ġinje tor
pas tilha
14 6
Ġdescar tavel
fecha dura
f on
Ġmas cara
iza cao
Ġalfa ia
Ġf g
Ġt ru
Ġcar ter
Ġprin ci
29 5
pp er
est le
Ġf t
Ġm ilho
Ġfit ness
7 01
en grenagem
Ġ0 80
qu esa
ing ente
Ġbico lor
Ġalterna dor
Ġn os
Ġpape lao
is t
Ġma c
ble ma
Ġtempe rado
Ġsue de
Ġc iv
Ġl ixo
Ġdoura da
Ġfran go
deso dorante
Ġa xial
Ġti ras
bra co
3 22
Ġclas se
Ġa a
Ġt m
Ġ20 22
Ġmole tinho
eti queta
Ġond ulado
Ġg ri
Ġ01 5
Ġvin il
Ġtsh irt
Ġd or
p m
s an
Ġpol e
Ġlon g
Ġsis tema
d b
Ġ2 17
Ġme ga
Ġtro p
f c
Ġ7 9
Ġdesen ho
Ġs ort
19 5
ar i
Ġ16 5
Ġan os
Ġw o
res sao
Ġh ex
Ġlocal izada
p n
es c
Ġr g
mpa gne
Ġs r
ur ca
Ġcru z
Ġ6 50
Ġba m
f ra
Ġaux iliar
14 7
Ġsa che
p lu
re na
co d
Ġman cal
c orte
ia da
Ġpor ca
t inha
15 8
iz ante
Ġas tra
in te
Ġmes es
2 13
in k
Ġ3 40
Ġpes o
Ġ790 8
2 16
fus or
Ġg i
man ta
Ġf orte
Ġf lange
Ġcol onia
Ġho me
Ġrolamento s
Ġa ne
p erf
co bra
Ġdis tribu
p ira
Ġal len
ti r
Ġ0 20
Ġ8 9
iza dora
Ġsor tida
Ġg er
Ġn it
Ġh igh
a parelho
Ġav ul
Ġcarro caria
n h
Ġn pt
ix as
Ġso ja
Ġco xim
ura do
Ġcon for
3 30
Ġra s
Ġpas s
c ta
v y
14 9
Ġb m
Ġt b
Ġcle an
Ġalfaia taria
Ġp ente
Ġtempe ra
Ġprod uto
Ġx l
Ġsan ta
Ġlim peza
Ġgre en
Ġ0 24
Ġ5 1
lan d
su b
gen s
a x
Ġf rio
12 1
ras teira
Ġ16 00
Ġes tr
l m
u a
Ġca mel
ca derno
y le
ten sao
k m
qu ot
c imento
Ġf en
Ġun icor
Ġk lin
Ġto n
Ġa bertura
to la
40 8
Ġpro n
cris tal
p ri
Ġre p
Ġen tre
Ġs n
Ġ9 1
ris ma
ro na
Ġf f
Ġb and
Ġe f
Ġr d
Ġsa e
Ġl c
Ġre le
Ġz e
Ġcastan ho
Ġfres h
Ġs vo
Ġfa ca
Ġusa do
Ġcompa tivel
Ġs im
12 76
Ġal mofada
Ġf ps
Ġ0 35
40 6
Ġ0 60
Ġs ha
ed or
25 5
Ġde so
ti das
pres ilha
Ġpun ho
Ġsued ine
Ġe as
Ġde cor
do m
Ġoc cu
Ġpi quet
v m
Ġ6 500
Ġ8 3
13 7
Ġf ls
Ġo ut
000 3
26 5
44 8
de o
Ġes pelho
Ġi phone
Ġblo co
esto jo
90 6
Ġho moc
Ġmen ta
Ġp inhao
co lete
en feite
Ġte to
lumin aria
f m
z io
Ġg s
o th
Ġma xi
2 11
140 6
g ro
14 3
28 5
Ġvol ume
Ġhor iz
v io
Ġv ira
Ġn estle
so la
Ġc up
Ġd on
22 9
Ġi tal
Ġmar ia
Ġh ar
Ġbor d
Ġstra da
Ġzir con
u cia
Ġin ten
Ġdecora tiva
pp y
Ġvul can
re b
4 20
v it
Ġba t
pa o
de f
Ġma quina
car pin
Ġcha mpagne
cin ta
Ġregu la
Ġ1 11
Ġdo g
tri ca
tu ri
Ġcaps ulas
Ġdar k
2 35
ta co
u ri
Ġmar fim
Ġ200 5
Ġqu art
Ġes cova
90 5
bla zer
e re
t ti
plas t
Ġ4 01
Ġl v
Ġata cado
c y
36 5
ru tura
Ġsp r
Ġg la
Ġpa res
Ġped al
Ġju v
Ġly cra
f la
Ġ2 18
15 6
Ġtri p
tan ga
Ġmes tre
cur va
la va
Ġar ti
Ġp ivo
000 5
o v
con dicion
f ru
Ġcom um
Ġlo ok
Ġse p
jun tor
Ġan imal
Ġsil ver
in ga
ch or
z ante
Ġb sp
12 2
40 2
Ġw al
Ġbol sos
Ġe ti
Ġcon g
Ġpol ido
u d
Ġve g
Ġfabri ca
Ġ1 100
Ġdis ney
Ġdu o
Ġesta bil
Ġma terial
Ġte ch
Ġon ca
Ġgu ar
Ġ3 10
de dor
ur t
res s
Ġbel la
Ġa qua
Ġco pa
es m
Ġmo de
90 4
mb i
6 50
Ġm y
Ġm wm
ran a
Ġto dos
Ġtub ular
Ġfa cil
Ã ª
te mp
ba tom
tra ves
ito s
Ġp ia
26 8
t n
os tra
Ġ15 6
cida de
60 7
Ġcolor ida
Ġades iva
3 16
Ġ4 20
Ġes m
lado ra
ta ge
60 8
Ġfol he
we e
h y
Ġ4 000
Ġ789 9
Ġil um
Ġp j
Ġn br
22 6
Ġgu a
ss t
pel icula
Ġp g
Ġa poio
co nexao
Ġl s
Ġlu va
0 25
c tra
n es
ran o
Ġ200 7
je ans
Ġmol dura
Ġala vanca
Ġca es
ix eira
Ġ2 65
Ġal g
ser ra
f it
Ġtri coline
Ġor ing
f s
f w
Ġv ida
ran ha
Ġib c
Ġcil ind
Ġsua ve
Ġane is
n os
Ġre gular
39 5
g in
on d
bo s
Ġar co
re d
35 5
Ġle ito
wh ite
Ġvon der
Ġ25 00
du al
f lange
ne t
Ġmul her
Ġro man
mo use
Ġam ar
Ġlu a
Ġcro mada
Ġp ica
Ġco re
Ġn ro
13 3
ves timento
f ante
60 5
70 5
Ġqu ente
2 19
50 5
Ġjard im
b t
f ix
Ġna p
70 6
Ġam or
Ġne ve
Ġv it
Ġcon tra
Ġ18 00
tar da
Ġck j
ma tica
Ġ12 4
te lo
Ġba ta
ced es
Ġf ort
v iew
co uro
Ġk s
24 8
Ġga to
Ġge ome
Ġde f
80 5
Ġfla t
la pis
le d
70 8
ig en
ama relo
tam ento
ge rador
Ġ iv
000 2
40 7
Ġp m
co tton
Ġcro ss
Ġx t
000 4
tra do
13 9
cho s
can te
pux ador
Ġ2 16
Ġj us
Ġsa p
fa ixa
Ġu til
Ġli fe
Ġcen tro
m enta
Ġ2 90
Ġcro m
elas tico
ig an
23 4
pol trona
capa cete
2 18
h t
z an
vo re
Ġch i
Ġaba ca
s el
de x
c g
d el
ol ina
3 12
em blema
130 6
Ġc and
co lo
Ġ2 35
x x
Ġs hampoo
al icate
Ġca mp
Ġtur quesa
ta forma
us h
40 9
Ġcha mp
len col
Ġcam urca
Ġpon to
r ia
Ġ2 11
36 6
o p
Ġm iss
ma ra
Ġcor olla
22 8
Ġge ral
g or
a ba
Ġ1 37
Ġs ele
Ġla tao
Ġse co
ap lique
v w
Ġpis ca
Ġfu me
u ge
Ġlar ga
Ġs ul
do re
Ġ0 30
Ġtrans pas
Ġha v
Ġacessor ios
Ġb f
Ġ7 4
Ġser ra
l b
is sa
Ġban ana
Ġ789 1276
h el
Ġp imenta
Ġco ne
e ma
Ġbo bina
ven tilador
mole tom
Ġs y
Ġ0 75
70 9
Ġca mpo
Ġrena ult
Ġre trato
60 6
be la
Ġagri cola
Ġ4 40
Ġar gola
23 6
Ġro ck
cu o
a u
x l
Ġte en
Ġse ca
bi de
ped ido
Ġmer cedes
Ġsel f
Ġd ual
to neira
70 4
Ġunicor nio
35 9
cor re
pa d
Ġro ta
Ġ10 9
Ġ200 6
Ġdes con
Ġqu im
ut y
2 14
Ġa ven
Ġpar is
Ġhid r
2 17
un i
Ġk e
to mada
ba tente
13 26
70 7
Ġto mada
39 7
Ġes colar
22 1
Ġgra va
Ġsi ena
Ġcondicion ado
e c
Ġp ta
po wer
p ilha
cal co
Ġsor tidas
Ġme tro
3 45
w s
Ġx gg
ci te
90 8
Ġfran ces
do uro
ime tro
Ġ2 45
do bra
80 8
Ġfor m
Ġsol d
cre to
Ġto uch
Ġos so
Ġprinces a
Ġ1 34
re e
re o
Ġn ivel
Ġst ri
be b
Ġban heiro
b lue
80 6
a ca
c ic
n ie
Ġe p
Ġz b
d ra
Ġ2 22
pon ta
Ġd ri
vo x
Ġsinte tica
Ġesca pe
Ġv an
ne w
27 9
i ante
Ġre de
Ġen gate
99 9
a h
01 00
las er
man n
Ġ2 95
Ġsu mmer
Ġja queta
ka t
Ġesta dual
z ido
Ġam ort
resso ra
cha s
ita rio
Ġdis play
el eta
Ġn um
Ġr c
11 00
60 4
wa y
90 9
24 2
i bra
v ido
Ġma q
so ft
ce ira
Ġedi cao
t ta
Ġe con
ten a
Ġbi quini
w in
x r
va o
ite m
tas ia
Ġprote tor
Ġran ger
Ġtempera tura
Ġco bertura
Ġv ic
tro l
Ġden t
mol ho
Ġco letor
n f
v r
Ġd p
Ġa pp
ce ra
fic ial
Ġg an
Ġ6 1
Ġri g
Ġ Ã
que iro
Ġe la
Ġ00 9
2 100
Ġ12 6
car tucho
Ġmine ral
l ine
les s
Ġc trib
Ġmar i
Ġcre mos
Ġfecha do
to oth
Ġes f
16 9
Ġch ic
4 40
f lor
Ġb em
Ġpara brisa
col her
Ġeas y
3 17
Ġvas o
i jao
p ta
Ġg b
Ġser v
sun ga
c us
re to
Ġl ixa
pa i
Ġar tes
b es
pra ta
w o
Ġ0 90
las h
tra ca
Ġ20 3
23 8
29 7
Ġri bana
Ġhig ien
ed al
Ġro ma
os o
35 4
Ġpre view
Ġla b
Ġ15 5
ine ira
Ġblus h
0 45
Ġf ivela
Ġ0 45
80 7
id ra
Ġtri ang
Ġmic key
Ġnote book
Ġar te
Ġcho c
Ġcorre r
Ġamendo a
Ġc cli
Ġes puma
con trole
28 8
Ġmetal ico
la cao
Ġre tra
be ge
lan t
Ġac qua
ref il
Ġre lo
Ġdescon to
i lar
Ġg iro
Ġpa p
Ġ20 6
Ġch inelo
Ġros to
Ġba un
27 8
ver niz
bol o
Ġtex til
g m
de la
Ġch ur
Ġz o
Ġur ban
28 7
Ġretro visor
e z
Ġb ros
Ġn p
sa la
Ġen trada
cor da
b iscoito
Ġco nector
80 3
Ġele t
ya ge
Ġtrop ical
d inho
te ch
Ġpara lama
cha peu
25 4
24 7
h al
Ġt res
22 4
70 3
Ġterm ico
5 50
re p
al cool
Ġ0 65
las s
er ico
Ġ20 7
Ġcar b
Ġsup re
Ġjo hn
Ġblue tooth
Ġc n
ten sor
di lar
chu teira
Ġbo y
a e
Ġde r
k w
re ira
23 7
75 6
29 9
k en
or k
Ġca mu
15 9
ver sor
Ġu ma
Ġwh isk
Ġf al
ten cao
Ġcha ta
te clado
Ġ2 200
22 7
24 4
Ġcole cao
Ġ7 3
70 2
sup er
Ġprinci pal
s mart
Ġl ivro
Ġre ce
Ġba ixa
Ġam bar
pal io
Ġpre n
60 9
cal Ã§a
pe ra
Ġsa la
calca do
Ġval id
Ġcomp ri
sem ente
Ġhex ag
a ze
t ter
Ġs tone
34 4
Ġad idas
Ġf ly
al ca
it s
Ġ8 50
ura dor
27 7
Ġle g
iz z
l ista
Ġe c
ura o
15 3
cal ip
35 3
Ġvol tagem
Ġden tes
cos to
u ba
Ġ20 8
Ġi pan
ren da
Ġic e
Ġp f
Ġm em
80 4
16 7
ve te
a mp
c tion
el os
s is
pol i
Ġvi va
l l
p ano
la te
Ġba u
Ġmetal ica
Ġconfor to
c ru
p onteira
Ġ1 36
Ġso f
24 6
h or
y mp
ra is
to x
Ġl il
15 00
Ġw i
car rinho
tel ha
Ġmo vel
15 4
Ġp q
Ġp ig
Ġs andalias
Ġg arrafa
tam ina
ba o
Ġhd mi
m y
Ġ2 12
Ġdd r
Ġbrin de
Ġdiv er
b um
Ġ7 1
Ġ9 98
60 2
15 7
ve t
Ġpel ucia
Ġv s
Ġre moto
Ġk i
Ġo ver
qu el
Ġsu tia
Ġy ama
h s
l p
Ġmo veis
Ġcon fe
29 4
Ġpin tura
Ġgran el
Ġimporta do
0 20
Ã ´
Ġro up
Ġcor da
li p
ele rador
60 3
za dor
ino x
Ġdia man
Ġesfe ras
fas ico
Ġ ia
ta bua
Ġin c
me a
Ġcar caca
v eta
x eta
al ho
Ġ4 80
50 9
Ġro das
13 2
Ġ45 01
Ġsal mao
Ġaber to
Ġcremos o
g ica
l ixeira
26 6
Ġme io
carre gador
Ġeletron ico
Ġbam bu
v ilha
Ġ3 75
ul i
Ġ10 4
Ġ10 8
Ġsa ta
Ġbar b
carre tel
m d
p lus
la mp
Ġr is
Ġauto matico
ag ulha
f ox
ca no
re le
Ġaz l
35 2
Ġacril ica
f ralda
Ġc ed
ra cite
Ġ4 10
Ġsa veiro
0000 00
u tion
Ġco ol
Ġre x
Ġes ti
Ġk n
35 6
Ġpul seira
e fic
j i
t d
Ġa sa
Ġs g
cho c
Ġmod er
Ġk y
18 2
he y
Ġpres ente
b ron
Ġs ed
23 9
Ġfer ra
Ġh u
me ga
90 2
17 8
Ġmul t
Ġban co
Ġpal heta
Ġborda da
Ġlan ca
ti tu
Ġpa ck
16 6
Ġ200 4
Ġgo ta
Ġc is
80 9
Ġlen col
id i
Ġlo ren
24 9
28 6
Ġreg ina
e k
ri co
Ġto mate
Ġcam inhao
Ġcan a
mas c
p ia
v ia
ti al
en gate
50 3
ga das
26 9
Ġta ble
Ġou vido
Ġb ul
Ġb lu
Ġl em
Ġag ulha
Ġ18 8
Ġelas t
Ġsolda vel
Ġa mo
50 6
Ġr un
Ġver tical
Ġst r
Ġto m
car t
Ġko dilar
ta ca
10 30
22 3
Ġna cional
dis juntor
el i
Ġra dial
26 7
ine tica
c pr
35 8
Ġcel ta
Ġphil ips
Ġv z
Ġdo u
25 8
Ġmes tico
Ġinter ruptor
Ġnr ped
te soura
Ġk raft
Ġoc ulos
28 4
Ġflo w
Ġlit ro
Ġa st
Ġca chor
Ġes co
Ġdeco racao
Ġfer ram
Ġline ar
c lor
Ġes malte
90 3
Ġbo t
Ġ24 00
bal cao
Ġcaca u
unda i
Ġretra til
l it
r c
s onda
Ġpe ito
Ġgol f
h es
z on
Ġb us
il la
Ġh al
po lar
Ġdi g
Ġ14 4
st ru
h b
Ġv ita
ces sa
d uto
ma d
Ġcor dao
Ġ01 2
tana do
Ġg t
Ġ10 2
18 6
100 1
Ġ01 4
Ġcla ra
Ġtex tura
Ġaca dem
Ġautomo tivo
15 2
Ġres fr
su co
Ġclass ica
Ġcand y
u sa
Ġ01 7
Ġesp iral
comp ressor
Ġqual idade
Ġd z
en cia
18 7
35 7
Ġamerica no
b m
na kat
38 5
29 6
gar fo
p g
Ġa Ã§o
Ġn t
27 6
Ġquad ro
Ġcere ja
Ġrelo gio
Ġm it
Ġ2 66
va dor
Ġmin nie
c is
v em
ti mo
val v
calip to
Ġk ar
Ġw ar
34 9
Ġ14 00
Ġgalvan izado
re tro
ar mario
ri ca
gu ete
Ġso b
col chao
Ġipan ema
a k
f d
p un
mm ins
guar da
Ġstre et
3 14
c orta
p w
s carpin
Ġ3 55
os e
Ġi ma
Ġl imp
Ġ12 9
iv er
Ġres f
Ġabaca xi
Ġ0 70
Ġada ptador
16 8
19 9
Ġva cuo
pis tao
n as
Ġl upo
tam po
90 7
Ġqu ar
fol ha
Ġs v
co ra
Ġcor oa
tra tor
Ġan t
39 9
Ġen feite
man cal
Ġsk y
Ġg lo
Ġr m
Ġ15 8
Ġza ra
Ġvin tage
Ġgor g
a ces
Ġm x
Ġex c
Ġvi ol
et ti
do urado
Ġ10 6
Ġso ut
26 4
car teira
Ġli ber
Ġe vol
Ġg ela
50 4
ina do
Ġspe ed
j ard
Ġe v
18 9
i b
s l
37 6
Ġbrin co
c cao
Ġf p
000 6
Ġpro t
Ġap lique
w b
Ġm va
16 4
Ã¡ s
ik us
Ġcirc ular
co co
c ron
Ġ10 7
34 6
Ġac r
ly cra
45 7
ref ri
Ġterm os
al t
80 2
Ġal on
23 3
34 7
for ro
Ġy pe
Ġbi ke
Ġes mal
Ġr ms
19 7
39 6
Ġsen si
Ġr gb
34 8
Ġnor mal
Ġdal las
Ġf x
al to
Ġtra tor
Ġar ruela
Ġcomp ressor
Ġco ca
Ġr x
Ġman gas
ren d
Ġy o
Ġho mem
Ġc ut
Ġ4 30
jo elho
Ġac elerador
ymp ikus
Ġe t
Ġt t
os so
19 3
Ġtri ton
Ġme c
Ġmb b
Ġb k
Ġbo ca
Ġ01 8
Ġur so
Ġpole gadas
Ġl ente
be c
Ġreserva torio
ma q
na do
17 6
37 8
Ġest re
teri or
ia ba
Ġem balagem
13 1
reg istro
Ġzircon ia
f lu
Ġ til
an inha
36 4
Ġ200 1
Ġen grenagem
Ġva zado
Ġca deira
Ġes tamp
pe t
Ġha ppy
Ġd f
Ġf m
Ġsa u
19 6
Ġcar dan
Ġta r
Ġtamanho g
Ġvulcan izada
us s
ca ps
iv ea
se go
Ġ01 1
val ho
Ġfla me
elas tano
a bs
z inho
ma caneta
14 2
dobra dica
e ra
g ri
tan que
pi lar
ou tros
Ġbaun ilha
Ġcon cen
mar rom
Ġgra mas
Ġcol una
Ġvia gem
ticula cao
n z
ma la
Ġem s
Ġ200 2
ces to
Ġfolhe ado
Ġes go
Ġh ol
Ġ12 63
Ġped nr
Ġ200 3
fe ito
Ġcomp l
Ġinj eta
Ġg ig
Ġcir ur
Ġciv ic
sa ida
ba co
17 9
Ġ01 6
Ġhoriz on
Ġcamu f
p b
36 7
Ġher ing
Ġedi tion
Ġcompos to
Ġm na
em balagem
Ġ0 43
Ġun iao
ten s
25 9
39 4
39 8
ine a
Ġman g
Ġpo tencia
bl ia
Ġmulti laser
Ġhy undai
Ġeli te
Ġra y
Ġvol ks
Ġvar ias
Ġpersonal izado
p io
Ġa me
Ġv t
Ġ10 3
Ġflu or
Ġimper mea
k y
Ġca mera
Ġ01 3
28 3
r b
Ġl b
01 01
de iro
Ġes tam
15 1
Ġi ris
na p
Ġ215 000
Ġgros so
Ġmecan ico
taco urt
Ġhexag onal
Ġ2 13
Ġba lan
Ġten sor
ca che
Ġs f
Ġ0 38
ten do
Ġcos ta
graf ite
Ġeletron ica
Ġ io
ro upa
ga b
Ġpol ie
29 8
Ġcorpo ral
x g
con tra
Ġsa bonete
Ġor to
Ġmal wee
i la
Ġf ilho
Ġcon creto
man o
inger ie
Ġd v
Ġa vela
Ġb ur
Ġj ul
so fa
brin quedo
Ġbro wn
ve da
Ġmole ca
un iao
50 2
Ġle tra
33 3
Ġtex turi
Ġcig ar
Ġchu va
50 8
Ġ0 98
18 4
Ġpo m
vol ta
Ġven tilador
Ġcli ente
Ġf le
Ġtan ga
h u
s b
25 3
17 7
Ġcx carretel
Ġele c
ard ana
Ġcu mmins
Ġessen tial
espa tula
Ġlo uro
til eno
38 7
Ġen c
Ġber co
pra teleira
Ġ ilhos
Ġco ok
Ġj r
Ġle ao
di fusor
Ġge dore
Ġdeso dorante
c lo
ci gar
16 2
po m
Ġse c
Ġmis to
d iv
d inha
Ġp ic
or gan
co ne
Ġal tura
Ġsa bo
23 2
Ġbaba dos
a v
re al
Ġa tanado
Ġe qu
Ġbol inha
ca ta
Ġv ento
Ġpre ss
25 6
19 4
Ġcabo s
Ġque ijo
Ġox ford
pas sa
Ġche v
Ġesgo to
re gu
Ġ5 10
44 9
igen io
Ġpa o
im en
car caca
in do
Ġ2 85
Ġv ir
40 40
Ġ13 00
Ġtamanho m
Ġpon tas
z iper
Ġm ilha
do ce
38 4
38 8
em b
16 3
Ġmed ida
Ġres is
pen dente
Ġmaca cao
la c
es sen
Ġsol ido
Ġgas olina
b x
Ġref ri
cessa ire
Ġun ha
iv os
25 7
Ġlis t
Ġje t
bal de
Ġhomoc inetica
a te
Ġp ur
Ġv ip
9 78
p ers
Ġn es
sa p
Ġal imenta
res is
17 4
26 3
Ġen costo
para lama
f rente
up e
Ġsu vinil
Ġpra to
fer ro
Ġcap ri
la tex
Ġre ducao
Ġre mov
bu ia
Ġdis pon
Ġl p
45 5
45 00
34 2
44 7
Ġpal ito
a ta
f os
da y
Ġcon ge
45 6
Ġfor ca
Ġra st
99 8
Ġest rutura
tr um
Ġeu calipto
Ġmos tarda
0 75
es te
Ġcx s
Ġne gra
Ġpis cina
Ġa re
Ġv ig
as a
Ġto que
Ġgir l
def letor
o ut
Ġca che
Ġ12 3
100 00
Ġaco pla
Ġmod ulo
Ġwa ve
Ġpersonal izada
la co
to l
Ġra mado
Ġtri pla
Ġfor rado
Ġusa flex
Ġdiam ante
Ġespor tivo
j as
ex tensao
Ġgal val
we et
Ġautomo vel
Ġicm sst
a uto
Ġl ingerie
Ġca qui
Ġpu x
Ġfoto volta
bic icleta
Ġwi fi
ca lo
Ġe cos
Ġga tes
Ġcan to
Ġed it
Ġmun do
Ġf ur
Ġpro g
33 1
Ġgl oss
Ġfu te
Ġembu tir
Ġb ca
Ġt d
Ġdi an
Ġad van
Ġele tr
Ġwe g
velo pe
Ġde grade
Ġg ro
Ġpre gas
fa do
Ġcasa co
Ġcora coes
0 22
Ġg li
pa la
Ġar roz
Ġpin us
Ġessen cial
k t
is mo
Ġg p
on o
Ġpre w
ĠÃ ¸
Ġgalval ume
Ġm no
Ġem borracha
Ġdes li
Ġaca b
Ġru bi
Ġoccu i
5 000
b lus
e e
Ġt ing
Ġref le
tri z
96 4
Ġgo ur
Ġwa y
Ġba tom
Ġri b
f ura
v ar
Ġde ere
20 25
qu inha
Ġcor u
Ġdi f
Ġbo b
Ġse u
itar ia
Ġsli p
5 01
Ġp risma
Ġco lar
n c
p ir
ed ia
ba t
Ġal icate
Ġtra b
Ġst yle
Ġga tos
Ġimpermea vel
f riso
k id
to velo
Ġma e
Ġra dio
qui dea
pan ela
Ġacadem ia
h f
es e
Ġca da
des inf
b g
24 3
45 3
tida de
Ġela bo
f g
i ga
n p
Ġ3 15
Ġca ixas
Ġ20 4
cha ssi
35 1
Ġvel u
Ġcigar rete
s ul
Ġg es
f uro
Ġc ity
Ġpa tch
Ġin g
Ġcon ser
bone ca
far inha
Ġfotovolta ico
ga vel
89 5
si ena
v isco
Ġin vis
18 1
Ġfa mil
Ġprew iew
e va
Ġp elo
se y
d ir
36 8
Ġinter med
reb ite
Ġhorizon tal
ti t
16 1
Ġra m
Ġqu an
Ġsex y
Ġpi jama
Ġol ympikus
n um
38 6
37 9
Ġban deira
bil idade
Ġsortido s
cama ra
Ġa pa
Ġre a
Ġre nd
36 9
37 4
Ġban de
Ġpu ma
Ġlamina do
Ġw il
res erva
ck s
Ġblusa o
Ġel em
o uro
50 7
Ġ16 7
mar ca
tr y
Ġfolha gem
u til
Ġ1 010
18 3
Ġ00 0000
Ġpe uge
44 6
iz za
Ġrefor cado
Ġf inal
Ġ0 21
Ġ15 2
14 1
Ġcar tela
Ġ25 6
ole ira
Ġpla taforma
rel li
tre me
Ġko mbi
Ġwor ker
0 40
ar ta
Ġma k
Ġra d
75 4
Ġcas t
pos itor
Ġsapa ta
Ġpron ta
c co
k inha
p ren
s w
til it
45 9
ir inha
37 7
Ġelabo racao
f fe
j et
ento s
Ġpo ck
Ġdes ign
Ġgra u
Ġt y
de ro
Ġh is
85 6
Ġvel ho
Ġsexta vada
es pon
Ġma la
75 5
Ġf ura
Ġde do
Ġ4 60
Ġal cool
Ġna c
tico s
tr in
Ġplus h
ive co
Ġ3 70
ia gem
wa gen
Ġaber ta
Ġace tina
Ġc ia
Ġ5 40
Ġma ior
ba cia
car d
Ġanti go
Ġol iva
roz en
h ar
Ġre b
mo ur
Ġes ter
Ġ14 7
di re
Ġtriang ulo
ia mento
Ġte lha
Ġjun tas
0 60
co ifa
Ġna ture
85 00
para choque
vi ga
g us
s as
Ġp il
Ġp uro
Ġe ps
sa conj
ina cao
ko ta
e b
y er
Ġroup as
Ġgour met
f ira
Ġp ira
Ġ3 16
23 1
26 2
Ġgaveta s
a de
e i
ch ard
46 9
49 6
bre quim
pis tola
dis play
espon ja
bo ra
Ġw ire
Ġbri m
7 20
al eta
ic ho
89 6
Ġam bi
tu ador
Ġpeuge ot
Ġ3 01
24 1
Ġcar t
bla ck
condicion ador
er v
ha da
17 3
Ġto ner
ita vel
x t
as h
Ġ8 1
46 8
Ġavul so
Ġveg etal
ti ma
ha o
Ġre carre
las se
li ma
Ġvisco lycra
0 30
p ente
te ado
it ch
Ġta baco
vis a
ass ento
l imp
Ġre n
Ġ10 45
Ġme u
Ġpra teleira
Ġesc ri
plu g
Ġs ant
Ġk wp
000 9
Ġled s
bos ch
Ġre tido
Ġba lao
89 9
ber m
Ġsin al
ped al
Ġaci onamento
ure tano
s ter
ti er
Ġna dador
Ġky ly
c ca
Ġca v
Ġca chos
ica dor
Ġtra ves
iro s
cho colate
Ġcre am
Ġorig em
Ġanti que
Ġfus ion
v irt
Ġt pu
Ġca dar
Ġh s
Ġcon tendo
gan cho
Ġpan tacourt
Ġfru ta
Ġax or
re dom
Ġl m
al l
Ġes tri
Ġsin cron
Ġcol le
ian ca
0 80
ar macao
va cao
Ġle it
76 6
Ġgen erico
3 11
l ing
t le
u tador
Ġco ifa
Ġcal c
49 8
Ġenerg ia
Ġajus tavel
Ġdiferen cial
Ġcorpreto tamanho
jard ineira
Ġretido st
w g
ca ss
38 1
Ġve ctra
Ġmc z
Ġdel ta
pira dor
c ing
Ġf ir
Ġ2 100
Ġn iss
10 20
uro ra
pro pil
sor tido
cu ba
Ġclass ico
Ġecon om
b k
27 4
Ġim buia
cer veja
Ġun it
ter g
Ġad missao
201 6
Ġcil ios
Ġru by
Ġviol eta
Ġma pa
que ijo
so m
Ġdetal hes
ala vanca
Ġarti ficial
Ġa ve
Ġ5 01
con ti
34 1
28 1
Ġcomp ressao
val idade
Ġy br
mes cla
eno ide
izz ano
c up
en tas
85 4
Ġfun d
Ġregu lador
Ġgros sa
Ġaplica cao
Ġyama ha
u ta
u gu
Ġs co
Ġn ser
Ġ5 20
tor n
19 2
Ġte e
Ġ01 9
Ġdia metro
Ġvar iante
Ġquar to
Ġgorg urao
Ġde ca
Ġ20 2
am endo
Ġbla zer
Ġtac tel
d n
f ivela
Ġ6 30
000 7
Ġna vy
ss ol
ant h
Ġsl t
ardana po
Ġs weet
es fe
Ġfa zer
ado ra
late ral
calo ta
v c
un id
Ġpes sego
Ġpul so
Ġcarre ta
Ġspe cial
Ġintermed i
f ron
Ġes te
27 3
gre lha
w l
co bre
Ġre ss
Ġmo m
89 7
85 8
zz o
to res
er ra
Ġ30 5
34 3
Ġvi deo
Ġcab edal
Ġbu fante
Ġliv re
regu lador
a ven
b p
t v
Ġ1 33
Ġv ies
un idade
Ġre til
Ġte le
he res
n ico
Ġcom er
io la
va c
38 3
Ġfus ivel
Ġsur f
Ġelec tro
Ġm ista
Ġn ivea
13 789
con ta
14 00
Ġda y
Ġra l
36 3
Ġen du
pro t
m df
cor dao
fil me
i f
te le
id al
65 6
sup l
Ġbi anco
Ġbl ister
Ġass ento
re gua
ti ra
Ġpara l
cal c
cal ha
99 5
Ġta ca
Ġenerg y
g t
an al
Ġn k
ma t
Ġj as
000 8
27 2
Ġch icote
Ġcas tor
Ġcle ar
fun cional
Ġf ras
Ġo b
Ġ6 20
Ġpara ti
cm c
75 00
ver izador
Ġesti lo
Ġvelu tex
u i
de ado
16 00
25 00
tamp onamento
s elo
Ġv ivo
Ġ6 60
ed r
Ġcor ri
18 00
Ġcar rinho
fa ce
bra x
Ġac u
pin ca
Ġsli de
reserva torio
Ġc y
da de
ci on
25 1
37 1
Ġpin t
Ġliqu ida
Ġcompa cto
Ġpoli uretano
Ġp ran
Ġ3 95
bra c
37 3
Ġcompri mento
Ġc po
Ġd ino
Ġ2 23
Ġte ste
Ġcin ta
46 7
Ġclo chard
b lu
Ġp k
Ġn v
sa uro
Ġ0 41
ic s
Ġj ic
Ġsa ch
til ho
Ġsol o
Ġed itavel
Ġvel cro
Ġgig ante
an ti
Ġt f
Ġcon t
Ġtra cao
26 1
Ġne bl
Ġac eta
32 10
Ġsh ine
4 30
co turno
Ġv ista
Ġ4 75
Ġk en
ter ra
ba lanca
17 2
Ġcar ta
Ġ14 6
76 8
col onia
m hz
la b
la t
ba g
Ġlo w
Ġdes f
cor po
pre ta
ton er
Ġza eli
perf ume
Ġd ro
Ġj d
Ġbo ot
Ġw ide
19 1
Ġpo t
we ar
Ġcit ro
Ġmaqu iagem
propil eno
Ġg arra
45 4
Ġha ir
Ġcre m
vas soura
cli p
Ġb iscoito
Ġco nexao
13 00
tal ona
Ġse cre
36 1
85 9
ref letor
0 28
3 75
l g
Ġp onteira
Ġg de
Ġ0 44
li ber
48 6
Ġpla na
p lan
Ġ ole
Ġtam po
200 00
imp ressora
Ġpra ti
cu ja
trole o
h idro
l iv
co me
Ġf rozen
en e
pe ro
45 8
Ġbe ira
65 8
47 4
bi eleta
Ġgr s
i bus
t tan
Ġun has
25 2
Ġba tente
Ġ14 8
Ġcomp rim
Ġpar te
ard en
Ġdistribu ido
do res
77 7
ste la
Ġcompos icao
Ġguar da
Ġvolks wagen
d re
te a
ro k
38 2
29 2
Ġga lao
mon itor
Ġfil me
Ġni quel
Ġloren z
h m
Ġp ingente
te e
Ġ2 14
Ġda kota
capa mento
Ġer va
Ġsobre por
j r
p ingente
Ġh r
Ġto y
be be
Ġim edia
Ġmun dial
Ġquan tidade
6 10
n ing
27 1
Ġmon tagem
bar b
36 2
ite x
Ġbr s
pos itivo
Ġres p
Ġgol den
chave iro
s trada
Ġh ero
can toneira
Ġmon ica
graf ia
Ġvelo c
cigar rete
cass im
z el
48 8
Ġpas tel
aca bamento
Ġchur rasco
Ġast m
Ġelectro lux
ro te
es pe
Ġcon tato
55 5
Ġelas tica
Ġbal de
Ġada p
Ġbea uty
Ġcadar co
r m
Ġf riso
Ġ3 90
Ġver sa
res ina
Ġar tic
Ġcar tao
Ġle o
Ġli ma
col cha
Ġpastilha s
Ġretil inea
17 1
gra ma
tin t
Ġsk f
Ġpes ca
rel ha
Ġfus ca
cabe ceira
3 90
Ġe ver
Ġso dio
4 80
l ic
ho ra
ita dor
47 8
espa cador
Ġcic lista
c ulo
z en
Ã ¢
Ġp ick
ta ne
Ġf rasco
ma g
Ġma las
89 8
pro f
Ġ17 8
e g
j arra
Ġe vo
up eta
ito na
Ġpin os
su bis
Ġmt b
Ġbarb ie
Ġtil ibra
4 60
7 000
Ġca d
Ġcor ta
ica s
na da
Ġ14 9
46 6
ona da
Ġperf u
ax ios
idi ficador
Ġester il
r us
s ten
Ġ2 44
Ġg v
Ġt nt
Ġmo use
Ġpe ixe
ces sador
Ġlate rais
t ru
Ġs tor
an ha
Ġv c
Ġre l
Ġca pilar
man do
201 2
47 9
Ġ iveco
ol ho
por celana
Ġmag ic
Ġcarre gador
ga xeta
ver s
Ġlu rex
pre ne
vis ta
cc ino
Ġvl d
Ġgre y
a ve
l ight
00 10
ca mera
ar roz
Ġo ral
Ġal cas
orta vel
Ġten sao
cool er
m im
Ġal cinha
Ġcar valho
Ġam pla
Ġsup lex
Ġstre tch
Ġregula gem
Ġrecarre gavel
Ġa ranha
tam bor
Ġ8 000
17 00
Ġcar teira
Ġser ies
organ izador
Ġc lor
so f
tr ia
pos icao
ven ture
pv c
Ġpolie tileno
Ġcon tin
Ġ25 5
39 1
Ġpar t
Ġoff white
Ġfo go
Ġvalv ulas
Ġexc lus
s ar
Ġ isa
co mo
ia dor
til izante
por io
Ġbea ch
Ġajus te
bata ta
Ġ1 32
bo ia
so ra
fa p
39 3
Ġno bre
one iro
tr w
mi la
iao mi
Ġgeome trico
Ġa qu
Ġl ite
Ġco st
ne la
Ġlo c
201 1
pen eira
Ġdu as
Ġbal l
Ġforma to
Ġes pel
bo ard
fa br
cor preto
Ġele gan
Ġfil e
Ġat las
Ġiso lante
Ġintel bras
Ġcachor ro
6 20
ca t
ca po
ar m
Ġi de
um p
Ġser rado
Ġcalca dos
j eira
Ġm iz
28 2
Ġti e
65 4
Ġ36 00
Ġlu b
Ġcan eta
Ġbar ba
Ġvl r
Ġgar fo
Ġvaria das
e co
Ġa urora
es q
es ter
Ġca rol
las tic
na tura
Ġref e
car rao
76 7
re v
to uca
bo i
Ġh c
Ġma ke
po ca
no va
45 2
mento s
0000 1
col una
Ġfos ca
dar te
Ġd b
Ġa pos
co ta
il y
Ġra g
Ġtri f
cor sa
Ġ19 8
47 7
Ġorgan ico
Ġir win
Ġsti hl
Ġcri an
cula nte
Ġnit ril
liber te
00 12
Ġe du
Ġo vo
den ce
Ġins trum
retro visor
g f
g p
ro se
Ġ2 26
Ġco bal
Ġco turno
Ġ5 80
Ġcon dor
Ġno ite
para ti
Ġlan t
Ġau di
Ġress f
p ris
Ġl ic
Ġl una
Ġv p
Ġg c
en g
Ġ8 101
Ġaz e
89 4
29 1
Ġmotor ola
Ġjan ela
aces sor
essen cia
k c
m ente
Ġin st
las t
Ġma tern
33 2
Ġcora zul
Ġnebl ina
5 20
9 01
j an
al g
Ġco pos
ig ree
ula dor
39 2
200 1
98 6
Ġce ra
gen ta
Ġgre go
Ġplu g
Ġconf ortavel
l c
Ġa lo
Ġa parelho
Ġca traca
Ġla pis
tor no
85 7
98 8
n n
ca sa
Ġpa t
no w
Ġam ostra
Ġen vio
49 4
Ġimp resso
Ġpes pon
mon d
pra y
Ġdin os
3 13
Ġ1 113
Ġs eta
Ġ3 35
bo que
ter mo
Ġfa c
Ġdes tro
46 4
Ġmon tana
su e
Ġdel l
Ġdiv is
anth racite
7 10
Ġd m
re vestimento
Ġe a
Ġk el
fa to
99 6
95 8
col h
Ġrec ic
Ġbrin quedo
Ġpoli propileno
Ġana bela
Ġretor no
k ing
l la
Ġco u
Ġcar vao
Ġjo y
Ġjo gging
Ġsen do
Ġmus go
lim pador
Ġserv ico
Ġacetina do
Ġa bo
do or
sa bao
Ġen g
201 0
Ġesto que
Ġrefor cada
subis hi
Ġo il
Ġ5 17
Ġpin cel
Ġtr ilho
Ġesp on
Ġbic icleta
h idra
v ca
un ha
Ġ7 000
Ġ9 50
Ġbe b
Ġy ok
gen o
bar ro
Ġestr iado
Ġfamil ia
in ino
Ġpre t
Ġr j
Ġso ci
Ġse t
pu e
Ġper fe
fus ivel
3 23
Ġc res
Ġm k
Ġ12 2
ica n
Ġen v
Ġl l
Ġ4 70
ur te
bri ela
Ġgira toria
Ġgan cho
aven tal
Ġp ano
Ġ6 80
Ġcon ta
ped ra
Ġ790 80
Ġdistribuido res
u c
Ġb ba
as sa
Ġn ar
ri bana
Ġal ho
Ġmar in
Ġme lan
Ġcro mo
Ġesto jo
Ġmate lasse
qu es
it u
Ġ12 50
Ġch ip
44 4
Ġz en
ilar ina
Ġevol ution
Ġp izza
ba c
29 3
37 2
bi blia
Ġpan talona
Ġcl io
den t
c itor
Ġp ilha
un ica
Ġ0 36
Ġdo m
Ġsa dia
Ġ00 10
Ġtra ma
Ġto ys
75 9
Ġga b
Ġcaca mba
corta dor
f iat
ro do
ro tor
Ġl ig
el low
ran dela
tura dor
ad es
Ġama rok
Ġtrip lo
g hz
u va
Ġre lax
it h
ch in
ch er
Ġdo t
mo re
Ġno me
pro x
Ġgu ip
Ġ27 00
tiv os
3 35
s d
x y
Ġcon den
Ġcol gate
Ġana tom
eti q
Ġport ugu
Ġgli ter
Ġtrab alha
Ġc us
re cida
Ġl ol
Ġn b
ho me
Ġped igree
Ġman u
201 3
ane ma
Ġdobra vel
po la
gr s
Ġsup erf
ip anema
76 9
Ġgra m
cu ito
Ġsen s
Ġpan ela
ale co
sk f
Ġmara cuja
Ġquim ica
i ano
m bo
ra ck
24 00
Ġar vore
201 5
66 9
Ġros as
Ġespe ci
Ġdy e
arta xial
r sc
ca bide
Ġf im
Ġse a
75 8
Ġex pan
65 9
48 7
78 4
Ġpar cial
Ġmon za
Ġmen or
Ġcu eca
Ġreg istro
0 21
v ante
an ilha
el d
Ġad venture
car ro
ts u
Ġ19 3
48 4
veja do
Ġrele vo
Ġwhisk as
d in
Ġmar sala
Ġpro va
Ġmon dial
ban da
mol ive
cara melo
Ġmol ho
f ixa
Ġb n
Ġb est
Ġ0 31
Ġin ic
Ġdo c
Ġpe troleo
Ġlam inada
Ġinje cao
r d
il le
ne us
ve ira
Ġoc re
Ġga me
Ġtitan ium
r t
Ġin di
me c
sor v
sk in
Ġtw ister
fun do
c z
22 00
pe rola
Ġhe pr
cru z
gab inete
porcelana to
co mando
Ġx ica
ci ona
Ġmar ine
Ġne gro
Ġsu v
pun ho
Ġt g
Ġo fer
Ġ0 28
bo t
11 01
po xi
du cha
Ġvo yage
in aria
ro let
Ġn h
ss d
Ġaro ma
Ġdescar ga
0 90
ra diador
Ġt q
Ġpa pa
Ġx r
Ġman ta
75 7
96 9
ona to
Ġmole ton
Ġel gin
Ġecos port
Ġmak ita
Ġwire less
z i
Ġf ive
is ca
el s
Ġh um
na ga
13 01
Ġpin tado
Ġvol ta
ces ta
tia ra
Ġdobra dica
Ġrig ido
co letor
an ce
Ġcom o
me ira
100 5
ss is
ro up
Ġl f
Ġg ts
Ġg lam
en se
Ġlo g
Ġch er
Ġanti der
Ġestabil izadora
0 26
m io
v l
Ġtra tamento
Ġra inha
99 7
95 9
88 8
bran ca
Ġdr w
u f
Ġ3 12
Ġpa is
11 20
Ġ25 4
Ġan visa
min as
Ġor quidea
Ġcha to
Ġas so
Ġven e
Ġran don
Ġd cre
Ġs ix
Ġ2 24
da da
Ġro t
id en
Ġw hey
Ġva por
Ġprote in
Ġzin cado
ti cas
Ġoc ped
Ġpo tes
Ġfor ce
ien t
far ma
ond ers
menta cao
6 30
d ana
s tar
Ġp ilo
ca to
Ġ2 21
is i
Ġr b
Ġy ou
Ġauto m
et y
traves sa
0 70
a cu
ca ke
Ġca mo
Ġdi as
Ġse reia
Ġml b
Ġor g
Ġcol lor
imento s
Ġacu car
t ino
co tovelo
ar k
100 2
Ġ16 8
Ġcro co
ste m
Ġesta b
sil icone
Ġneo prene
eletro do
0 24
0 43
b and
t m
ta tica
Ġa k
Ġco bra
lo go
ba te
Ġdo ve
Ġlo t
66 4
Ġy onders
bi al
mc g
Ġautomo tiva
Ġperf ume
Ġdispon i
0 35
d ri
g y
co ral
em enda
Ġes pi
Ġk rona
ina dor
lo ck
Ġr isco
Ġse ara
Ġbr isa
47 3
Ġlar go
Ġsan f
Ġol ho
sem en
ti po
Ġ0 39
bo b
Ġh f
Ġ15 7
55 4
ser inga
Ġconcen trado
Ġcorri da
v ita
Ġin fa
ula da
Ġan g
78 8
ros ca
Ġres ol
Ġpri mer
Ġeco lo
lim pa
Ġcomer cial
1 010
3 18
co ok
ma is
Ġ0 34
Ġ10 20
Ġdo col
Ġmar ron
Ġcon ce
49 7
Ã§ as
Ġvo lante
Ġdre no
3 70
j os
s us
z inha
Ġg arden
Ġca la
Ġpa c
Ġcor branco
Ġan alo
Ġflo wer
fo gao
graf ica
Ġcondicion ador
Ġferram entas
co a
co le
en tal
Ġ0 26
ga res
ci as
ne cessaire
Ġped ras
fe cho
Ġgra tis
Ġgo iaba
gen ero
Ġprote tora
tamanho m
sis tema
Ġe lo
Ġre vestimento
Ġcor tina
res t
Ġmod elos
Ġ789 8
Ġjan tar
sel f
p le
s pray
Ġ3 45
Ġn in
ba dor
Ġw es
Ġcon trol
tu al
Ġon ibus
Ġlarg x
Ġfan tasia
Ġmatern idade
4 25
Ġa do
Ġa bas
id ia
Ġac tion
gen da
Ġsan tana
Ġur s
Ġhe ad
Ġdesli zante
0 23
Ġ1 39
Ġb j
Ġv izzano
Ġ0 33
Ġj tas
Ġ25 8500
99 4
he ad
Ġ23 0000
s m
Ġp ico
Ġ2 28
Ġ2 29
Ġl x
Ġ3 65
Ġcon ico
Ġar ticula
Ġpol ida
br il
76 4
Ġbar ro
Ġbri z
Ġing les
Ġniss an
terg ente
f ia
Ġf lash
ar ticulacao
ur u
15 01
Ġi pro
Ġti m
Ġfr ia
gl ish
Ġzin co
p ran
Ġf lam
elo pe
Ġsol enoide
Ġeti queta
Ġmit subishi
Ġelegan ce
Ġmiz uno
0 65
c ri
f x
f es
t he
Ġ2 69
ri ga
Ġ6 35
Ġbo mb
200 2
200 8
Ġlu gares
Ġban cada
iog urte
Ġavul sa
Ġlorenz etti
3 39
v im
Ġb ip
pa co
di zio
Ġsp ider
Ġtitan io
mem oria
aze itona
Ġremov ivel
h c
n ip
r x
v ie
Ġp it
co leira
sa da
Ġre ch
Ġh alo
Ġmar cha
Ġso c
Ġar re
Ġsu bs
Ġ43 0000
Ġpos icao
prote cao
Ġaci ma
Ġaceta to
Ġdisponi bilidade
a ter
z u
Ġre che
Ġx iaomi
Ġtra t
lan c
ox igenio
am ostra
ior ino
Ġven ti
Ġsport s
// //
Ġdon ana
Ġfute bol
Ġp imp
Ġs le
Ġs lo
la vel
ti o
Ġman o
Ġinf in
Ġpal molive
pres s
cache pot
f ras
i oneiro
Ġa bracadeira
Ġ0 42
66 7
Ġlim pa
Ġsobre mesa
Ġzin c
Ġphil co
p rano
ca se
Ġk iss
gu ica
Ġan ima
Ġta b
gen a
Ġcic lis
Ġmo chila
Ġbo ia
Ġy ellow
Ġbro ther
rap ante
mati zador
Ġapp le
Ġdou ble
5 10
n ia
s ho
Ġa er
en cio
ed redom
fe u
Ġtri fasico
di ant
Ġta pete
66 6
tamanho g
Ġvis or
Ġpilo to
Ġc ul
Ġl cd
Ġ6 01
Ġ7 20
Ġmo t
78 6
ele ia
Ġgran d
Ġamerica na
traves seiro
kid s
Ġb v
Ġf in
Ġn xr
em porio
Ġro do
ga deira
car ta
Ġch ino
49 3
ut ti
Ġaro mas
Ġvelo cidade
Ġquart zo
Ġsed an
veda cao
Ġa cao
Ġ5 30
Ġro ssi
Ġ9 25
100 8
Ġtri o
200 5
Ġprod utos
Ġfecha dura
Ġm n
Ġa i
en velope
lu m
fa bri
cor oa
Ġgra os
Ġvi bra
flex ivel
Ġpero las
Ġray on
Ġyok i
e ze
j aleco
z m
ha v
as e
Ġn g
65 7
Ġflo cos
cre pe
Ġespor tiva
Ġentre ga
Ġvira brequim
Ġcamuf lado
Ġexpan sao
a pl
d t
s pa
Ġg tx
Ġla ma
Ġla ise
Ġr r
Ġbo tina
for me
Ġmode ladora
3 19
9 90
e o
f rasco
Ġs nd
al um
ma cho
20 26
Ġ100 000
tampa o
Ġtamanho p
pr int
Ġbi ju
Ġbl end
Ġlac ta
Ġrex ona
Ġofer ta
3 24
k ar
re iro
mo ben
89 2
77 4
capa citor
rado ra
Ġed p
Ġbal cao
Ġleit ura
m n
q t
ta is
Ġf es
Ġso fa
Ġfa z
Ġen glish
Ġcha ves
Ġcal o
Ġcan udo
Ġy ork
Ġpas ta
Ġva za
Ġgal inha
Ġpel icula
Ġdinos sauro
8 000
d z
l inho
m etal
Ġca va
Ġ12 000
ci r
Ġmo las
Ġver t
vel u
orte la
Ġz ig
Ġcha o
Ġvi tamina
Ġbu jao
Ġceram ico
ign on
gri p
u ma
Ġs ig
Ġb um
Ġpa ete
ina is
Ġabs ol
Ġinte gra
visco se
Ġinvis ivel
a parador
v z
z es
Ġ2 36
Ġ5 25
Ġro lete
Ġma genta
tica dor
pas s
Ġfo cus
Ġacril ex
fil e
Ġg lu
Ġt ds
Ġca mba
po p
Ġpe da
tri c
pla fon
Ġpas so
pis ca
cro ss
Ġorgan izador
rea is
Ġregula vel
Ġchev rolet
Ġparal elo
b ul
f en
g ma
Ġd us
Ġd im
Ġj or
Ġ10 50
Ġmar te
Ġsa tin
ren cia
tr ilho
Ġcol her
Ġsk ate
tel la
Ġque ro
eno ura
pal m
Ġben efic
fan tasia
Ġmagne tico
card igan
o es
Ġ6 10
Ġ20 9
Ġw in
Ġto das
ida do
ren den
lar me
Ġcur vo
66 8
Ġgra us
300 1
Ġtor neira
a ch
Ġm v
Ġ3 18
es puma
Ġcor tin
ip i
je tor
Ġblo que
Ġusa da
Ġcer veja
nu de
b eta
ca na
Ġco un
Ġv ed
sa v
va reta
Ġlo gan
44 3
min go
Ġflo ra
Ġauto mr
mer ilha
Ġtru ck
4 12
a mento
d ro
m tex
Ġre tencao
ma e
ida o
Ġam orte
Ġta g
Ġum bro
Ġsubli mado
Ġhigien ico
Ġciclis mo
6 60
e cas
Ġf ris
Ġ2 88
Ġun f
Ġcan eca
smart phone
Ġtexturi zado
Ġalimenta cao
a j
f el
r l
ri os
Ġlo u
Ġ15 9
45 1
Ġan al
Ġad m
85 3
one y
Ġpra teado
Ġnu vem
Ġbal i
ale ia
Ġinv ic
cabe cote
p imenta
Ġc est
Ġa que
Ġs na
ma h
Ġ7 10
48 3
pre go
Ġintermedi ario
a randela
j ta
r f
s andalias
Ġl ta
Ġre dutor
id ual
res co
Ġind iv
Ġflow ers
a ce
Ġpa i
va ra
Ġcon cha
ber ry
tu fa
46 2
Ġgra y
Ġmax im
Ġtubo s
Ġfas t
Ġcapo darte
Ġcilind rica
Ġdiaman tada
o sa
Ġj lastic
Ġdo b
Ġar r
ge iro
Ġbe la
44 2
65 2
200 4
Ġmon t
ara me
Ġae ros
Ġrus tico
Ġdre am
Ġa ri
Ġg n
Ġla dy
ba ma
Ġ15 4
89 3
Ġz f
Ġac tive
ex positor
Ġzir c
Ġplan eta
bron zina
Ġrag lan
c ente
in er
Ġf iv
sa cos
ma carrao
Ġbo ok
19 00
Ġad t
48 1
Ġov os
des od
Ġmole kinha
Ġsen hora
Ġfran zido
fic io
g es
p tor
re re
Ġfa ti
man ga
Ġpes ada
gi deira
Ġbar be
vi va
Ġesmal tado
Ġestam pas
5 40
f al
Ġ0 29
Ġmo rena
Ġan ivers
44 1
78 7
Ġgo tas
Ġlt da
Ġpen al
pul verizador
Ġfan tas
Ġdri ve
Ġwes tern
i ri
Ġin o
Ġj bs
Ġtam bor
Ġbas culante
Ġcal co
Ġa th
Ġto d
tan ia
sapa tos
Ġja to
Ġper cal
Ġco lete
Ġ0 32
ran ge
Ġes capamento
bo v
tu a
Ġ19 00
Ġta pe
Ġtrans power
Ġaca i
graf ico
Ġartes anal
o vo
x e
z y
co racao
Ġ2 27
an he
Ġo mega
Ġ10 72
Ġtra pe
Ġcar d
Ġpr t
forma dor
Ġspa ce
Ġsoci ety
Ġmelan cia
Ġantider rapante
4 11
s n
ro yal
Ġb ir
Ġl n
Ġ3 22
Ġv de
ar co
Ġ4 25
Ġma caneta
Ġte clado
Ġ30 8
Ġpol os
car tela
96 7
iso lador
Ġag ro
si va
Ġcam inho
caca rola
Ġpimp olho
Ġp ush
co p
er to
ar gola
sa veiro
Ġ0 27
Ġh t
ch eira
Ġbran d
que eze
Ġto s
Ġ16 9
55 6
Ġfe cho
Ġgran ito
gan o
Ġpes ado
Ġsapa tenis
fem ea
tifica do
re ver
ta g
Ġa h
Ġe feito
Ġ2 37
de t
ic ia
li qu
75 3
car tao
Ġmon tado
Ġdia mond
Ġline a
Ġop tico
uli pa
Ġesco vado
z n
ti tan
Ġes me
Ġso bran
Ġba ck
fe ch
ff on
Ġpin ca
cia do
je ro
cel ular
Ġper man
sem entes
far i
Ġze bra
Ġlanca mento
l bs
te ter
Ġ2 38
Ġ12 1
Ġfa ctor
65 3
76 2
sapa ta
Ġge o
cap inha
Ġterra cota
Ġsupre me
r p
Ġm h
es tampa
55 8
ru gem
Ġcruz eta
Ġfen di
Ġd l
ro t
Ġco b
Ġn ano
Ġn ight
Ġpa pete
us se
Ġro tor
lu z
12 50
Ġle a
Ġama z
97 9
gar ina
Ġwal k
k l
s pot
Ġc ps
Ġp eta
Ġ2 34
on s
Ġ4 11
ve teiro
pe ito
Ġan jo
ver sal
tu ario
46 1
ant ha
tem pero
com bo
0 36
a cr
j c
co rante
bo jo
Ġte les
tico lor
Ġinf lavel
ts al
bu jao
Ġ38 1
43 1
69 4
Ġdia g
09 100
Ġcru zada
Ġhy per
Ġamarra r
Ġfar m
Ġtranspas sado
Ġced ro
resis tencia
m ante
Ġes g
Ġ5 500
Ġcor ru
Ġso prano
Ġtra bal
Ġ19 6
Ġcapa cidade
Ġpalm ilha
merilha deira
c ps
Ġl ive
el la
Ġ9 12
no te
39 00
Ġja de
Ġrol l
Ġhy dra
Ġmel issa
Ġsout de
Ġbalan ce
Ġave ia
m us
Ġf b
Ġ2 201
Ġ2 101
is ol
pa do
Ġla ste
Ġdi fusor
Ġbo las
Ġ00 0001
Ġam anco
Ġcho co
Ġsan to
ys tal
dis positivo
Ġabs trato
Ġara ra
3 28
d vd
m un
m ilho
re dutor
te d
co ber
Ġco queiro
ma gne
Ġsu bl
Ġha tch
Ġveic u
Ġmetali zada
esfe ras
i bro
j ur
Ġb sc
es cada
ma ii
Ġpa to
77 9
Ġtu do
Ġquad ri
Ġesp ess
gi la
Ġf co
Ġ3 44
Ġcor t
Ġdo is
Ġal go
75 1
Ġtri go
tri coline
Ġcal i
Ġcap inha
mano pla
t ing
ha vaianas
Ġr cc
ura da
camis ete
200 3
48 2
95 7
mar cador
Ġtu ba
Ġcalca do
Ġhidra tacao
Ġou tros
feren cia
Ġcitro en
Ġbriz antha
Ġcortin inha
n us
Ġd k
Ġl os
Ġ4 35
un iv
ica rb
que bra
Ġba ilarina
Ġor i
Ġor ma
Ġsh ell
96 8
Ġden te
Ġcr v
Ġsor vete
ban queta
Ġfu tsal
len co
Ġgira torio
Ġace t
Ġcirc ulo
an tena
Ġg on
Ġma ci
ch ic
Ġal cal
Ġbo i
li ps
Ġti c
man ce
95 6
Ġ789 60
Ġlac tea
Ġnos sa
Ġpron to
Ġ098 700
barb ante
x ica
y e
Ġs to
Ġdo ces
100 4
Ġcar tucho
Ġle gu
55 7
mal eta
nr ped
Ġfecha da
ii i
Ġmagne tica
h r
Ġt pa
Ġre i
16 20
Ġga ro
95 4
Ġgra o
Ġtrans lu
Ġva zada
Ġ210 2
Ġfron tier
Ġpneu matico
5 30
Ġf n
Ġe e
il ia
85 1
85 2
010 6
Ġcombus tr
Ġmu ito
Ġrota tivo
13789 29
Ġcoun try
Ġlaste x
f lon
p lo
p inhao
Ġs os
Ġf ralda
40 39
Ġcon c
Ġto do
Ġto ma
ite c
Ġbor r
97 2
67 9
brin q
Ġmi la
Ġorgan izadora
self color
s f
s ha
Ġv id
Ġes teira
Ġ5 70
Ġin k
li te
65 1
Ġbol inhas
58 4
mon t
Ġge rador
mpo m
plas tico
Ġespess ura
m ine
do g
Ġca ia
go te
ba do
id rato
100 3
Ġ16 6
Ġex treme
Ġli z
Ġqu ant
Ġcr ia
Ġwo od
Ġbus to
0 27
Ġm ira
Ġb w
el em
il u
eta nte
ch ip
Ġte k
Ġar go
55 9
Ġex e
Ġmed ley
Ġ05 00
Ġcr f
Ġpor to
Ġid en
Ġamendo im
a genda
z in
Ġs car
Ġb re
Ġe gg
Ġt rend
Ġla mb
Ġcon tro
Ġno v
Ġsp lit
Ġoff ice
in eta
Ġ3 23
Ġ4 15
bo a
mo sa
gu er
Ġba lanca
Ġfor um
pc t
Ġpu re
cruz eta
Ġsobran cel
3 38
z ida
Ġp ant
Ġa de
an y
Ġpa co
Ġh l
Ġ9 000
Ġma de
Ġmo v
ive is
teri as
Ġprinces s
Ġadvan ced
d im
Ġv iv
Ġh ortela
me x
gra xa
68 4
Ġmal eta
fem inino
Ġtermos tatica
fabri c
Ġ ico
ca mb
Ġ4 12
Ġre du
Ġo h
Ġca ju
Ġsa v
75 2
vo yage
Ġfor rada
88 7
ces t
ces so
Ġesc ort
79 4
vas e
rel la
Ġchi ffon
Ġemborracha do
Ġveloc imetro
g h
l os
Ġa bri
Ġca veira
Ġmar more
89 1
Ġen can
Ġ45 003
Ġesc ura
Ġfabrica cao
o f
Ġa gra
ro lete
Ġes fer
im ono
Ġcon ven
35 00
Ġac t
ras queira
Ġvi ga
Ġpas coa
th i
Ġfla mingo
Ġiso por
Ġlava torio
Ġins ta
ben efic
Ġlum inaria
Ġpass ar
fura deira
encio so
renden e
0 34
Ġt her
Ġre pa
Ġca o
Ġes col
Ġk w
mo cassim
201 4
Ġvol ts
Ġstar t
Ġche f
Ġhel lo
sue ter
a ir
d al
i go
Ġv k
Ġt ranca
Ġ8 01
Ġar g
tal ha
47 1
Ġtrans versal
Ġimp ressao
Ġesp orte
bone co
esto fado
u te
Ġde ri
Ġl ia
Ġ3 24
ar te
ic h
100 6
Ġno el
78 1
Ġimp bc
Ġja ck
Ġdel ica
Ġimper ial
Ġcaval era
Ġfrances a
Ġpux ador
Ġeps on
Ġnser ies
Ġesme ralda
0 38
g ers
m ule
Ġm j
on i
ch ar
Ġem enda
Ġal ma
Ġra in
Ġme ias
Ġbe e
Ġz ip
Ġex tensao
for ce
tron g
Ġbande i
Ġanima is
4 15
n b
Ġa velu
Ġb ut
Ġe b
gu ardanapo
tu do
Ġimp ort
bor dado
Ġquad ra
Ġlit tle
Ġsho w
a reia
p j
v ira
Ġs ds
er gen
Ġ3 17
Ġv v
Ġca ter
Ġpa u
bo w
Ġro d
30 72
11 13
tra seiro
pe ti
Ġbo pp
Ġaz aleia
vo lante
55 2
Ġqu a
76 1
cel ta
Ġdu cato
Ġrol lon
gal ine
Ġcons ul
Ġimporta da
Ġbm w
natura l
Ġperman ente
r k
Ġa cido
Ġ0 200
lo cao
ch em
100 7
36 00
Ġpas se
Ġtur bina
Ġpromo cional
Ġanivers ario
4 70
an da
Ġco xa
es ca
Ġt utti
Ġro xa
Ġcor rosa
Ġsa fari
Ġar mario
Ġen x
Ġex g
Ġ19 2
95 2
ana to
77 1
Ġas us
Ġcr ystal
Ġsan dero
Ġrenda do
Ġtur ma
Ġvis ion
k ins
z al
Ġs top
Ġco ur
pa p
Ġx s
12 01
ve dador
23 00
Ġ19 4
Ġmod al
Ġgra mpo
Ġpr d
mas cul
ban co
Ġab nt
Ġflu xo
Ġroman ce
p risma
Ġp ura
co x
Ġe van
Ġde se
ti vas
on das
Ġh w
Ġ10 80
Ġto ur
65 00
for no
Ġpor c
mol de
Ġtex to
fre io
Ġsw itch
Ġcaval o
inte tico
Ġbat man
fron ha
6 25
f ci
w ork
Ġc za
Ġp va
Ġl un
Ġo pala
Ġ5 90
Ġh ard
iv ete
Ġ01 00
fe e
Ġch an
Ġlu brax
Ġtran cada
Ġame ixa
Ġambi ente
g ht
pa c
Ġk m
Ġma cia
Ġmar gar
li q
pro cessador
78 3
ser ie
Ġtor re
Ġfecha mento
Ġins tan
Ġras pa
d p
m ita
s r
z il
Ġv b
Ġj ol
Ġal im
li las
Ġbe i
cas tan
Ġcol on
68 6
Ġauto matica
Ġden s
Ġdeco rado
brea k
Ġau tor
Ġferra gem
Ġedu ca
Ġcus tom
Ġresol ucao
Ġf edr
Ġ0 37
Ġ0 88
ur us
mis t
Ġsa cola
Ġ35 00
rol esferas
Ġim ei
zz i
4 22
a deira
Ġs ic
Ġde o
es tri
Ġj umbo
va ca
Ġr ing
ne o
Ġval tra
car ga
du cco
Ġed t
Ġbel lo
Ġpers ona
Ġblo ck
Ġmaqu ineta
ez iana
Ġb ica
Ġt un
Ġo pera
Ġ5 60
Ġpa ul
Ġar gan
Ġba la
alha o
Ġbu b
bil e
Ġsis t
Ġgua rana
Ġmem oria
9 50
Ġc lar
Ġd g
re c
Ġs j
co mb
es us
Ġn l
Ġ0 46
Ġro le
Ġ10 22
Ġcon v
Ġ30 7
Ġpe tit
Ġse parador
tri fu
Ġti me
bol inha
Ġjo elho
su al
Ġmor maii
Ġembu tido
Ġmoder no
Ġinic ial
5 70
8 50
s y
u ari
ca deado
ta ru
id es
Ġar ran
Ġman dio
ge o
ito n
66 1
Ġama zon
98 4
Ġpis tola
bone teira
sem i
chi aria
Ġbri tania
Ġfund ido
come douro
Ġindiv idual
Ġm onte
Ġ2 39
er cing
Ġ4 90
Ġre con
Ġh en
Ġh olo
Ġ15 3
Ġmar vel
Ġli preto
Ġ17 6
78 2
Ġsp in
Ġcol chao
Ġ09 00
Ġhel ico
icarb onato
p ina
Ġ4 73
us os
Ġk ol
55 00
ita no
Ġpis ta
cs ia
Ġara bes
form ula
tifica cao
Ġvir gem
g no
h ns
k es
Ġm ili
Ġo k
12 20
cm s
and er
pro mo
46 3
95 3
43 00
Ġpi poca
Ġred mi
Ġnitril ica
Ġp ante
tri o
47 2
gra x
Ġsk n
ny lon
Ġol hal
Ġtransp orte
aco pla
Ġ2 67
Ġh em
Ġ9 52
um b
Ġsu ccao
Ġmod ular
Ġcol g
Ġtamanho gg
je to
Ġed ge
Ġqtd m
pir ul
Ġpick up
Ġb q
Ġb ull
Ġj er
que ijao
Ġen colh
Ġfor no
iza dos
Ġpra t
Ġgo od
et te
Ġmicro fone
Ġfer rugem
fica cao
Ġpren sa
Ġken ner
como da
h one
n is
Ġ5 15
se lador
Ġna poli
Ġ16 4
Ġplas util
200 6
mb ur
Ġpar tes
Ġpan ts
Ġpequ en
Ġfas e
Ġcli p
form inha
z za
ro id
Ġde gra
mm y
Ġk u
pe ca
na t
Ġsa gra
Ġ01 0000
Ġad v
Ġ500 00
68 7
010 5
lon g
Ġbis naga
Ġanalo gico
note book
e u
e ce
n it
s pe
ta deira
Ġa isi
Ġe poxi
Ġe vase
Ġde mo
Ġco elho
ch ur
ci onamento
Ġte ci
Ġ16 2
49 1
ps i
Ġpen t
3 26
e ar
g x
p ru
ra dio
Ġa tiva
la gem
Ġcor tical
ch imento
Ġem br
Ġar ma
Ġ18 4
Ġ18 6
fa c
Ġen f
cor r
49 2
88 1
por c
Ġtor k
Ġmal bec
Ġpen dente
Ġvis c
Ġchic lete
Ġconge lado
Ġide al
5 80
t z
in z
el y
Ġ0 55
Ġca ix
Ġes cap
Ġh us
Ġcon dic
Ġ00 001
ite ch
ver m
400 1
cre en
tre na
Ġades ivos
Ġphil lips
Ġhis toria
c n
f y
n eta
w i
Ġc enoura
ri b
Ġdo blo
Ġ40 5
Ġcol cha
cia is
Ġtamanho s
Ġpu idos
fica do
Ġol hos
hel ice
Ġguip ir
l r
ca val
Ġca ip
bu che
Ġta bua
98 7
Ġce reais
et ker
Ġinje tora
Ġrefri ge
amendo im
3 36
3 34
d ge
00 15
Ġa fa
do la
Ġt uss
Ġ0 48
bo y
Ġlo tus
li e
Ġan ton
Ġch in
Ġplas tilit
ing le
Ġz i
Ġ36 6
Ġpla cas
Ġros cada
Ġ790 9
Ġcit rus
Ġdra pe
Ġrota tiva
Ġinstrum entos
e ts
or ing
go ta
Ġal iv
Ġsa fira
Ġst u
Ġinf o
21 01
pro v
Ġta upe
cle an
Ġaqua rela
Ġchamp anhe
corre dor
Ġsant ista
Ġpasse io
a cido
a poio
re for
Ġg io
lo t
Ġi dea
Ġte l
Ġsem ente
Ġ17 9
Ġflo ater
ven da
est rutura
Ġpres ilha
Ġcu ba
pal eta
Ġcru ze
cen tro
Ġflu ido
bel la
Ġbron zina
Ġwe ek
Ġraste iro
skin ny
Ġlegu mes
s v
Ġd um
Ġ3 11
Ġ3 13
Ġro dio
Ġla mp
Ġal ianca
Ġle v
Ġli ane
Ġmon tada
Ġsan itaria
mati zante
Ġgalvan izada
lava dora
Ġbau ducco
Ġconser va
roup eiro
l v
ra ma
Ġt ha
Ġt ulipa
Ġma os
95 1
96 1
st d
Ġbi eleta
Ġsen ado
Ġbov rep
med idor
Ġvaria dos
Ġrece itu
c q
c rim
x p
on u
ba ck
Ġw d
Ġna v
li fe
200 7
ado s
mb s
Ġama mentacao
pu ff
cli ps
qui pa
olo gia
Ġcig aninha
Ġliga cao
fri gideira
pren dedor
nip le
Ġbum bum
Ġexe cu
3 29
a us
f ur
Ã º
ca traca
Ġs mo
Ġf lip
Ġre ten
le o
ch upeta
pe ira
Ġsa ca
Ġso ul
100 9
tan cia
Ġor d
Ġga la
Ġcl in
tamanho gg
Ġwe ga
Ġrena ta
pil lar
Ġste el
Ġfly er
Ġpock et
bebe douro
Ġartic ulado
fras l
benefic iamento
5 12
Ġf ram
Ġre ti
Ġcor r
ci ante
me io
Ġbo cal
Ġcon tem
Ġle gi
mar telo
cam inhao
Ġmus ical
Ġhi b
Ġpneu matica
Ġwhisk y
Ġliber ty
Ġapa recida
Ġcarol ina
Ġd vd
Ġco stela
Ġv est
Ġg lass
ran tia
Ġh g
Ġcon ica
Ġfa k
Ġmon taria
Ġce u
Ġat lan
Ġss d
cabe ca
div is
Ġreb ite
Ġtraves seiro
4 13
c icleta
r r
Ġc pl
Ġb h
pa cote
Ġre vest
ul sor
Ġpa tr
im bo
lu vas
con den
Ġ50 7
Ġcal vin
Ġva o
Ġque bra
Ġlocal iz
Ġdr ink
Ġsti lo
Ġpero ba
Ġcamba ra
mascul ino
Ġm sc
ta la
Ġf ig
Ġf lan
Ġo range
Ġpa jero
Ġin sp
Ġj esus
Ġcon dr
so bre
Ġlis s
Ġan tis
55 1
di um
Ġve i
Ġfre ijo
67 1
Ġvi tal
Ġtu be
Ġja pon
Ġblack out
gl itter
Ġcra v
Ġvene za
9 80
u b
w hey
Ġa tuador
Ġf on
Ġg rendene
Ġ4 76
bo mb
Ġro tacao
ga deiro
res sa
Ġpro ced
26 00
cel l
Ġmax x
Ġ199 8
Ġzin cada
fre e
Ġprinces as
Ġdesf iada
0 41
c it
h onda
k wp
s ch
or o
Ġv itor
Ġn x
Ġro ad
Ġk yo
Ġma ti
Ġtam p
100 01
Ġga briela
Ġq d
Ġta y
66 3
98 2
Ġbol d
Ġgr upo
fer tilizante
Ġmil k
prod uto
Ġwar s
Ġcoru ja
4 24
7 11
i ba
u ts
Ġa larme
as t
ran da
Ġ5 242
Ġ6 25
Ġte mpo
um es
Ġ14 3
ita o
Ġpra tos
Ġpla tin
Ġfo gao
Ġjun co
Ġrap ida
Ġimpa la
Ġwor ld
Ġresis tente
Ġespon ja
a brac
p y
u bo
Ġc imento
Ġf one
Ġl j
ti gela
pa das
10 50
Ġpa tri
Ġ14 2
Ġac er
Ġsu ino
cas t
Ġele fante
Ġpra tica
010 8
Ġdeco rada
Ġbro ch
box er
Ġsom bra
Ġaci on
Ġinten so
1030 26
cook ies
4 85
5 60
5 15
d Ã£o
m ir
n al
n ica
Ġa aa
Ġde us
ar l
Ġh m
va deira
mo x
Ġna u
Ġle tter
Ġam d
tri x
cas ual
Ġcan hao
Ġmon itor
010 2
Ġber m
Ġven t
Ġwa fer
itar ra
Ġtw ist
Ġtre ino
Ġbul bo
Ġevan gel
Ġmandio ca
4 14
b anho
p iro
Ġb id
es tante
Ġla cre
Ġr ia
ch io
Ġbr uto
Ġbe g
200 9
Ġcm t
Ġvi ber
Ġvi ena
Ġpal meira
58 6
Ġtor n
Ġspr inter
Ġbata ta
Ġhav ana
Ġreceitu ario
0 44
d ina
g n
v id
ro dizio
un to
Ġpa tim
ve ctra
Ġmas ca
ig e
Ġle tras
Ġcx a
Ġcro che
Ġau dio
Ġtal heres
Ġm ia
ti cida
Ġn ivela
Ġo ficio
le ito
Ġh ea
Ġch il
Ġcomp r
Ġga m
Ġvermel has
du zido
Ġimp ressora
Ġva ca
Ġbar cel
Ġautomo ve
Ġara me
Ġretan g
Ġcra vo
Ġflores ta
n or
v nz
Ġ ort
ta ss
Ġmar ch
Ġch ro
Ġcas telo
Ġdup lex
Ġprote x
Ġper na
Ġvo ce
Ġfel pu
Ġresina do
Ġpass ante
pris ioneiro
8 20
o b
v ed
Ġde ep
ul ete
pe cas
Ġ50 5
76 3
Ġsus ten
Ġdu cha
Ġcb x
Ġflu o
Ġcompos e
Ġgi ga
Ġhol land
Ġcomprim idos
Ġhalo gena
0 29
g li
g uru
l x
Ġp ing
Ġt ho
Ġma cio
Ġfa ber
Ġfa lante
Ġce bola
97 4
th y
ref resco
Ġbl ind
Ġmag ico
Ġbov ina
mpe ador
Ġfel iz
Ġrefor co
Ġlen co
Ġintel ig
pri mer
cic lo
Ġaeros ol
an zol
da k
ar vore
Ġ4 14
Ġ4 55
Ġre boque
Ġin a
Ġma es
Ġlu g
Ġmul ticolor
ste lla
fil m
Ġcof fee
Ġgira ssol
Ġmecan ica
Ġestre las
Ġcolle ction
Ġescol ha
6 100
f in
o ral
Ġd un
en x
de z
ic er
Ġj ns
11 12
Ġi bama
mo ra
Ġmas s
Ġcon stru
Ġ18 7
vo y
di ante
Ġcin t
0000 0000
Ġkg lote
Ġ22 60
Ġho ur
Ġ789 99
Ġva rao
Ġbi polar
ex t
trans formador
Ġfar ma
eletro duto
Ġciv il
4 26
k p
Ġp inho
Ġp mg
Ġp si
Ġv n
Ġv io
es merilhadeira
Ġo d
Ġpa ta
ga veta
im ano
tro feu
Ġve ir
mas ter
bor do
Ġos ci
Ġpan da
tamanho p
Ġpon zan
Ġ3 38
Ġ7 01
Ġj bl
Ġmar mor
Ġte rere
fa z
Ġ17 7
88 6
Ġgo de
Ġpu ff
Ġag ile
Ġtan ino
ns pa
Ġ199 9
Ġpun to
Ġtranspas se
Ġsau de
acessor io
8 10
Ġ ilha
Ġp ris
00 20
Ġf ro
al bum
Ġ3 28
Ġ0 79
Ġal c
Ġlo cao
se ve
cha ssis
Ġoc p
Ġra cao
Ġ200 000
Ġfa me
gr ia
Ġcx c
pla taforma
96 2
Ġper kins
mod elo
Ġvr m
Ġcou che
Ġcolon ial
l ina
Ġ3 14
Ġ4 13
Ġ0 85
Ġla bial
Ġmo gno
Ġi q
Ġfa g
Ġpo w
Ġam ig
des c
88 4
010 3
Ġros cado
Ġsan itario
Ġper for
Ġmis tura
Ġmad ri
Ġeva po
cul tura
cole cao
Ġconven cional
c ular
g lo
Ġp ho
de tergente
Ġla p
ve rado
Ġ00 000
Ġ18 9
Ġbas tao
Ġval met
Ġor top
46 00
Ġpin tada
Ġjo hns
Ġon da
am ort
Ġveic ul
Ġag ul
Ġinte iro
Ġking s
jan ela
Ġ517 000
Ġportugu es
ca teter
Ġcor tador
con tro
um ar
Ġba te
Ġra to
Ġse cador
ge ador
99 1
Ġ24 7
he ita
tin s
Ġcos me
Ġprote ct
Ġ790 97
Ġcama ra
Ġstan ley
Ġbis c
Ġnor ton
Ġfis cal
rap ia
Ġpente ar
Ġacopla mento
3 21
4 35
d k
Ġde tox
Ġo ft
Ġj j
mis tura
Ġw he
Ġst y
Ġfa ces
Ġbe ijo
jo u
Ġen vel
ion ese
010 4
bro sa
Ġbro ca
cen tral
Ġlav ar
Ġxt z
Ġartes anato
Ġcool er
Ġglo bo
Ġcrian ca
9 10
9 12
f j
h id
i pa
p ur
s in
ca pu
Ġs elo
Ġ3 26
as tra
ul der
ri ficador
Ġ0 47
Ġpre d
Ġpre m
Ġ8 95
Ġk le
Ġj f
Ġal p
Ġaz m
Ġw k
Ġra ck
li ga
Ġinf an
Ġno t
Ġcur vim
Ġ11 01
Ġban da
Ġfil tr
Ġiso lado
Ġsis pass
Ġhar mon
Ġcirur gico
Ġpran cha
g elo
Ġc alha
ta pa
ti rante
Ġ3 39
Ġt k
Ġ5 12
Ġ9 55
Ġma m
Ġpe ts
Ġpe Ã§as
Ġ24 6
ion ador
can aleta
68 3
79 1
Ġ27 50
bus to
Ġtro ca
micro fone
Ġdra gao
Ġspa al
Ġmari lan
0 48
4 17
8 77
g eleia
k b
sa msung
Ġes fol
Ġh x
Ġ9 78
Ġ15 1
Ġcar ros
Ġman da
Ġtri color
Ġve ja
Ġga tinho
Ġsp an
Ġtr in
th racite
Ġfu ji
Ġmin t
comp utador
Ġcirur gica
Ġp lt
or ias
Ġb il
un c
Ġo co
ic ms
os h
Ġla minas
ja mento
Ġpe ad
37 00
Ġ35 2
Ġmed idor
ke t
Ġvi tam
lon ga
ct us
Ġtan ger
Ġmin as
Ġlin gua
polia mida
Ġseg unda
flo ra
Ġcup cake
Ġsy stem
Ġris que
acu car
Ġtrabal ho
m j
Ġ3 36
ma ke
Ġma chao
ve x
Ġmm alha
Ġele vador
Ġsk ull
che te
Ġanti ade
Ġru b
nu tri
Ġespa tula
Ġpero lado
Ġsele cao
Ġcobal t
Ġecolo gico
6 70
c ura
v p
v ento
Ġa us
Ġb lon
is ador
Ġv ga
ri us
Ġto mara
fa o
fe ijao
99 3
68 2
Ġsal on
Ġmt x
Ġny bc
Ġbc st
Ġer vas
Ġson ho
Ġconge lada
4 28
6 15
6 19
u e
Ġd h
re no
re ducao
Ġ2 77
en ca
Ġn fe
ri e
Ġpre cis
Ġ6 90
ge t
27 50
Ġch ina
di gao
ip hone
pp le
sor vete
Ġcolor idas
96 3
Ġcab elos
para barro
Ġsi deral
Ġwor k
Ġtran cado
Ġrus tica
Ġinten se
re mo
Ġ2 76
Ġl ga
en ce
qu al
Ġ12 0000
se p
Ġ50 8
Ġan iv
Ġcomp on
Ã§ s
Ġass ime
Ġasso alho
Ġcater pillar
d g
Ġa ves
Ġpa g
ba u
27 00
pol is
Ġri der
67 4
69 3
Ġva z
ag le
Ġsho es
Ġgrava cao
Ġdiaman tado
Ã µ
Ġe ma
Ġ3 34
Ġ3 85
en ds
ma relo
Ġx re
ic he
Ġro lam
Ġmar chas
Ġar ca
Ġda dos
car b
Ġne t
Ġ22 50
Ġfe ixe
ban o
Ġge racao
Ġlinha ca
Ġgen e
Ġbel le
Ġcapa cete
Ġox er
ane is
Ġmaca quinho
Ġamp li
multi funcional
Ġgla mour
Ġcana is
Ġfilho te
978 85
Ġalcal ina
Ġosci lante
Ġantiade rente
Ġa w
ol i
lo gia
Ġdo mes
Ġmo on
ten d
con tr
Ġcon ti
Ġra io
Ġfa t
99 2
iz ed
Ġta cas
iss ipi
Ġlinha s
Ġtor o
Ġfu csia
ĠĠ Ġ
Ġmis t
cula dora
beb ida
desinf etante
trifu ga
6 12
n ume
in ser
Ġd uro
Ġl bs
Ġl igan
Ġ6 70
Ġk d
Ġma io
ba i
ci f
Ġsa idas
Ġref a
Ġ16 20
Ġan tena
Ġch ips
Ġti ff
Ġli ke
Ġsh imano
Ġvi ole
101 5
Ġcompa cta
icm sst
Ġdan ny
Ġsubli mada
Ġcrom us
Ġperfe ct
4 75
b z
c tar
e con
g res
s tr
or d
sa dora
ho t
Ġem ergen
Ġmo usse
Ġw est
Ġar gila
des em
pen ser
Ġand roid
Ġamo ra
Ġcamo mila
estri bo
Ġaliv io
k u
q td
s x
v cc
te ro
Ġs pot
el ha
qu ite
Ġin tra
Ġla ran
Ġcor cel
Ġcar ra
Ġinf ra
Ġ14 50
Ġli p
Ġ17 1
Ġmed idas
Ġdire cional
rol dana
Ġ46 0000
Ġap res
Ġferram enta
1378929 49
Ġtoma das
refor co
Ġdum ond
4 16
d w
g c
Ġm tr
pa pete
10 27
Ġlo uca
55 3
Ġcha peu
Ġ19 7
Ġho sp
maca co
Ġsen se
vi tamina
Ġtin t
Ġsm d
Ġcere jeira
Ġcri zal
cle o
Ġdeso d
Ġaven gers
Ġinjeta do
roupa o
Ġintelig ente
0 39
0 33
g v
g alhao
i ti
Ġg low
Ġn an
un t
Ġca f
Ġx pe
ch umbo
Ġem bala
Ġal imentos
Ġsa fra
Ġw b
ir ts
Ġpo tass
Ġex terior
Ġsp lash
67 2
fer ram
Ġop cao
Ġform inha
Ġvig or
Ġlog itech
Ġglu ten
Ġdese jo
4 18
d up
f inho
h en
u el
Ġco a
ia cao
50 30
ina gre
Ġto ns
Ġpol ic
Ġval le
Ġz c
Ġz n
Ġor bi
Ġje ep
Ġcas ca
can so
bre sa
Ġmon aco
010 7
Ġpri m
gela tina
Ġkyo cera
Ġperfor mance
Ãµ es
m ica
v ias
or i
en v
as pirador
on ic
Ġo t
Ġo ficial
Ġca bide
Ġin teira
Ġk v
Ġ9 99
Ġr v
Ġac el
67 3
pu a
Ġas ics
vis ao
Ġbar reira
par te
Ġol d
Ġeg ip
Ġale crim
corre tivo
Ġescri torio
Ġestri as
Ġcarta go
Ġlegi timo
a me
i us
s im
x s
00 14
re co
an go
Ġ3 200
Ġx box
mm tl
Ġ8 80
Ġbran c
cha veta
Ġda ily
Ġpol im
ie re
mar ia
pi re
pra t
Ġind l
gel im
Ġcel este
Ġsom bras
Ġeli an
fra gma
Ġdistribu icao
Ġilum inacao
Ġcook ies
Ġplatin um
9 14
Ġm ig
Ġs trong
Ġ3 19
Ġg y
Ġg ris
ar ma
Ġt ns
ja do
Ġz m
Ġz ete
Ġ19 7500
Ġga ra
Ġcur so
66 2
77 2
77 3
97 3
Ġban hado
pen elope
Ġat x
bon d
Ġbd j
ama c
Ġapl ic
Ġxica ras
Ġamaz onia
f p
h ia
k va
m ia
m and
in versor
00 18
Ġ2 96
Ġun der
Ġcar inho
Ġman te
fa dor
ing os
Ġhi bri
Ġpock ets
Ġespi ri
co pio
Ġg il
Ġ4 16
Ġn ina
il er
Ġ9 60
13 13
Ġw ash
Ġta pa
Ġja care
Ġgu erra
Ġque i
Ġper digao
Ġbri gadeiro
hl p
gol d
Ġcastan ha
Ġestri bo
Ġcontin ental
stella tion
d ig
f le
f um
f ly
Ġc ele
Ġc esta
Ġc esto
Ġs qua
Ġ4 28
Ġt ul
ia tura
Ġ6 75
11 10
ura l
na pa
Ġtam anco
raf o
Ġsem entes
Ġ24 8
pel e
Ġflo ren
Ġclas si
Ġsan tor
Ġpi que
pes o
Ġmer ino
Ġmono fasico
Ġsabo res
head set
Ġenvel he
6 80
Ġb ento
co res
Ġe ff
Ġ4 21
Ġ0 95
Ġx p
17 01
Ġfa cas
Ġpo de
Ġli ft
Ġcan aleta
Ġcolor i
Ġtrans porta
68 1
pos te
79 2
lon go
Ġcu ecas
mol d
ik ana
Ġinstan tane
Ġn m
Ġi pa
Ġcon versor
no vo
Ġ40 2
34 801
Ġpo lar
Ġch em
Ġlon don
98 1
Ġha sk
vis ion
tex tura
Ġbras temp
Ġbic h
cer ia
Ġlac inho
Ġdy na
Ġinjeta da
Ġrecic lado
Ġrain bow
5 25
m v
p lex
s tra
Ġp ts
Ġp ie
re vista
Ġo pc
Ġx xg
ga la
Ġem o
Ġbo cas
Ġte flon
Ġcan guru
Ġta urus
Ġpal eta
Ġpes so
Ġparaf usos
Ġdisco s
Ġeu ca
Ġmoda re
Ġsti ck
care nagem
Ġcopa col
Ġalon gada
9 003
it ri
Ġj v
Ġh il
Ġla ca
tra t
pe c
pe la
Ġar ticulacao
Ġse gre
Ġex per
Ġsem pre
Ġga rantia
97 1
Ġvidro s
Ġfo fo
Ġsan it
Ġfun da
Ġpl Ã¡s
Ġdiv ino
Ġzircon ias
Ġestabil izador
aze ite
Ġsach es
Ġria chu
7 90
8 18
d m
n el
Ġf z
Ġe i
Ġde sa
Ġco ber
en f
Ġn inho
Ġt co
Ġmo ran
mo ikana
Ġman ha
33 00
Ġor ient
Ġ17 4
Ġkit ty
300 2
sup or
ven t
Ġja hu
Ġas pira
Ġmulti funcional
Ġcl ick
Ġautomo v
Ġinver ter
Ġcalcinha s
Ġbis tro
Ġfel tro
Ġdiferen cr
Ġgs m
Ġcamuf lada
Ġtiff any
Ġriachu elo
9 000
i Ã§Ã£o
n ic
r g
r ine
Ġp im
Ġm q
Ġa ur
Ġl k
es teira
10 22
Ġh iper
gu icho
Ġmar ro
Ġar m
Ġpro ven
Ġfa ro
Ġcha ma
Ã§ ao
Ġsen sual
Ġgal o
Ġfla p
Ã¡ vel
Ġesto nada
Ġnit ro
Ġ7899 89
rote ador
Ġvio lao
0 32
8 015
l em
Ġe agle
Ġ2 98
er ie
Ġl q
ti x
Ġ4 45
Ġlo ck
Ġi te
Ġaz u
Ġna val
Ġ16 1
Ġbarra do
Ġva reta
58 7
Ġsex o
Ġspe c
Ġbom ber
Ġhask ell
p pa
p ic
Ġv ult
Ġ4 33
Ġo e
lo que
Ġ9 40
Ġ60 8
cia da
Ġmon ster
Ġri de
Ġmetal lic
Ġmag ica
Ġluz es
Ġir riga
Ġvan illa
trin cha
assa deira
Ġfes tas
Ġemergen cia
4 90
h g
l emento
re ce
Ġa tiv
al terna
do ll
en go
Ġre vers
ul tra
Ġca pas
Ġro ls
Ġh and
14 01
ren ze
man ual
pp m
Ġtrans mis
Ġfo rever
Ġhe lanca
Ġfle ece
Ġges so
clip se
Ġbub ble
Ġpatr ulha
Ġzete c
l f
Ġp pa
in io
00 13
Ġs pt
Ġs carpin
Ġb ia
Ġde lux
es corredor
Ġ4 69
Ġw ith
Ġmas sey
Ġte s
Ġtra z
jun te
Ġor dem
Ġga xeta
Ġkg s
Ġsan tos
Ġprof ess
we en
Ġ199 6
Ġsel va
bic ho
Ġgri p
Ġwo man
acopla mento
Ġp w
ta p
Ġ3 27
Ġt ren
Ġ6 40
ic ina
12 10
12 18
ico es
Ġmar co
Ġtam g
Ġna k
Ġen do
Ġti p
bor da
pal ito
ju ba
Ġcarre gadeira
ell er
gol f
dire cao
Ġcala bresa
6 11
s ario
la ck
to na
Ġn erv
20 30
Ġca te
Ġ5 19
12 12
Ġal mofa
fa ro
Ġdes mon
Ġen chimento
0000 4
Ġjo ao
Ġgr ill
ex trato
vi bra
Ġcir re
Ġten sora
cra ta
cer v
Ġmassa gem
Ġpole gada
Ġjus to
Ġmiss issipi
Ġrig ida
Ġpil ot
c ini
f n
p x
Ġ ix
Ġm ff
re vest
an i
Ġre mo
Ġre venda
Ġo pen
Ġpa per
Ġ7 70
Ġk ia
Ġcor vermelho
Ġpin ta
Ġrol ler
Ġhel ice
Ġfis h
Ġsubli macao
Ġmoder na
Ġimedia to
Ġbarcel ona
Ġkle in
7 30
a ker
g la
i ks
r pm
Â ®
00 11
00 16
Ġa tivo
Ġa condicion
Ġs no
Ġf go
Ġ2 97
Ġ3 47
Ġ4 22
Ġla dos
Ġdo ur
Ġmo sa
Ġba con
Ġ11 50
88 3
Ġgo o
Ġres se
Ġbi jou
cre t
Ġbel zer
Ġlin da
Ġgela deira
mano metro
Ġemborracha da
Ġespel hado
fixa dor
Ġtos cana
Ġtranslu cido
Ġortop ed
d v
k lin
Ġc q
Ġm w
Ġa gu
ro xo
al ianca
Ġ3 29
ol s
Ġro che
Ġi ron
Ġ00 11
Ġda kar
Ġbor ra
Ġja guar
Ġsor riso
Ġ600 000
Ġjun ior
Ġtec no
Ġben z
cab elo
sol ucao
Ġresfr iada
flu ido
Ġfilho tes
Ġconce pt
Ġarabes co
Ġvitor ia
6 40
Ġc im
Ġf wb
Ġla ce
va cas
Ġcor d
ch s
so es
Ġse te
fa b
Ġsol t
Ġbol s
mon o
color ido
Ġcra vejado
Ġgar raf
Ġgir ls
Ġson hos
Ġborboleta s
nes io
Ġder ma
Ġlem on
termo metro
Ġtay lor
7 12
g arra
m eta
v ir
y on
z iz
in ner
Ġb lanc
Ġf ine
Ġf ini
us t
Ġ8 70
Ġtra to
Ġra dia
Ġtri fil
Ġac p
des en
Ġplastico s
Ġy es
Ġcre mer
gi bre
Ġmi olo
Ġae reo
Ġcis er
g d
Ġa bc
co b
Ġf est
ti cms
Ġ3 48
01 10
de tt
Ġ0 300
ran ce
bo o
Ġcor verde
ch eta
tra li
se cador
Ġsa fe
Ġoc ean
Ġle x
ion a
Ġta bu
Ġesta cionamento
Ġju ta
comp ra
prote se
ama ciante
Ġbrin cos
plas tica
quim ica
espe to
Ġinfin ity
Ġdus ter
9 60
b ig
in to
Ġe clipse
Ġ2 68
Ġv nz
20 27
Ġes qu
so lar
Ġpc te
Ġ60 5
Ġcan ina
Ġta tu
ut z
Ġ789 85
Ġ26 00
iss imo
bal l
Ġesta do
wa re
cto se
carre ta
Ġital ia
ov os
Ġstri pes
usa deira
Ġcadeira s
Ġtanger ina
alterna dor
7 19
w d
Ġd x
Ġs ino
sa c
Ġre posicao
Ġes cada
10 60
Ġ8 15
40 38
Ġlo ba
Ġtra v
Ġba rato
Ġra lado
Ġ14 1
Ġno ir
mal heira
Ġbov inos
Ġten s
Ġher me
Ġexp lo
cic lista
Ġ tico
Ġp orte
Ġa viva
Ġs q
Ġs ca
Ġf iorino
Ġo reo
Ġes cu
ch lo
Ġref lex
Ġ50 2
ber g
Ġja cto
101 8
Ġ000 2
Ġlam padas
Ġol iv
refri g
cir cuito
Ġligan ete
4 76
6 22
c ril
g lu
Ġp ena
00 22
Ġ4 41
ma k
Ġo ak
Ġk al
Ġh un
Ġw ind
Ġex press
Ġgra du
Ġva re
79 3
Ġhidra t
Ġlava vel
Ġcapu ccino
tele fone
Ġdestro y
Ġfantas y
acr y
Ġmargar ida
Ġpante ne
5 90
6 35
c lass
n pt
Ġd ic
Ġd ur
la v
Ġco t
01 20
10 25
Ġ8 20
Ġi ks
ve ic
Ġ100 1
Ġoc e
Ġpol ies
ck et
Ġex cel
Ġgra v
Ġ02 50
Ġjo ia
Ġmole cotton
Ġou tras
cb em
inf antil
Ġced rinho
Ġrefle tivo
conta tor
Ġstor m
Ġtuba rao
9 20
y ama
z ios
in da
Ġe ra
an ge
Ġv ini
ma xi
Ġca me
Ġca ber
os to
ten se
Ġ18 50
ula cao
Ġan gular
Ġpo tter
Ġno gueira
mp er
Ġcan al
Ġmeta lo
Ġgran ulado
ser v
Ġfi renze
pis cina
Ġav ant
Ġuni f
Ġ199 5
Ġsho ck
Ġgira t
cab edal
Ġdra gon
aro ma
Ġhar ry
Ġjus ta
Ġfal so
Ġjul ia
Ġimedia ta
Ġencolh ivel
conden sador
heita deira
0 47
3 37
4 19
6 95
8 16
Ġp neus
Ġs tella
to mate
is tra
sa rela
il ly
Ġpa pi
Ġ6 0000
Ġ9 14
Ġ00 12
Ġ200 00
Ġpo mpom
37 100
Ġen er
Ġve rona
Ġsu gar
Ġcal Ã§a
Ġ300 000
Ġsh i
Ġtex t
Ġcap im
tim us
Ġlava dora
Ġesfe ro
Ġfox lux
Ġbom bom
Ġspr ing
titu de
Ġtable t
clo reto
Ġtele fone
Ġsna ke
Ġdiag onal
Ġlamb da
Ġjer sey
Ġkings ton
0 37
b ca
b iela
s g
re ne
Ġe tn
Ġ3 96
Ġ4 44
Ġ10 55
Ġto uca
Ġto pper
Ġcar bo
uto ra
Ġtri polar
Ġfemin inos
Ġga iola
Ġsu ina
Ġsu zu
Ġmed indo
Ġsol u
can udo
98 3
pel ente
Ġven da
Ġmag ia
Ġfixa dor
Ġrosca vel
Ġpassa t
gran ola
fri end
Ġtexturi zada
Ġurs inho
Ġoh ms
Ġagul has
Ġdelux e
b n
b ur
Ġm vs
Ġm imo
Ġd ona
re r
te is
ta c
ta ble
Ġb z
Ġv la
de p
ten as
Ġ25 7
Ġ40 9
Ġex er
Ġne ro
Ġlu gar
Ġfre te
Ġpla t
val e
bol so
Ġpas t
56 2
Ġvisco linho
Ġvo il
Ġben s
Ġsensi tive
0 46
8 11
e da
f is
r v
in se
Ġs onda
ro d
Ġco fap
bo esa
ga ra
ga veteiro
Ġma teria
Ġso u
Ġ30 2
Ġ30 6
Ġlote validade
Ġti ara
Ġor na
Ġcan toneira
Ġta uari
Ġgra ph
Ġper u
Ġox igenio
cane la
Ġflam engo
pru dence
6 45
k imono
s so
x prof
Ġp z
ar ca
es tr
es pi
Ġt up
sa boneteira
Ġca ta
ic ure
bo cal
ga v
Ġj p
Ġh oney
ura s
con cha
Ġcon stellation
no break
ie ixo
pi ercing
Ġpi ma
Ã¡ rio
Ġza mac
Ġnutri tion
Ġbut ter
Ġhelico idal
e q
k x
u o
Ġp ix
ta tion
co u
Ġ8 40
Ġ8 100
Ġ7 40
Ġ7 500
va m
Ġver sao
Ġar ras
Ġan cora
Ġle i
pp nus
Ġtrans fer
gra mpeador
69 1
Ġgran des
Ġfo tos
86 1
Ġtor cao
Ġplu ma
Ġita pua
vit ta
Ġchamp ion
Ġsupre ma
Ġima gem
2 89
6 29
7 14
f ig
n k
p ick
Ġs he
Ġ2 78
ar r
en za
Ġ0 66
qu inte
10 45
Ġ5 24
Ġpa pai
mm pl
Ġk p
ter co
va ral
Ġma bel
cal culadora
ort h
Ġ00 50
ce to
Ġba b
Ġno w
Ġti rante
Ġaco mp
cor p
Ġsol ucao
cu it
Ġbol ha
101 9
Ġmicro f
gan e
cos tura
sal g
Ġmel hor
Ġcare nagem
refri ge
Ġcaminho es
Ġlotevalidade qtd
f ios
g ini
h ol
i pe
t ns
v ente
w alt
Ġ2 32
Ġde ck
Ġco tacao
ti ck
Ġg relha
es tal
ga de
Ġ9 80
Ġba c
Ġ50 4
Ġno ta
Ġu me
Ġpes coco
Ġchave iro
Ġpos t
Ġmol d
tch up
Ġzo om
Ġbloque io
0 31
a man
g un
g antil
k r
Ġd una
Ġa bra
ro co
ma tsu
Ġ0 400
Ġca vada
Ġin timo
Ġman ia
ad itivo
Ġcol meia
ard inha
Ġ000 5
est j
Ġdobra da
vio lao
pran cha
Ġmaci co
Ġmila no
Ġletter ing
Ġmante iga
acry sof
in j
co lante
Ġ2 33
Ġv iton
Ġt z
sa ca
ri lan
Ġ0 99
qu in
os t
ch um
ch ut
mo las
po sa
ves tuario
Ġti ger
Ġcm st
Ġtor que
Ġfun coes
ac ril
Ġpen dura
Ġpente ado
Ġkn it
Ġresis tencia
Ġole os
zel eira
Ġpenal ty
Ġcali for
Ġrole tes
4 45
7 40
h em
te k
Ġv g
Ġn ut
Ġ5 11
ch al
Ġi pe
Ġbo ard
so lado
Ġ30 9
Ġch im
Ġex tensor
gg i
0000 01
Ġama ciado
pi j
Ġfe ch
Ġmicro ondas
Ġka la
Ġexp and
Ġjard ineira
bron ze
dire ito
Ġmanu tencao
Ġreche ado
8015 34801
b q
d l
f iesta
l ico
t w
x gg
00 50
un e
Ġre vestido
Ġ5 22
Ġin dex
Ġsa m
Ġcan on
ces s
Ġja m
56 1
Ġmal h
Ġcir cuito
Ġacessor io
etiqueta s
Ġrea tivo
Ġvlr un
Ġpespon to
taru ga
gantil ha
5 964
p neus
x ido
y u
Ġ2 79
Ġ4 46
Ġt orta
10 80
Ġbas c
Ġve ra
Ġtr ilha
Ġel os
Ġel seve
bran a
59 4
Ġterm inais
Ġcombus t
Ġdu bai
Ġtin tas
olo gico
rar ia
Ġclor o
Ġsuperf ic
Ġsqua re
4 23
7 15
d x
Ġp ds
Ġa lex
co re
co digo
Ġt ris
pa tch
sa che
Ġre vol
20 35
Ġ5 45
le v
Ġj ci
Ġr ca
16 01
pe x
con versor
so q
Ġto e
ine ador
cor do
Ġ13 1
pre sa
Ġdesc uni
Ġros c
Ġpor tal
Ġ29 2
Ġaca bado
Ġben galine
let te
Ġran h
Ġala v
Ġconfor me
Ġzo o
Ġpren dedor
pers iana
Ġges tante
castan ha
Ġresse faz
Ġvlrun its
Ġdescuni ticms
c im
d h
m k
v ies
w c
Ġm inha
is as
Ġ3 33
en c
un do
Ġre ves
10 35
Ġun ip
Ġma ran
Ġem pilha
Ġal mo
gu ard
18 01
Ġsa lada
Ġcon ver
Ġso utien
Ġba ga
Ġno turno
Ġ35 3
ff er
Ġcal cio
gg io
Ġcro cante
cola geno
Ġbu d
para brisa
Ġrol Ã´
Ġ101 6
lin guica
Ġfri mesa
Ġdor i
Ġsecre t
Ġsanf onada
Ġapres enta
Ġcaber net
c Ã£o
Ġc ien
te ste
or r
Ġ2 300
on ix
10 24
Ġ8 60
Ġj ose
Ġbo a
Ġsa ra
Ġ00 004
Ġto da
mel issa
200 01
pre mi
tin tor
Ġho ra
57 3
Ġfran c
Ġpd r
Ġmr m
Ġdistribu idor
Ġquart z
Ġeti os
Ġderi v
Ġdestroy ed
Ġvla prox
5 11
b ba
i u
o ppnus
v or
re queijao
Ġe au
Ġre m
Ġre tar
io ca
Ġpa ulo
Ġfem oral
13 19
Ġbo tan
Ġba inha
Ġ50 6
Ġse al
ixa o
Ġac us
Ġ17 3
Ġcal econ
iza vel
Ġsol to
pla no
Ġce ga
101 4
den cia
Ġni que
zz c
bras il
cap ri
Ġlava bo
sil k
cond ulete
Ġself color
Ġrun ner
Ġbenefic iada
Ġino va
Ġcaip ira
capu z
5 22
5 18
5 65
n g
Ġco x
Ġn ic
20 50
Ġo etker
qu encia
Ġ7 30
Ġk f
40 35
Ġ9 30
tor ias
Ġlo ja
13 14
con v
res h
ber co
Ġch ia
Ġen velope
Ġu d
Ġ60 60
Ġor ion
Ġcomp ra
Ġqu in
Ġ45 002
Ġbol sas
Ġpar fum
101 6
sal to
Ġlava cao
Ġfal con
vet te
peito ral
refrige rante
8 12
8 44
Ġp ff
Ġb im
el heira
Ġt pl
Ġ5 18
ga lao
ga massa
Ġ9 01
Ġ12 18
se g
Ġso und
iro n
Ġval e
Ġplas ti
Ġti t
Ġta tica
69 2
Ġ04 30
Ġstra lis
Ġsi f
Ġ199 7
ile cta
Ġvlaprox imp
0 76
0 49
5 75
f h
g alo
Ġg em
pa m
ma terial
us b
Ġ7 60
eta s
me can
Ġen d
Ġve gano
Ġne cessaire
Ġ36 2
Ġta s
Ġri p
ona ta
Ġcho pp
Ġmescla do
mal l
mal bec
Ġmil le
ab sorv
Ġsun set
403 756
Ġchev ron
Ġcomprim ido
Ġintegra do
Ġcorru gado
Ġprofess ional
5 17
a tuador
b by
v x
ra gua
re corte
Ġa ga
Ġs tam
Ġ4 68
Ġre la
10 40
Ġun ds
Ġh ss
Ġr ise
Ġmo ca
Ġfem me
Ġna tu
Ġman d
orta le
Ġu a
pp u
Ġgu ardanapo
Ġnr cli
Ġka w
esta tor
Ġtempe ro
mos tarda
789 67
Ġlin k
dd ler
Ġital iana
Ġcontra ste
Ġhu gg
Ġpatch work
Ġnser ie
Ġnin ja
cober tor
univ c
Ġchan f
Ġanton io
5 19
6 65
s inal
ha que
Ġ0 78
Ġin se
Ġin door
Ġk b
Ġla ra
Ġpe i
Ġra so
Ġno zes
Ġmeta is
300 4
Ġvol umes
ele te
tel l
pin go
Ġadulto s
Ġinter face
Ġpen eira
Ġis ol
Ġpassa gem
term direcao
Ġsau v
ffe t
spa al
Ġteles cop
Ġdemo crata
Ġfelpu do
Ġfluo res
Ġm sa
in cen
Ġd w
Ġl ider
Ġ4 85
ma tch
de ca
16 18
Ġw s
Ġar macao
ida vel
Ġbr una
cor d
one te
Ġlu k
Ġcal or
Ġmes h
Ġser um
300 3
Ġpos itivo
Ġbrasil eiro
Ġfri ccao
Ġpop ular
Ġbt m
Ġtal co
Ġbon d
Ġpente ada
clor o
Ġrefle tiva
Ġfras es
Ġalo e
Ġinvic ta
chur rasqueira
Ġpotass io
Ġcalifor nia
3 27
b ular
d pi
s ta
Ġa q
Ġf um
Ġde x
an gular
Ġl io
pa t
Ġca deado
10 21
Ġin cl
Ġal b
Ġsa mba
ite d
Ġbe ige
Ġve las
mar k
Ġgra xa
Ġvol k
Ġ28 00
Ġ70 9
Ġfe ijao
Ġfla ne
Ġvel vet
dar ia
Ġbrasil ux
Ġfri ends
chu veiro
Ġond ulada
Ġcic lo
Ġarticula da
4 34
u co
Ġp y
Ġp ump
co xa
01 18
Ġre ver
Ġ0 49
Ġca ts
Ġ20 23
na o
Ġso d
Ġto ddler
Ġra ven
Ġle van
29 00
br ilho
Ġinox idavel
Ġha va
ban ana
Ġtor x
brin de
Ġate go
Ġcaps ula
Ġbio pol
Ġwe b
Ġessen ce
Ġespa guete
Ġmaqu inas
Ġgrava ta
Ġkn orr
Ġeconom ica
Ġtrabalha do
Ġsubs titu
Ġbiju teria
Ġvaza o
Ġpred ilecta
5 39
a pon
f rio
i ar
i tal
j ar
k in
r in
r un
Ġc em
00 30
Ġs po
Ġf ut
Ġde z
01 12
il on
Ġo relha
Ġca cha
mm e
Ġma ta
Ġdo wn
Ġi f
pe tro
Ġra cas
Ġan ne
Ġsu co
Ġcan ario
Ġta mm
Ġpin ce
Ġsh ark
Ġsil ic
Ġsal gado
Ġfu gini
Ġcano a
Ġsho ulder
trans fer
mole ca
gran d
Ġboy friend
Ġtraves sa
Ġrevers ivel
4 95
8 15
l ia
u dos
Ġp ci
ra d
re junte
is er
Ġco rante
Ġre y
20 48
Ġcom bo
Ġ5 16
Ġpa mpa
le tra
Ġro uge
12 14
11 50
Ġal ice
se te
Ġ18 3
car go
Ġsem ola
Ġ36 1
Ġlon as
Ġnu k
Ġcamis ola
Ġpu bl
Ġmulti cor
pin t
Ġbra vo
Ġpri mario
Ġgre ase
Ġcolorido s
Ġhel ena
Ġson y
Ġpala v
Ġnutri cao
aro matizante
Ġalon gado
Ġpur ple
Ġfir st
vie ra
alum inio
Ġhyper x
Ġsuzu ki
0 42
f v
f ral
x an
Ġp x
ca e
ca rim
co na
Ġ2 72
es ticador
Ġ5 23
Ġ10 70
Ġcor in
11 18
cal ho
Ġtra tado
ir is
Ġ17 2
Ġser r
Ġkit s
Ġvol t
Ġveic ular
Ġcasa mento
Ġtw ill
Ġliv ros
Ġnos so
Ġconfe cci
Ġmaxim um
Ġagra le
Ġchro me
Ġblon d
ferram enta
Ġeuca tex
veic ulo
b w
t pa
ra ta
in tense
Ġd ina
ti te
ti la
ma madeira
em ens
Ġpro cesso
Ġcar mim
Ġ16 50
be ira
Ġ500 000
Ġmul e
pi quet
bri o
gi an
Ġpi relli
Ġtor nado
Ġlan d
Ġusa dos
Ġcli est
ju da
gado res
Ġmac ica
Ġeti q
som bra
Ġtrabalha da
camb io
quipa mento
Ġtho mp
ziz ien
Ġpds f
0 66
5 74
a bo
c be
j inho
p ig
Ġd ress
ca u
20 40
Ġin cen
Ġma ch
que tes
Ġ25 8
Ġ01 50
28 00
Ġ19 38
Ġmul tilit
58 2
Ġmil len
Ġmr s
moto cicleta
Ġliv er
Ġtoalha s
Ġstri pe
Ġlem bran
Ġren de
Ġtrape zo
Ġalgo dÃ£o
Ġiden tificacao
Ġweek end
Ġesfero grafica
0 500
ca ix
ti e
Ġre man
Ġo ca
Ġca tal
Ġpre c
Ġ12 14
Ġr k
Ġw ell
Ġte a
Ġ25 9
be t
Ġga tilho
Ġ13 45
col ch
Ġ05 8
Ġib iza
Ġdis j
Ġfree way
cul enta
Ġia te
iver y
Ġting imento
Ġcolle ge
cion ado
Ġperfu mado
Ġbandei rante
Ġfram boesa
8 80
i be
Ġm ho
Ġs ne
Ġ4 48
Ġca c
Ġpre sen
Ġ7 80
Ġj um
Ġma ho
Ġr h
Ġal vejado
Ġar no
Ġto po
78 00
88 2
pos to
eno vo
par tes
Ġcam inha
Ġtec n
Ġfru tti
Ġko matsu
cs on
Ġer gon
Ġdol ce
Ġamerica n
Ġbt us
flo ral
Ġchu ck
Ġmac rilan
Ġgri d
Ġting ida
amendo a
Ġcobal to
Ġgon dola
Ġmosa ico
5 45
c ml
o pete
Ġ3 46
20 80
Ġca ctus
10 29
Ġ5 28
Ġ7 11
Ġdi ario
Ġbo o
Ġpe ix
Ġped compra
ir inho
be iro
Ġch upeta
ss erra
mas co
tin tura
Ġja ragua
58 3
Ġara mado
Ġesto fa
Ġcer ca
Ġhi po
cafe teira
Ġlea ther
Ġ1022 37100
contro lador
6 75
g le
Ġc bc
Ġa parador
ro x
Ġe z
Ġde fu
Ġde walt
Ġ3 21
Ġro cadeira
Ġ8 30
gu idao
Ġmar ias
Ġw r
que dos
19 38
Ġtra mb
Ġle b
Ġti j
Ġex tre
Ġac ri
sor o
Ġbu que
57 1
Ġpres id
Ġind ica
Ġpct c
Ġcarro ceria
zol it
Ġresfr iado
cache po
caval ete
7 25
9 15
re m
Ġa pi
Ġa van
Ġf ranja
al fa
is se
ti gre
Ġn tn
il ina
Ġes s
Ġes ticador
10 33
Ġ5 35
ter mos
Ġr y
que ado
Ġ00 20
Ġso mb
Ġ40 8
ion s
0000 000
Ġtrans pa
101 1
59 1
cil ios
wa tch
sal ga
Ġwa tch
Ġlin en
Ġdesen hada
Ġfree dom
uri er
wo od
eva po
pren sa
Ġsco tch
6 17
9 30
a que
a cab
f ul
g ira
l h
p ico
v anel
w ar
y x
ra x
ra tina
ro g
Ġv ie
ma ta
em breagem
Ġx tra
Ġte m
Ġ30 3
Ġto pa
orta dela
Ġ13 13
Ġ05 3
Ġsk u
Ġquad r
Ġrec em
Ġtur mal
Ġven eziana
Ġhe inz
Ġfita s
Ġcola geno
Ġgaro to
aus tor
ppu ccino
Ġtrapezo idal
4 29
9 25
i er
p ts
la to
Ġf ortale
Ġe q
er t
Ġ4 65
Ġ4 47
it ta
Ġk r
Ġw g
Ġtra in
be a
Ġpo la
ad er
pi ranha
Ġnu d
Ġas p
Ġas sa
Ġpremi er
110 5
Ġrol ha
Ġwa ter
Ġmer cur
Ġvar ios
Ġson ic
Ġste p
Ġmara vilha
Ġvic hy
clor idrato
Ġestre ita
Ġare m
Ġcalo ta
Ġproced imento
Ġacomp anha
Ġtpl ink
9 40
9 70
h um
v v
la ta
Ġ2 89
Ġl us
ti k
el li
ho mem
ma tic
Ġma y
22 01
tra c
cal do
Ġmas k
Ġso mmer
Ġpol pa
Ġpla tina
gan y
Ġfer tilizante
Ġsan remo
Ġtex as
Ġextra to
Ġbal let
Ġcen trifuga
tur bo
plu gue
Ġital y
pad rao
Ġstr ing
furo s
Ġnature za
Ġpeta la
Ġdegra us
j m
m idia
s cha
u gue
Ġp Ã§s
00 17
Ġs oleira
Ġb it
Ġde la
Ġde pi
Ġ0 96
Ġ5 75
tam an
se da
Ġse de
Ġcar r
Ġrosa do
Ġcomp ar
Ġfor mas
pol im
pel ucia
Ġon cinha
bri mento
Ġcr m
Ġsapa tinho
ph i
guar y
fre sa
Ġki ko
Ġrend imento
Ġkel ly
Ġscar let
Ġjol ie
mbur guer
Ġegip cio
6 55
b it
c w
d ron
i bu
j d
p alha
s queeze
t f
Ġa rea
Ġe ve
da ine
Ġv ole
Ġg iz
Ġn sk
Ġpa rana
po re
po mada
se c
Ġmar lan
Ġsa te
Ġar cor
Ġped reiro
Ġtri pe
Ġpo uch
Ġ35 7
lus tre
sor io
Ġva queta
87 1
dis penser
Ġbro c
Ġuni forme
Ġmis ura
Ġcorsa ir
Ġeletro duto
temp ra
Ġia gro
rend ha
blus inha
Ġconser vacao
mante iga
pirul ito
801534801 74
apon tador
4 21
7 22
k em
Ġb ole
co zinha
Ġ3 37
es quer
qu ia
Ġca ke
Ġpa pr
12 15
Ġj s
11 30
13 50
con s
Ġpo der
Ġen em
pro m
Ġele vacao
Ġmotor ista
Ġcris tais
Ġmarca dor
Ġpad re
Ġpel os
Ġben ef
Ġ199 4
Ġvul ca
Ġita uba
sub conjunto
Ġsul f
Ġliber te
Ġbur n
Ġadap tavel
Ġaqu ario
Ġbrand ili
Ġsav ana
Ġinsta lacao
Ġgam ing
nume ro
Ġmaho gany
6 18
k d
m ico
Ġp iv
an ca
ti jao
as onic
Ġpa ula
Ġ6 12
Ġx x
Ġun ic
13 70
que tel
Ġdes idra
car vao
ita da
Ġcas u
Ġcro p
Ġjo v
Ġmetal ic
Ġho ok
gas olina
Ġpd fo
Ġsi de
Ġcobre leito
Ġcompa ct
Ġlava gem
Ġrena vam
Ġci ano
Ġguar nicao
Ġenfeite s
Ġsach et
Ġgarra s
Ġnar uto
Ġfati ado
zizien sis
b oleira
f orte
q a
Ġm ir
Ġ3 78
01 50
le g
Ġun itario
11 70
Ġi on
Ġar my
Ġpe rol
um i
Ġra ttan
mel ia
mp os
Ġu au
Ġ35 6
Ġ13 50
500 1
400 2
Ġ26 2100
Ġva ral
gen e
Ġ46 1
ulos e
Ġcb t
Ġpen d
vd c
Ġrus tic
pd m
Ġcolo re
Ġsha ke
Ġilum inador
zan i
Ġdiver tida
Ġequ ili
Ġjas mim
d ivers
j h
s intetico
t ha
v ic
Ġc ura
00 25
00 24
Ġe ar
Ġde p
Ġl ha
is sao
Ġg gg
Ġ4 23
ri der
Ġ6 15
Ġla s
Ġcor p
que al
Ġcon torno
Ġte ca
Ġpe ra
Ġcar pete
Ġ40 4
Ġfa ke
Ġno gal
Ġch l
Ġbr ush
Ġen s
Ġu ti
Ġ11 30
Ġ80 5
Ġvi i
ona dor
Ġ789 56
Ġas ti
Ġsal sa
Ġbu cal
Ġcris to
Ġinter cooler
ag p
len s
Ġunis ex
Ġfruta p
sten cil
acessor ios
Ġsagra da
6 13
8 14
9 22
f ran
m ina
p ip
Ġp gg
ca ibro
al m
Ġ10 30
Ġmas h
Ġpol trona
Ġan thracite
tura do
Ġam b
Ġbr c
br um
mb ar
31 01
101 7
Ġho use
Ġ000 8
th inner
Ġph s
Ġka ki
Ġtec fil
Ġsis al
sil encioso
Ġada pt
met ista
Ġuniv er
esp iral
Ġout door
lapis eira
Ġaven tura
Ġvento sa
Ġversa til
liqu idificador
Ġevangel ica
Ġite mov
faro fa
6 24
p inha
Ġl h
Ġl enovo
Ġg in
as so
lu bri
lu brax
ina mento
Ġ9 90
ch icle
Ġ100 5
Ġtri bu
ral d
Ġch al
Ġ36 8
bu que
Ġlu is
pol y
Ġ220 2
Ġpar r
300 5
Ġsola pa
ph il
Ġprof es
Ġlum inos
Ġfolhe ada
Ġtres se
ffe e
Ġmarin h
xica ra
Ġteci dos
Ġhosp ita
itri z
Ġhun ter
Ġfluores cente
3 89
7 60
b ule
c inho
q d
t nt
Ġs ma
Ġb ele
Ġ3 42
Ġv x
el ba
on der
Ġ4 24
Ġin stru
Ġk l
Ġk itano
Ġh ip
Ġla cos
Ġla ctose
Ġ9 20
las si
Ġma guary
Ġpara r
ch up
Ġmo b
pe res
gu inho
Ġ100 6
Ġra ca
Ġpol icarbonato
Ġan da
Ġpo int
Ġch ess
ante paro
Ġex positor
Ġ45 7
mar im
Ġres ta
05 1
bri dor
cos ul
Ġsen sa
Ġus e
Ġsur presa
apl icador
Ġbarbe ar
Ġbee ight
Ġbei ja
vibra dor
0 98
m ss
ca tal
ta mm
Ġf inas
Ġg ps
es i
es ti
Ġpara dis
ten sil
Ġte ens
Ġra iz
orte x
lan der
Ġ789 127
Ġva g
ka ta
Ġanti bac
si fao
par do
tim chip
Ġav iamento
Ġsch utz
Ã³ leo
bom bom
Ġessential s
Ġfura cao
Ġdro p
Ġdivis orias
Ġwhe els
Ġalp ha
desem pen
0 63
7 18
k inho
o ds
s ig
v ilho
re ador
Ġa guia
Ġs queeze
ar ias
Ġ4 95
Ġre ne
lo ok
Ġem ba
Ġem bre
Ġal uno
Ġdi va
Ġw p
Ġcon icos
Ġba buche
Ġse car
Ġlis os
38 00
Ġfa m
vel udo
Ġ24 9
Ġga u
Ġ38 2
des a
Ġ05 7
Ġmen inas
don to
Ġat f
Ġtor cido
ko mbi
Ġpl issa
Ġfolha gens
Ġ1200 000
mati zado
colo rante
Ġhigien ica
Ġglo bal
Ġyo ur
blus h
Ġexclus iva
8 25
a ren
s now
en der
Ġca derno
Ġ5 13
bo wl
12 000
Ġk t
Ġh z
Ġal vo
Ġbo tone
Ġ16 3
21 20
Ġcx rolo
man ia
Ġ17 50
gre en
fica da
Ġdescar pack
Ġespa cador
Ġgeome trica
pio ca
Ġfive blu
Ġsuperfic ie
0 88
9 24
e v
e cos
h is
o z
v inagre
te en
Ġa y
Ġb cret
Ġ2 99
Ġco nex
Ġre ci
Ġ0 76
Ġ0 68
io do
Ġh an
Ġ10 60
Ġcon ne
Ġso ber
Ġpro ducao
Ġan si
Ġ01 20
Ġdes erto
Ġplas tic
Ġbe ar
Ġac c
cu t
lon gador
Ġfo il
Ġ46 00
ban heira
Ġbra chiaria
Ġcamiseta s
Ġig n
Ġhor ti
Ġlin ce
Ġvr d
Ġrg d
Ġbam boo
Ġtranspas sada
Ġcarb urador
Ġanatom ica
Ġxica ra
Ġesfer ica
Ġinfan to
inser to
0 300
a par
o ra
v b
w all
Ġp ir
ra lo
or na
Ġs ole
Ġ3 32
el ly
Ġ6 45
ga mento
Ġ7 12
ve j
Ġna dir
Ġcar to
Ġlis tr
Ġinf or
Ġtri angular
lan da
jo y
jo elheira
Ġu f
Ġje tta
Ġtrans m
31 10
Ġcre a
su vinil
05 8
Ġnatura le
Ġbra col
Ġmax ion
Ġus ed
pon to
Ġtan g
Ġbal e
Ġmal va
Ġfru t
Ġau ri
Ġcara col
Ġcarre tel
Ġstan d
ima gem
Ġbone co
Ġtran c
roda pe
Ġangel im
Ġwal l
Ġsincron izador
promo cao
Ġpequen as
Ġexecu tiva
carim bo
d res
s Ã£o
w al
or ig
Ġs yl
Ġs onata
Ġ3 0000
01 800
ma ionese
Ġ9 003
Ġma to
ica go
cal cao
Ġ100 0000
Ġsa int
19 01
Ġte soura
ita rios
Ġu g
Ġsem ia
Ġli rio
Ġcan vas
Ġele v
Ġporta o
Ġtrans ferencia
Ġri viera
Ġ000 9
Ġdu zani
Ġlan der
bas te
pan tufa
Ġmal te
lin k
Ġcama das
Ġum ed
cur so
ick mann
Ġmus sarela
Ġale gria
colo racao
Ġdiver tido
Ġabo bora
Ġsobrancel has
Ġesfol iante
0 95
f iorino
m ent
o h
s li
v h
w r
in go
Ġs mall
Ġf do
qu ivo
Ġ6 22
Ġal m
Ġoc cb
Ġar mor
Ġto k
jun cao
Ġne ck
85 35
cor branco
Ġ35 8
lex o
pre mio
Ġpra tic
Ġanti ga
Ġfi bras
est yle
Ġbl s
vi tal
Ġfron t
Ġru ziziensis
Ġrp m
Ġdan one
Ġgan chos
Ġplaneta ria
Ġ895 50
Ġprecis ao
reco brimento
Ġmetalo plastica
chal eira
7 80
c um
h inha
i ke
l iso
m inha
s ti
s oleira
v os
x m
y p
Ġe ix
is tica
Ġco tovelo
Ġ3 41
Ġn ip
Ġt to
em me
Ġpa ci
Ġpa ixao
Ġ6 400
Ġi tam
Ġdi et
pe gador
Ġso q
Ġcar na
34 00
Ġbe ef
can ivete
Ġpla ya
Ġmic ras
pas t
Ġgu idao
Ġgu itarra
cin pa
Ġpi tanga
Ġfran zida
comp on
Ġmer cosul
Ġnas al
trico t
Ġcit rico
Ġ008 60
sub li
Ġestr ia
cora zul
Ġwil d
Ġprati ka
Ġath le
Ġavelu dado
Ġeff ic
scha d
Ġhospita lar
0 78
3 100
7 70
8 40
e do
h ip
w k
z ar
Ġp ana
Ġm Ã³
Ġd imen
Ġa gata
la cre
co t
es is
Ġo mo
ran ger
10 23
Ġ8 0005
Ġ12 20
Ġcor cinza
tor y
15 10
me u
Ġw ill
Ġte uto
Ġ50 3
Ġ18 000
Ġsp ark
05 7
Ġ26 4
Ġgu il
59 2
Ġfla nela
Ġven us
Ġdel ivery
med or
Ġ115 1
cur ta
Ġnas cido
Ġital iano
titu cional
Ġhib isco
Ġpalmeira s
Ġaspira cao
Ġtabu as
espi gao
Ġfum Ãª
Ġpince is
Ġturmal ina
6 90
6 44
8 30
j er
n ha
o o
o dor
s na
00 29
te rapia
Ġa metista
Ġco ver
Ġ3 300
Ġv ans
01 11
Ġre ino
Ġo bs
ic ha
Ġdo ct
22 10
Ġmo ido
ur so
me ro
Ġsa bao
Ġad ubo
be to
Ġpo co
ita s
ad y
Ġen t
Ġu i
Ġcomp utador
32 01
pol pa
Ġ26 2
ban deira
Ġpres unto
86 2
Ġpan asonic
Ġmag nesio
dis j
Ġlubri f
ome ga
Ġbon i
Ġeuro pa
Ġleito so
Ġdef letor
Ġresp itec
Ġexclus ivo
Ġcher ry
Ġmanda la
Ġlembran cinha
termos tato
Ġsate lite
b ros
d ante
g oria
k on
m ortadela
v k
Ġb its
Ġ3 97
Ġg us
ar g
Ġ4 17
Ġ5 84
Ġ6 11
Ġ6 95
Ġ6 67
tra v
13 18
Ġbo u
Ġte am
so ja
Ġcar ibe
Ġ40 7
Ġval en
Ġdes k
Ġga ze
Ġcal da
Ġ90 7
Ġser ig
by te
Ġsil ico
140 4
her me
Ġ101 1
Ġko dak
Ġuni que
Ġamendo as
Ġfis ica
Ġtru e
Ġton al
Ġirriga cao
Ġbele za
8 60
w f
Ġc fe
ra gon
te ctor
Ġco p
ar gamassa
es pre
es guicho
Ġca ibro
os ul
Ġ7 13
Ġ10 25
Ġcor tado
me la
16 50
se a
ja x
Ġtra ck
Ġtra vante
Ġpe bd
Ġpe pper
Ġan tar
lan cheira
Ġga tinha
Ġpla fon
pos ito
Ġsil verado
vol vo
ada p
Ġcu te
Ġbel ga
Ġcabe ceira
Ġmoto res
Ġsi emens
Ġcarne iro
Ġneu tra
Ġporcelana to
Ġcaval ete
flor i
Ġprog resso
Ġresp iro
dri ve
carta go
Ġinvic tus
Ġsobrancel ha
Ġgiga byte
enx ada
Ġoce ano
Ġreves tida
9 26
n br
n ut
s lip
v ig
ro ne
Ġe bano
Ġ3 49
el le
Ġre lacao
20 210
Ġro x
Ġma madeira
22 20
Ġlo ten
Ġ15 50
Ġpro cessador
Ġda c
li mao
Ġman gote
ber loque
ing s
Ġti g
pla to
Ġcomb ina
bor d
ex p
ex trator
Ġrec orta
vis eira
Ġbico s
Ġtan k
Ġab do
Ġlava dor
Ġexp ans
tema tica
Ġdan i
Ġcrian cas
ican ga
Ġther mo
Ġparadis e
6 23
6 26
j t
Ġp onte
00 19
ta pe
Ġb eta
Ġf v
Ġco o
Ġ3 43
da vel
Ġv illa
Ġn ico
01 24
Ġre gua
il us
Ġo ur
Ġpre ns
ga briela
Ġ10 40
11 11
Ġbo ra
Ġpe gada
Ġpro m
Ġra fia
Ġch t
he to
muda s
Ġ80 7
Ġser ial
010 9
05 6
vas ta
mon tana
Ġgl ico
ada pt
110 2
Ġtor rado
Ġfun cional
Ġpon tos
Ġgen gibre
Ġbrasil eira
Ġwe ar
Ġeva p
Ġfix as
Ġcamp ing
Ġki bon
Ġ266 100
imen tao
ata dura
cca u
Ġeconom ico
Ġamorte ce
Ġembala gens
Ġenvelhe cido
Ġ789989 23
Ġthomp son
Ġrene gade
4 33
5 13
8 35
e ve
n ol
Ġp ne
Ġp ip
Ġp Ã©
Ġm ignon
Ġb elo
Ġf ed
Ġe pdm
ha ir
50 50
ran to
ran ga
Ġca bra
10 34
Ġh ik
11 14
ba bador
Ġmo relli
Ġmo cassim
res siva
ge tico
Ġen sa
Ġen gre
Ġfor oni
Ġon das
Ġim o
Ġsm ile
graf o
cad illy
Ġtub inho
Ġretro v
Ġfar do
Ġmassa geador
Ġbata vo
Ġtar taruga
ata cador
Ġarran que
0 89
0 67
6 21
6 46
Ġc lu
in cho
Ġf q
Ġ4 37
01 21
ri er
Ġin timus
Ġ100 240
Ġmar ina
14 18
ja da
24 01
Ġra mada
Ġ35 9
mb ps
Ġsp l
Ġser vo
Ġri co
400 5
58 1
Ġadul ta
Ġfi lamento
Ġborda r
Ġge force
Ġcap itao
Ġbrin quedos
Ġpel ica
Ġfis io
Ġquart zolit
Ġgla ce
Ġamar go
asa ki
Ġsinal izacao
ave ia
hidra tante
aman co
Ġcaminha da
0 99
a bas
n x
p ura
s lo
al im
Ġco at
Ġv f
on g
Ġ5 65
ic um
Ġla ka
16 12
Ġmar telo
Ġw indo
17 10
Ġazul e
kit s
li z
Ġdes one
Ġle z
Ġen capa
Ġac d
Ġmed alha
Ġmod el
Ġfre quencia
Ġcolor ir
Ġsh er
Ġmon tar
Ġ06 00
fi re
Ġbu ba
gar gantilha
Ġblo gueira
Ġben gala
Ġorgan za
Ġcer v
Ġfree zer
Ġnume ros
Ãª n
Ġbip ar
thi ans
Ġsno op
Ġdesone rado
0 85
4 27
a bridor
b ru
t ine
u rance
x d
ca la
ca mel
te ra
Ġs now
do wn
01 25
Ġt si
Ġcom fy
Ġpre p
Ġma trix
pe a
Ġcon tras
Ġ00 14
Ġme lange
pla c
Ġpin go
Ġ05 6
Ġcre mosa
Ġjo gos
Ġas me
Ġdis t
59 3
Ġpi res
Ġpan elas
ph y
Ġven c
Ġsar rafo
vin os
Ġrs f
Ġcolo racao
fru teira
nos erie
Ġpica dor
Ġgro w
Ġendu re
Ġhus q
Ġcate goria
Ġcorin thians
0 74
8 19
d un
f rango
g ir
i ble
r or
r ho
s po
t ts
t ule
Ġ ica
te to
ta in
Ġa tom
la ia
Ġ3 89
en ic
Ġ4 98
sa zul
Ġre co
ma de
qu ito
Ġ5 26
Ġ5 36
Ġ7 200
ci d
Ġ00 25
no vilha
Ġba terias
Ġtri cae
ver y
Ġu z
Ġu tensil
Ġlu vas
Ġcal ibra
Ġjo ias
Ġdiante ir
Ġho tel
Ġ789 25
Ġ000 3
est re
110 4
Ġdel lo
Ġpd v
Ġbic ro
Ġmor ce
Ġsub mer
Ġessen cia
Ġpassa ros
gran de
Ġcere al
Ġrece ptor
Ġover s
Ġnes k
Ġargo las
desempen adeira
3 200
5 14
a bra
b ia
Ġa pc
Ġa pr
Ġf ral
ri as
Ġ0 67
Ġro th
va ta
Ġem blema
ico la
mo da
ino a
Ġpe arl
um idificador
Ġan terior
21 10
Ġcas eira
Ġ11 70
Ġden so
pr t
400 4
van na
fi lamento
ili ano
pra dor
Ġtor no
Ġves te
Ġmono f
Ġhor se
Ġsho t
Ġorgan ica
Ġrs v
Ġcra veja
Ġcra vinho
Ġpassa ro
Ġlum ina
Ġagri cultura
menta do
Ġsof ia
sul fato
sw itch
Ġespel hada
Ġconden sador
Ġmano pla
Ġjor ge
Ġema il
ame ixa
Ġcompar timento
Ġdoct hos
5 68
6 300
9 11
a qua
e lar
i que
i pro
n ivel
w x
ca ccau
re mov
Ġs creen
Ġe te
Ġde brum
er ta
do bf
Ġg x
es cap
Ġ4 42
Ġ0 73
tam g
Ġro bo
Ġ7 35
12 30
000 99
lo reto
go iaba
iv as
Ġ00 40
Ġte cla
ja c
Ġna uti
Ġba cia
Ġra cing
Ġ25 40
ula rio
Ġle gen
Ġti xan
Ġaco ugue
pro flex
ras pador
gg g
Ġpra tico
mi jao
Ġ05 4
bi um
irt y
Ġbi blia
64 50
Ġanti cha
Ġrec up
Ġborda dos
ze iro
Ġred ragon
Ġmil on
130 8
Ġmer iva
Ġsho p
ben s
Ġbis cuit
sol da
Ġindustrial izacao
Ġcarter s
Ġband ana
Ġstri ke
Ġlil ica
Ġtermos tato
resis tor
kid y
Ġperfu rante
Ġavelu dada
Ġpow der
Ġ978 85
Ġrub ber
Ġquei mado
6 48
e geo
f edr
l go
s tan
v ult
in ario
ca ixas
re don
re boque
Ġa cm
Ġs til
Ġs ms
Ġs ingle
ro be
co stela
Ġt ort
qu imetro
10 70
Ġin co
Ġin ser
Ġk c
Ġh ial
Ġla pela
Ġma p
Ġ12 40
Ġcor fio
Ġem p
80 80
no v
Ġra posa
Ġman timento
Ġman icure
raf ia
Ġ60 63
Ġporta ria
pi rante
Ġ22 607
Ġtu cson
et q
Ġbra zil
fer ra
Ġper nas
Ġeletri c
Ġmin ions
Ġfru it
Ġpen elope
Ġni ely
pres so
Ġblo cos
bel l
Ġpul s
pf dobf
Ġth irty
Ġrus t
Ġever last
torno zeleira
Ġdestro yer
Ġportugu esa
Ġ78960 33
Ġnau tico
Ġmanha ttan
chum bador
Ġsauv ignon
cona zol
Ġguil herme
0 68
6 16
f ino
g k
r h
Ġc br
Ġc tr
Ġp po
in st
in duzido
to yota
Ġv ola
Ġ4 19
ran io
10 46
Ġpa do
us tivel
Ġ8 99
Ġ8 77
40 42
Ġ12 15
22 13
se lante
se parador
Ġsa cos
Ġcon haque
17 50
Ġcar v
Ġbas quete
21 60
Ġfa ixas
Ġme lamina
Ġbr ux
44 00
min istra
Ġli gado
pp es
Ġsol id
Ġpar c
bi q
Ġja zz
Ġtr w
Ġsal va
mal low
fica r
fo to
tion s
Ġfran cis
Ġdos es
mic ina
Ġiso lada
Ġche vette
Ġesto fado
Ġaber t
Ġlav ander
vit ro
Ġnap pa
Ġutil izados
Ġsupre mo
Ġsecre taria
Ġconden sado
Ġtrape zio
Ġsusten tacao
Ġcosme ticos
ĠplÃ¡s tico
Ġvare tas
Ġergon om
salga dinho
Ġvole i
Ġplissa da
Ġeffic ient
p onte
Ġp ull
Ġd rea
Ġa fo
Ġs ke
Ġ2 31
er ia
Ġ3 76
Ġg iv
Ġ4 0000
Ġ0 89
Ġca dence
Ġj ump
Ġma i
Ġmo j
za cao
13 15
Ġ100 3
Ġna ti
Ġna il
Ġna tacao
Ġra ma
23 01
Ġinf ant
ren t
Ġ24 2
ff el
Ġele va
mar garina
Ġsil encioso
Ġban queta
si de
Ġos mo
Ġcristal ia
Ġcam ur
Ġbal oes
Ġau d
Ġox idado
Ġrefe rencia
sus p
fel tro
Ġabri r
Ġtour ing
Ġjohns on
Ġgarraf as
Ġsulf ite
vasta tina
b iz
h x
00 26
ca f
Ġa toalha
Ġa parel
Ġa wg
ti mate
Ġ0 69
ran tes
Ġca tar
Ġin du
bo sa
ga iola
os ter
Ġk ds
Ġma go
Ġcor tar
na ture
14 20
Ġpe c
Ġpe tra
Ġref res
um os
Ġ18 2
lan tes
ss el
Ġta i
Ġelas tic
Ġpas sos
Ġpis os
Ġper i
vis c
tre iro
pes tana
Ġmag num
Ġ101 5
bil izador
Ġbrasil ia
Ġmaca co
Ġass urance
moto bomba
Ġregu ladora
ens is
Ġflat form
aba jur
Ġsy n
Ġacopla da
Ġhero is
Ġindi ana
Ġbroch ura
umar u
Ġcompon entes
Ġhibri do
pfdobf rio
6 14
8 13
8 36
9 19
a mar
b ica
o to
o fw
Ġc digo
la zz
Ġl olla
al ia
Ġt ron
ia to
de irinha
Ġ0 77
Ġ0 72
Ġes fre
Ġpa daria
Ġ6 18
Ġin tro
it t
Ġ7 14
Ġma mae
Ġ12 01
11 17
gu inha
Ġna mora
tal co
ce real
Ġra ce
Ġman ip
Ġtri c
Ġpo ol
tu b
Ġtrib fedr
cu e
Ġ05 1
Ġwh i
tom ia
et to
05 9
Ġmulti midia
06 2
placa mae
Ġcl ose
Ġlan che
Ġtex ana
sp ort
Ġbio gas
Ġsmart phone
Ġste ck
Ġsim ilar
Ġesco vas
Ġico n
Ġjapon es
Ġgoo dy
6 47
k al
s lim
Ġ Ã¡
ra c
co f
Ġv ortex
Ġ4 27
Ġn d
ho que
em bu
Ġ5 29
Ġ5 55
Ġ5 44
Ġ5 46
Ġ8 16
Ġun na
Ġ9 15
Ġma h
Ġcor do
Ġi tens
Ġ15 10
Ġpe ach
ce re
Ġ19 50
Ġtrib estr
Ġ28 7
Ġsk ala
Ġ000 4
Ġas pirador
Ġpu c
enta do
Ġinter m
Ġveda dor
blo ck
fol has
ben e
Ġgira fa
hl er
Ġtre k
Ġfra se
Ġprinci pe
Ġjus t
Ġpeito ral
Ġcres cimento
Ġarre donda
Ġstu dio
Ġnav alha
Ġassime trica
Ġativ idades
8 90
b j
k ol
s ys
in v
Ġa con
an os
Ġco el
Ġg te
Ġg iii
ri or
Ġ5 85
Ġ5 33
Ġ6 200
Ġ7 15
Ġj m
me to
13 10
18 80
Ġ00 35
ce ram
Ġcar imbo
89 00
Ġ40 6
Ġan ual
mar mita
Ġmon ange
cla ro
Ġ400 000
Ġ39 1
su cata
Ġfo ra
queta o
ser um
Ġfer n
chi bra
Ġfron ha
Ġhe art
rea tor
fls rm
Ġvaria do
Ġvento inha
4040 68
cup ira
vira brequim
Ġexpand ido
incen so
pip eta
Ġsnoop y
a wg
e go
g ios
r n
Ġd j
ca ina
Ġa jax
da u
sa quinho
20 34
Ġla g
Ġ9 70
pe ixe
na c
18 50
Ġsa c
Ġda masco
Ġse para
Ġlis boa
Ġcal cas
Ġcan ivete
Ġmed i
can ula
Ġmic elar
150 3
der m
Ġas f
Ġsal do
Ġrec lina
Ġ29 1
Ġgl p
Ġgl icer
dia fragma
Ġque ratina
cr us
Ġsuspen sa
Ġbel l
micro fibra
Ġtemp ra
fon ado
Ġvira da
Ġleito sa
Ġpica nte
Ġdef ini
Ġbul let
Ġdispon ivel
Ġprog ressiva
Ġcy ber
Ġea ton
ades ivos
Ġglam box
Ġcaix inha
Ġkaw asaki
Ġsne aker
8 22
b its
e qui
k n
n il
t up
ta k
co st
ti ras
Ġv mp
Ġg eno
en erg
on iere
Ġ4 18
Ġ4 26
10 49
Ġ5 48
11 40
11 19
ur th
tra ta
Ġ100 2
Ġ15 000
Ġex tr
man i
Ġsup ra
gg y
Ġmed ium
49 00
cabo s
Ġ28 3
101 3
pr in
400 3
cos ta
vi ol
Ġtin tura
gl oss
bb ia
Ġara mada
Ġprime ira
Ġchar m
Ġspr int
Ġmode lador
Ġfort lev
Ġris ca
cata logo
supl emento
Ġgab inete
Ġgara peira
Ġmaran du
Ġtelescop ica
cbe proflex
Ġtramb ulador
Ġathle tic
5 16
b h
d j
n icho
q c
x c
Ġc nt
te ada
or to
Ġg ii
ma mba
Ġo vel
Ġes tan
Ġes tudo
10 26
mo rango
Ġw ran
Ġ00 010
Ġfemin inas
ru b
43 01
Ġmic ra
Ġ37 2
150 5
Ġel ma
Ġel ba
Ġfer gus
pin tura
Ġwa p
Ġmi dea
Ġpul verizador
Ġpamp ers
Ġnatal ino
Ġtw o
wh isk
Ġpoly ester
Ġchar me
Ġvit rine
Ġlil y
Ġyo ga
Ġare zzo
Ġfura deira
Ġprateleira s
Ġventi lacao
Ġtod dy
Ġsic iliano
Ġpersona gens
Ġrecon stru
Ġpista che
Ġdela ve
5 35
m ult
n l
n m
r inha
Ġc um
Ġp up
Ġp Ã³
Ġd uto
re za
Ġ3 31
el t
Ġo z
em ba
os tato
30 30
Ġr sa
Ġmo bil
gu al
Ġw c
Ġcon gela
Ġna kata
Ġref letor
um ante
Ġpo mada
Ġex tern
Ġcin z
imp ulsor
pro jetor
97 00
Ġcre ma
Ġimp ulsor
Ġquad ros
ex tensor
Ġdis juntor
Ġ101 2
Ġ800 000
gl er
404 158
lim itador
Ġfel ic
fun il
rs f
Ġfar max
men tal
Ġtoy ama
Ġtek bond
Ġrepa ir
Ġdens idade
Ġnique lado
Ġcacha rel
Ġsubmer sa
Ġreclina vel
4 65
7 17
a y
r ing
v il
v ida
z ia
ca ch
or y
Ġa tual
Ġs andal
an as
Ġ4 38
il is
ma to
10 38
Ġ5 27
Ġj arra
lo ween
Ġ9 10
ix on
ba lan
60 60
ci ta
tra montina
cal que
Ġdi p
Ġmar ie
Ġmar gem
Ġpe ga
ce iro
Ġz al
Ġ36 3
Ġ24 000
tu be
Ġcas inha
cas tical
pp ort
Ġsol vente
41 50
Ġ28 2
Ġvi dea
Ġas pen
Ġ46 2
Ġprote ico
Ġclass icos
tsh irts
tamanho unico
Ġstra ppy
tron ic
med ica
Ġair soft
Ġchu veiro
Ġdiferen ciada
Ġestr iada
Ġtech nos
Ġpira can
Ġfras cos
diante iro
Ġgene ral
0 96
8 17
9 38
y es
00 40
00 23
Ġb rea
Ġde mol
Ġ4 39
Ġre q
ma triz
qu ar
qu art
10 28
Ġ5 39
12 11
Ġ12 70
ch an
Ġbran cas
90 20
Ġmar k
Ġpe an
Ġpro c
Ġpro du
Ġba ha
Ġdes l
car ter
lan i
33 01
Ġac s
Ġ38 7
Ġcan cao
Ġsol itario
camisa o
Ġcol heitadeira
Ġdire ta
Ġri c
su mo
Ġ789 95
400 6
Ġ48 1
Ġfo co
ban cada
Ġat c
Ġsar uel
Ġmol inete
Ġdel phi
Ġbucha s
Ġfel pado
Ġcs l
fas ica
Ġeletro do
Ġutil izado
Ġutil itarios
sep tico
Ġpolic loreto
Ġoak ley
Ġluminos o
0 986
4 39
5 72
6 88
b em
f ico
n ar
Ġc w
Ġc Ã³
Ġs tamp
Ġb ios
Ġe k
Ġre pu
20 32
Ġ5 14
Ġ5 34
Ġpa z
Ġ6 24
Ġ6 28
le ve
Ġin metro
bo vinos
ga to
Ġ8 25
Ġ8 75
ch ina
Ġdo ts
Ġfem en
Ġ20 50
Ġ20 30
Ġmar uri
Ġar mour
Ġ16 18
bra chiaria
Ġtri pack
Ġam end
Ġli ps
mar reta
Ġgra vado
05 3
Ġ06 1
Ġfo fura
Ġbi bl
Ġfil ete
Ġfran z
Ġbri te
Ġdecora tivas
trans pirante
Ġqual ity
Ġaces so
Ġlux or
esc uro
Ġentre meio
Ġilum i
Ġroman a
tens ionador
Ġbande jas
Ġstor y
genero feminino
mah le
bov ino
Ġbich inhos
Ġume de
Ġefficient grip
5 36
c ity
o fer
da ia
en ix
Ġo donto
qu en
Ġca u
10 48
Ġpre f
Ġ6 99
Ġ8 35
Ġla ura
va rao
Ġ12 10
Ġ12 24
22 50
Ġver d
Ġbo tica
Ġmar luvas
Ġw m
til ico
Ġte tra
li zado
Ġcha ssis
Ġ11 20
05 4
Ġho m
Ġ789 18
je tos
Ġbl k
ag ente
Ġprof undo
Ġpos ticos
tron as
Ġmat t
Ġps l
Ġil us
Ġair bag
Ġmu eller
Ġinten s
zan lgo
Ġtim ken
carta z
Ġsubl ime
Ġkol osh
Ġcondic r
Ġinsp ira
conv ite
mecan ismo
Ġhugg ies
Ġlevan ta
Ġenem ig
remov edor
4 36
5 010
a cao
a ge
j v
l n
s int
v de
Ġf uso
al con
en er
01 22
sa ra
Ġes d
10 59
Ġ6 13
le itor
Ġ7 25
12 70
Ġh ickmann
Ġla bel
30 45
Ġma j
11 90
Ġpara mo
Ġpara iso
Ġlo real
mo ch
Ġw y
Ġbr inox
gr w
Ġlu iza
Ġga bri
Ġlon dres
Ġpin gu
st re
Ġcre malheira
67 00
Ġtr ia
Ġpor co
Ġouro lux
pis ta
Ġmin iatura
tur quesa
Ġ199 2
tt le
espa guete
ÃŃ vel
Ġxl r
Ġself ie
Ġurban o
amp li
Ġio d
Ġsec unda
Ġintermedi aria
Ġindi ano
chem ise
cura tivo
carb urador
Ġtransporta dora
5 85
7 16
c ba
l ol
Ġm pa
Ġm ento
Ġs nap
al tx
ti an
de d
Ġ6 58
Ġ6 62
Ġ8 103
Ġj ar
25 01
Ġoc est
Ġso ho
Ġar tis
Ġpro jeto
89 60
Ġ40 3
Ġam peres
Ġbr g
Ġz fm
mp pt
Ġ24 36
Ġele g
Ġpla to
Ġy a
Ġres erv
Ġsil o
Ġva i
Ġel lus
Ġbi q
Ġpi lar
Ġdel icate
Ġ790 801
Ġano di
Ġmat x
ks color
Ġche ck
Ġmus ica
Ġfra gran
Ġquim ico
Ġrun ning
auto matico
Ġabo to
Ġarre fe
Ġmasca vo
Ġsafe ty
Ġherme tico
Ġtas chibra
Ġitam be
Ġhial uro
zanlgo cx
6 36
6 34
m id
t g
v itex
w or
re pelente
ta ri
co ador
Ġe am
ti che
ol hal
Ġn icho
un fo
sa i
10 90
Ġ5 95
Ġ5 600
Ġpre ga
Ġro cam
ina to
40 50
30 22
Ġcor neta
tor re
Ġr q
tro cador
Ġal imen
po ol
cm t
Ġsa t
Ġw et
Ġ30 82
Ġra di
Ġped raria
tura l
Ġdes canso
Ġdes baste
Ġle que
Ġne xt
46 01
Ġama rel
300 01
pi poca
Ġfi ber
Ġpan tan
Ġlim itador
Ġmer lot
Ġfron tais
mor dedor
Ġgd dr
Ġsha pe
fla t
mouse pad
gor ro
Ġhal loween
Ġtq c
Ġencan to
Ġpersona gem
Ġhem mer
Ġinstantane o
Ġpesso as
Ġfranc isco
sig la
ecos port
Ġloten f
Ġgoody ear
Ġbaha mas
0 72
7 13
7 24
d dy
o te
s q
z d
Ġb le
Ġb ss
Ġ3 98
Ġ4 36
Ġ4 32
Ġ4 88
ri g
20 29
Ġin de
ga io
Ġ7 16
11 75
Ġal Ã§a
cha mp
14 17
Ġtra k
Ġto mmy
Ġcar ioca
fe ct
ck y
Ġfa kc
Ġad ri
Ġno ce
Ġno ped
Ġch anel
Ġch icago
br inha
Ġ19 20
Ġdire to
paraf usadeira
sup lex
Ġauto tra
Ġgr d
Ġ789 998
Ġsen ior
cli ente
Ġespe ciais
Ġfru ti
Ġcarro ca
Ġbic ho
trans mis
Ġfis her
Ġveg eta
Ġestam par
esfe ra
Ġrefe icao
Ġaque cedor
Ġmarmor izado
class ic
78967 279
Ġdrea ms
5 24
c tica
f resh
u k
Ġa polo
co bal
Ġ3 100
Ġ3 99
Ġ4 34
Ġcom bat
os co
Ġ9 24
Ġ9 44
11 15
Ġal pes
se de
cha do
13 54
19 10
Ġba bosa
Ġra cer
man gote
bu zina
95 00
Ġfor r
Ġcolor maq
ps l
Ġbu zios
Ġtampa o
Ġpl is
Ã¡ l
Ġpul ver
Ġfri boi
Ġamp lo
men tar
Ġvig as
Ġvig ia
ciona is
Ġhum id
Ġreten tores
Ġespiri to
Ġsolu vel
Ġpendura r
taman cos
Ġcerv ical
Ġovers ized
5 44
5 66
8 55
c raft
h ma
s j
v g
Ġc id
in set
Ġ1 125
re k
Ġde tergente
Ġl es
al on
do x
ti j
Ġ3 77
da m
Ġg ru
sa ara
il um
Ġ0 201
Ġ6 65
Ġin ca
Ġ8 90
15 13
Ġ20 60
16 16
mo de
13 60
Ġtra il
Ġtra vel
ce tim
Ġ50 9
Ġ14 16
Ġch antil
Ġen ce
Ġve t
kg s
Ġ19 39
he x
Ġta tto
Ġpar ker
41 01
Ġres iden
Ġjo g
Ġjo car
Ġtu rim
Ġho o
Ġdis tr
tubo s
Ġfun ny
Ġcen t
Ġmal ta
cam inho
Ġfoto grafico
Ġpassa geiro
mole kinha
Ġtermo colante
Ġaero ssol
son ic
Ġger dau
pri me
caps ula
Ġcard igan
4039 30
Ġeduca cao
Ġharmon ia
Ġvini la
Ġvola re
Ġosmo ze
Ġpiracan juba
0 79
5 26
5 21
5 28
8 70
f uso
Ġp ha
Ġm ss
in h
re ti
re bolo
Ġe vt
ti me
el lo
Ġ4 29
Ġt we
Ġre tifica
Ġo bra
em br
10 47
Ġpa te
tam e
Ġ8 12
Ġ10 34
Ġcor ino
Ġal is
22 23
Ġlo ca
Ġver galhao
Ġso dica
Ġ25 3
Ġan im
Ġ24 1
ie dade
Ġ45 12
101 2
05 2
Ġ08 6
bri r
Ġdis p
ban ner
04 10
Ġcu idado
110 6
Ġat l
Ġrol dana
az l
Ġsuspen so
Ġdel ineador
Ġbri ght
cs m
Ġfis cher
Ġsb p
Ġgor dura
Ġform ula
Ġanatom ico
ciona dor
Ġmaquineta do
pico le
ĠmÃ³ veis
Ġsecunda rio
0 64
5 46
8 66
j j
j on
j oso
co las
Ġf k
ar ran
Ġ4 100
Ġn orte
ia is
Ġre ba
20 36
Ġo ra
Ġo pa
Ġh it
40 20
Ġma tematica
Ġ12 16
ch ini
Ġmo ve
Ġmo eda
15 50
ten ol
Ġse vilha
Ġdes gas
sh i
iz ar
ox ford
0000 9
mar co
ele iro
Ġbu zina
mon ro
bas tao
Ġka dett
Ġfru fru
Ġni q
Ġstar s
ima dor
Ġ010 3900
Ġcorre i
Ġfar inha
Ġcilind rico
Ġnro fci
Ġadvan ce
umb inho
piro na
gli ter
Ġconstru cao
Ġgil lette
Ġpalav ras
esti lete
Ġauri cular
Ġvalen tina
Ġpne um
Ġgeno va
Ġhialuro nico
4 38
6 38
8 75
d ni
f rao
s pl
z to
Ġc es
in ar
al i
Ġco de
Ġv do
ar tana
ul ho
ma m
Ġo dor
Ġ0 74
Ġ0 71
Ġin dia
Ġ12 12
tor q
11 16
Ġpro grama
Ġ25 000
Ġpo e
Ġ19 1
sh ine
Ġga veteiro
Ġqu er
Ġpla net
Ġser inga
300 6
Ġ05 2
Ġ37 3
Ġy s
du o
ven c
Ġcho ker
xi ga
fi eld
bl er
Ġsc z
ys tation
301 5
sex t
Ġtal her
lixa deira
Ġras gos
Ġfen ix
Ġgrava taria
Ġecos ys
Ġhis torias
Ġfir me
Ġrefrige racao
Ġviole t
Ġalmofa das
Ġ78925 97
Ġmorce go
Ġgte prom
4 32
7 23
m it
z b
Ġc ba
Ġm ga
00 36
Ġd na
Ġf ior
do blo
Ġv lt
es capamento
Ġ4 43
Ġ4 64
01 17
ri cao
Ġpre mio
Ġ6 14
Ġ6 64
Ġh ul
Ġr da
Ġal ba
mis turador
mo is
mo veis
13 40
Ġsa k
Ġna pol
Ġpe p
Ġpro p
Ġpro bel
Ġcar te
Ġan ita
Ġbr u
Ġbr w
Ġti pos
Ġne ma
Ġli on
Ġli tio
Ġcas io
Ġmed icao
iza das
Ġama re
Ġmon daine
Ġjo vem
fi la
bl k
Ġprin c
cada r
Ġstar ter
fl v
Ġsobre posto
Ġher c
alo jamento
Ġcorre tivo
Ġlum ino
Ġstre ch
Ġvaria cao
Ġ7908 28
Ġcamel ia
aba ca
Ġchur rasqueira
Ã´ n
Ġmoder n
Ġinvis ible
Ġabsol ute
Ġbenefic iado
iri t
etas ona
Ġwindo ws
5 69
7 26
9 85
e y
Ġb bo
co fre
Ġl ino
is ch
Ġ4 71
Ġre tr
Ġre visao
il os
Ġx treme
12 19
30 50
Ġcor tes
ch et
id ina
Ġbo wl
Ġ00 0003
Ġar tico
Ġar ru
Ġ25 2
Ġad ministra
br g
Ġsl in
Ġres id
Ġvi bes
ven eziana
Ġpu ri
ador no
600 4
Ġfu tura
Ġvl ra
Ġesta cion
Ġpos terior
ara ra
Ġcer tificado
gal ho
Ġgua ran
Ġjus tica
dre no
Ġrecic lada
Ġfris os
Ġmaquineta da
Ġku ka
Ġdrape ado
Ġjapon esa
Ġamig os
cif ixo
Ġmff ss
Ġagu as
Ġetn ico
table t
Ġexer cic
Ġequili brio
compon ente
mamba ia
Ġcongela dos
8 24
8 45
b ole
y y
Ġp anel
Ġm im
ca mi
Ġs can
un has
ul u
ran do
Ġro und
Ġh lp
ica tri
ne re
Ġmar c
Ġw ol
Ġ00 16
Ġpol iv
ge ma
Ġex cen
man ete
Ġor o
Ġ36 4
Ġ24 3
Ġga ma
cho co
66 00
Ġtrans f
gra vata
Ġres ort
Ġja pi
Ġpu dim
Ġros que
Ġesp an
120 2
120 3
Ġge or
Ġbra cos
Ġat um
Ġao c
Ġbro cante
cur to
Ġcilind ros
Ġke ra
Ġarte b
Ġvita rella
Ġgela tina
Ġpic cadilly
Ġjas mine
prox trib
Ġsubs tancia
Ġng k
Ġnivela dora
Ġtranspa rencia
bea uty
Ġabdo minal
Ġplis sado
Ġvlra proxtrib
0 77
0 73
6 39
7 35
9 34
h ilux
Ġc unha
Ġd ilu
co ca
co mu
Ġl te
Ġv em
Ġ4 96
Ġn elo
un is
ul z
Ġca vado
10 75
Ġpa gue
Ġ6 16
ic ilina
tam in
tam gg
40 30
Ġ9 13
Ġ9 33
Ġr w
up er
ur s
15 18
za dora
gu ip
13 16
Ġbo ys
Ġsa quinho
Ġw urth
Ġna d
Ġna ta
um ulador
Ġfa tima
Ġne ga
Ġ45 11
Ġpra da
Ġ90 4
Ġmic hel
Ġ28 6
Ġvi gota
Ġfe el
ind icador
Ġ08 7
Ġ08 00
ex tra
Ġbra va
cel ula
rel ica
mol inete
ola b
cto res
Ġps ico
Ġsue ter
mf w
perf urador
Ġabaca te
Ġwar rior
13789 294
Ġclor idrato
genero masculino
//// ////
Ġpeta las
hip pe
Ġcontras tante
5 34
e to
e io
f lan
m h
u v
Ġp ita
co ffee
un der
le go
Ġ8 19
Ġ7 17
Ġk im
Ġh k
Ġma iz
Ġma cro
ba buche
22 22
Ġmo tos
pe ep
con fe
con dutor
25 40
Ġmar io
14 10
Ġw x
Ġ00 30
Ġso mos
Ġso quetes
Ġte lado
so res
Ġst s
Ġra bo
Ġra fa
Ġme to
di cao
Ġve gas
Ġac ess
sh mallow
Ġta co
mar te
Ġgra x
Ġ28 4
Ġfiltro s
Ġ06 4
Ġanti t
cre a
Ġsan gue
Ġrenda da
Ġpi la
Ġper feito
wa ys
Ġcru zado
Ġpos te
Ġstar fer
Ġmat tel
tinho s
Ġlin es
Ġbos s
Ġcra cker
Ġth ree
Ġmu dan
Ã³ rio
Ġsun ny
Ġcolo rama
vr m
Ġorto don
Ġfur y
Ġwil son
grafia to
Ġinfra vermelho
Ġbijou teria
Ġdur in
abo bora
colch onete
Ġprofes sor
Ġalvo rada
7 49
9 75
h an
i max
j p
v izzano
Ġ uro
Ġc ca
ra io
ca qui
re tt
la mas
Ġde cker
Ġg eleia
es tes
Ġn ice
il lo
Ġ0 97
Ġes cola
le to
ic io
12 16
30 77
ur na
25 10
14 50
Ġse lado
Ġman n
Ġme trico
Ġu c
Ġaco pl
Ġac tros
Ġcomp en
Ġmed ica
cu ica
mi udos
Ġter co
Ġy an
Ġha mburguer
Ġcre p
Ġtu cho
der ma
Ġsal mon
120 5
ref r
ped idos
Ġcel l
Ġmal ibu
Ġperf urada
Ġza xy
carre tilha
Ġ199 3
ju venil
Ġflores tal
trans p
Ġaci onador
Ġtira colo
Ġax ios
Ġcup ula
fla nela
Ġespon joso
cri mp
Ġholo grafico
Ġdomes tico
Ġchem ise
premi um
dron orth
Ġeve rest
esquer do
Ġmob ili
Ġlag una
Ġtrak inas
Ġautotra vante
5 27
7 85
f bd
n ivea
s ia
t q
x ia
ca mp
Ġe ur
Ġg dc
Ġn ick
pa rede
Ġre util
ma las
ran eo
it z
12 24
Ġk ilo
Ġj c
Ġpara br
up i
Ġmo p
Ġbo uti
Ġcon du
Ġte ma
Ġ18 1
fa cao
21 40
21 80
be ra
Ġdes ta
Ġbr ut
Ġen xo
Ġpla ystation
Ġ80 3
Ġha s
Ġnu cleo
Ġja e
Ġsk ol
ka ra
Ġap li
120 8
Ġbebe douro
Ġprote Ã§Ã£o
600 5
Ġtor cida
Ġprof unda
700 6
dar k
ac d
Ġpad r
Ġav iao
Ġedi tora
ben z
Ġdn i
Ġfres ca
Ġaplica dor
son s
multi uso
lava torio
Ġpica sso
Ġresfr iador
Ġkar ina
refri gerador
Ġpil sen
Ġpapa ya
iden ce
Ġbarro co
Ġsig ma
Ġquadri c
Ġtube te
chlo a
Ġtopa zio
Ġsober ba
Ġwran gler
Ġestampar ia
Ġhumid icola
4 99
6 37
c un
g iz
h ig
t Ã£o
Ġc ip
ta b
ro tula
Ġco ala
01 19
Ġo cm
Ġca ch
Ġca ppuccino
Ġ5 47
Ġ7 85
Ġh ell
Ġla min
go ma
11 82
Ġem bal
Ġmo ida
15 20
za das
Ġbo w
Ġbo tinha
Ġmar y
and u
Ġne ctar
Ġsp en
eira s
Ġpar tir
ke e
Ġel las
Ġanti r
Ġap ren
06 1
110 9
Ġber ry
Ġtor ne
Ġcam pe
Ġextra tus
Ġou ts
Ġlight ning
Ġwa tts
pres erva
pul so
Ġvin gadores
Ġmr f
tis ol
Ġpun hos
Ġof w
Ġwor ks
Ġplan ta
cula cao
hado w
Ġdor mir
Ġquart zanlgocx
Ġgla de
sel im
corre dica
Ġrefri g
Ġcoru jas
bate dor
Ġrod inhas
Ġcoa xial
Ġorbi tal
Ġfloren ca
Ġexper t
Ġortoped ico
Ġlavander ia
Ġnelo re
8 23
8 85
j w
m ur
ca mpo
Ġf w
Ġf ilhos
Ġ2 150
Ġre tas
de c
de coracao
ri te
Ġo i
Ġo as
Ġo paco
Ġes tu
10 36
Ġ6 32
ga tas
Ġ8 18
12 90
Ġk am
Ġj b
Ġ9 45
go ra
Ġr ural
11 80
ch es
60 40
Ġmo ul
ico l
res ist
Ġse rena
Ġpol itriz
fa queiro
vel y
tu ba
lar g
Ġ13 18
Ġest rel
300 8
Ġpt b
Ġ06 2
Ġ000 7
Ġfo finho
Ġsan fonado
cj to
Ġbar co
quete leira
Ġespe c
Ġves tuario
cam urca
Ġbic hos
Ġvis ual
Ġesca la
Ġdiferen ciado
esc ri
plu m
Ġarco iris
Ġambi entes
Ġsle ek
Ġpeda cos
Ġevapo rador
Ġaves so
Ġdyna mic
acril ico
Ġsubstitu iÃ§Ã£o
Ġpresen ca
Ġburn ish
Ġcraveja da
Ġlegen d
Ġresiden cial
Ġtwe ed
5 95
5 32
6 96
7 100
a ut
Ġm hz
al par
ti cia
ar is
Ġ4 49
Ġn z
em s
Ġ5 37
Ġx o
bo ina
Ġro ber
40 44
dor i
Ġ10 23
ch l
22 15
Ġmo bi
ur ri
tra cao
13 90
35 01
no ta
Ġar gen
ce u
Ġda ma
Ġ50 50
Ġra bicho
Ġan te
Ġno g
ante s
Ġen tal
Ġne bbia
Ġu ht
Ġcan yon
0000 2
Ġsol idor
pla t
Ġsp iral
Ġri pple
pr il
Ġ789 86
Ġ06 3
th or
tre al
Ġol imp
rolamento s
Ġgen esis
Ġ790 96
Ġmoto sserra
Ġcara mel
at las
Ġcorrente s
Ġstan der
mole tinho
inte gral
Ġblu kit
aces s
Ġame i
Ġescri ta
Ġniss in
Ġendu recida
Ġkiss es
Ġade re
Ġabri dor
Ġcata logo
Ġtrain ing
Ġdesgas te
7 45
d ril
e qu
s yl
x b
Ġp nr
Ġm ma
ca es
Ġs ra
Ġb un
en costo
Ġ4 66
pa mp
sa chs
Ġo pal
Ġcom es
Ġx c
Ġro dinha
im pa
Ġ7 75
va cina
Ġma re
Ġ12 80
Ġr st
Ġr sc
ba m
Ġlo op
13 80
con forme
Ġ100 8
Ġsa ara
99 00
ver galhao
pp h
val id
mas te
Ġho bby
Ġ08 4
Ġmole kinho
van inha
Ġpu rificador
Ġbi bi
Ġcr ush
Ġdis positivo
Ġveic r
Ġsc rap
Ġ127 41
Ġ101 8
Ġmi lao
Ġcarro car
fol heto
fecha do
Ġclo ud
san dero
mega crimp
unica cao
pola bor
Ġcomo da
Ġfaz enda
rece ptor
inse ticida
Ġestofa da
aque cedor
4 200
6 27
d inhos
g ard
h w
j f
l io
l caixa
x tenis
Ġm po
Ġs inger
to que
Ġe tern
ar ios
on ha
01 40
Ġo rel
em i
Ġcom bi
Ġ6 44
it su
tam ol
Ġ8 48
Ġj vm
Ġh ima
Ġ9 54
Ġ10 35
go tas
Ġr se
11 000
Ġal le
Ġal ve
se al
gu ile
Ġw inter
Ġpro polis
ce bola
Ġba y
Ġped estal
Ġam i
Ġme gane
cho ker
Ġ11 10
Ġsh ar
ton ico
31 50
Ġ37 9
Ġri zzo
Ġ70 8
Ġvi be
vol t
08 7
Ġbi ker
ze pam
Ġpi one
Ġfun cao
wa ve
Ġpos icoes
Ġmono bloco
ray on
Ġ190 5
Ġesto f
Ġfl c
Ġmu rano
// /
Ġcompos ite
Ġ78 90
Ġimper io
peu ge
Ġarti go
Ġanimal s
Ãª nis
Ġviva ce
1030 28
pers or
day co
Ġcoqueiro s
Ġpaco tes
Ġarma z
bomb oniere
Ġpho enix
yama ha
lubri ficante
0 201
4 100
5 96
p imentao
s ardinha
ca pas
Ġs orte
ro lam
Ġde dos
do u
Ġco urier
Ġco quetel
ti zado
da sa
Ġ4 63
01 60
Ġ5 66
Ġ5 97
Ġ6 101
Ġro cast
Ġ8 102
Ġ7 22
Ġla go
30 60
11 55
ica r
ba da
Ġal f
Ġi pad
po a
gu eta
Ġtra dic
um ento
Ġ18 24
21 50
Ġtri dent
Ġad id
Ġpo ten
Ġplas vale
Ġbr ilha
Ġen cart
Ġti o
Ġex o
Ġex ten
Ġex tens
di e
di an
Ġne g
Ġor ien
Ġli po
Ġac tiv
Ġcur ve
Ġfor ra
can to
Ġsp irit
Ġmon s
300 7
Ġha wa
Ġ789 96
400 7
maca cÃ£o
bri ght
Ġrec lassi
Ġque da
110 8
Ġfu ture
Ġmer cado
Ġni ti
cra vo
Ġ64 50
Ġlava da
Ġesto nado
Ġcer das
Ġth or
reg ina
Ġvas os
flo res
tx t
Ġmode lar
Ġbot tom
retro v
Ġmake up
Ġsea gate
sus pen
palm ilha
Ġsantor ine
catal isador
Ġconne ct
Ġutensil ios
transmis sor
Ġmaiz ena
0 354
4 37
6 98
9 18
9 46
a ero
c fe
e tes
m itex
p ing
00 27
ca der
ro cadeira
Ġb wg
Ġg ijo
Ġg rendha
el et
Ġn ba
Ġt rol
pa inha
50 90
Ġre ve
Ġre peti
Ġ0 225
Ġes tim
Ġk ra
Ġla vado
30 20
Ġ10 24
Ġma da
Ġma res
ci co
na v
Ġte ka
Ġda juda
45 01
Ġpol ip
ita do
gr ill
Ġz r
Ġaco s
imp er
lar ia
Ġmod ulos
cu d
Ġpt fe
Ġtr ilo
Ġbebe ce
Ġred utora
ero x
Ġdu ck
Ġly nd
comp en
Ġcarro c
pres sao
pres sos
zz ano
Ġfri os
Ġfri gor
Ġart lens
fri tadeira
Ġtru cker
san i
Ġsele ct
Ġdiver sao
Ġet q
Ġdivis oria
estampa do
Ġpassar inho
grax eira
Ġiq f
Ġacondicion ado
orna mento
Ġeix os
Ġantar ctica
Ġfergus on
Ġarrefe cimento
preserva tivo
5 29
6 28
6 85
7 75
7 44
8 28
8 74
a choc
c em
h on
i vado
j b
p im
t k
Ġc nh
Ġp ru
in jetor
00 35
re ci
Ġs Ã©
Ġf inos
es co
es cu
pa rado
ri el
Ġo pe
qu ant
10 32
Ġpa isa
Ġ6 17
Ġ6 26
Ġ6 27
Ġ6 29
Ġ6 96
Ġro n
ga z
Ġ8 11
Ġ8 14
Ġ8 23
ina tura
Ġla to
Ġcor das
iv al
mo vel
po mpom
70 20
Ġmar isol
Ġref inado
ce la
fa cil
21 12
Ġdes ert
Ġch ris
Ġcas eiro
Ġq nt
Ġcan el
0000 5
Ġ13 80
Ġser vi
Ġmon ito
Ġdire Ã§Ã£o
300 9
Ġri ver
Ġvi bro
Ã§ Ãµes
su mmer
bor r
bor boleta
Ġva c
Ġfo od
Ġbi go
Ġpres to
fo go
Ġdu b
Ġsimp le
sp ice
vermel ha
Ġko yo
sand hav
Ġlava t
Ġsun ga
Ġfis i
Ġagri colas
Ġbom beiro
multi cor
Ġsr v
fru ta
wee k
line a
Ġ266 6
Ġremov edor
fron tal
Ġnv idia
Ġever y
Ġpico le
esca vadeira
Ġpris ioneiro
Ġcarra ro
Ġmarro cos
Ġgraph ic
Ġpresid ente
Ġlha ma
Ġextern os
Ġpingu im
Ġpantan al
Ġhul k
4 89
5 23
6 33
6 77
b ie
s imp
v n
v ana
Ġm ca
Ġm Ã©
in color
00 010
la re
Ġb hl
co mer
Ġf ia
Ġde g
do l
Ġg br
Ġt sp
Ġ0 2023
Ġca mila
Ġca roco
ed s
lo gico
40 43
Ġma yle
Ġpara lamas
ur y
15 30
Ġlo la
16 11
Ġi pi
gu melo
con fort
Ġw ine
19 35
Ġ00 18
Ġ00 38
17 80
17 70
Ġte oria
no b
Ġst h
Ġra marim
Ġse us
tan g
Ġpc hoque
Ġen joy
Ġti gela
Ġti bial
Ġli b
Ġsol dado
mar ine
Ġsp d
Ġauto cla
Ġcre ta
Ġimp ul
Ã§ ado
400 01
02 10
ft v
Ġpu e
Ġanti transpirante
Ġind icador
pes sego
Ġdel co
Ġul timate
comp ressa
Ġgas pea
Ġinte ra
ane iro
sk y
Ġmad re
Ġct l
Ġcoral it
Ġimpa ct
Ġ53 4500
Ġindus tria
Ġlum ens
Ġsli tada
nu cleo
Ġaplica do
Ġsha mp
Ġdri ver
Ġtres emme
Ġconfe itaria
Ġfle isch
tru ario
Ġzen fone
Ġfati ada
Ġmarch etti
Ġalmo f
Ġincen dio
divers os
Ãªn cia
equi po
whisk y
Ġreclassi ficar
0 69
e as
e quim
f low
u g
z s
z ip
Ġ Ã³leo
Ġc pc
in ari
Ġe pp
Ġco leira
Ġco urt
Ġ3 175
Ġre nas
20 60
Ġca mada
Ġ6 23
Ġro ver
Ġro dizio
Ġh ort
ch ia
Ġw om
Ġ00 19
Ġpe plum
Ġra pport
Ġlis as
fe t
Ġ14 20
Ġme x
Ġbr uta
Ġen gr
Ġen velo
Ġve ter
ren to
Ġcha m
sh e
Ġmed ido
Ġpra teada
des canso
for ca
Ġ05 9
Ġha mmer
Ġtu cano
ind er
Ġja bo
Ġ789 97
bs p
79 00
Ġap ar
Ġdis tancia
Ġpri x
Ġtor rada
mer it
Ġfran ca
Ġ101 4
Ġtec nico
Ġza fira
bis naga
Ġhy pe
Ġfel pa
sol enoide
gol inha
care ca
Ġsele tora
Ġcis ne
Ġyo ung
capo ta
Ġpilha s
Ġlargx altx
Ġhead set
990 35
Ġvaza dos
Ġqua tro
Ġreti ficador
Ġantis septico
Ġbid ens
Ġsantor ini
Ġspec chio
Ġcim ed
Ġpana ma
espre medor
0 400
d ka
f eta
m ena
s to
u de
ra lador
Ġd uty
ca cha
la cto
Ġb dy
en du
01 35
Ġt ung
un icos
de cor
Ġo pt
Ġin terior
Ġ8 88
12 34
Ġ9 38
15 24
Ġ20 40
Ġw pb
17 11
26 01
Ġan tenas
car te
arra o
man ip
Ġli jeans
Ġcha veta
bu g
Ġcal ce
Ġmes c
Ġsol ida
Ġmon ta
pi ente
Ġauto ades
ele trico
Ġnf ci
ze ro
Ġbra hma
enta da
220 2
Ġcru a
Ġmal u
med io
Ġur sa
Ġbaba dinho
Ġhy dro
cul es
Ġferra ri
Ġpalheta s
Ġcompl emento
4040 69
ttan in
Ġ8000 54
Ġquant um
esca pe
Ġcarbo grafite
Ġestria d
Ġanticha ma
unicos ingle
6 49
9 33
a pos
d q
d ico
f eno
i ia
o ver
s icha
ra vanel
in m
re y
Ġl ili
al erg
is y
de i
Ġ6 66
Ġx erox
im ar
Ġ7 78
12 60
Ġh q
Ġcor tica
Ġdo sador
Ġver so
Ġcon ca
Ġba d
Ġ18 20
Ġan is
Ġtri unfo
Ġad itivo
Ġ19 35
Ġlu c
Ġpr m
bi ke
500 2
Ġmetal color
Ġas pire
Ġmulti plo
est rela
Ġnatura is
fer mento
neu tro
600 2
Ġpon t
cl io
Ġcp d
Ġza g
Ġten dencia
Ġlin er
Ġins titucional
Ġace tico
Ġtal ita
Ġagri c
Ġgri gio
Ġpass ion
Ġilum ina
Ġpira ta
palm ito
Ġsagra do
Ġpho to
Ġ79097 13
Ġdesmon tavel
Ġrevol ution
pig mento
Ġinstru Ã§Ã£o
Ġimo bil
ravanel li
5 76
5 47
9 100
c unha
d us
z f
Ġp st
ra beta
co to
is te
ti go
en dedor
on t
on ga
un f
20 70
Ġ5 38
Ġ5 58
Ġ6 38
Ġ6 37
Ġ6 85
Ġ7 62
Ġk as
Ġk imono
Ġla u
Ġdo dge
mo b
Ġdi ana
na gens
gu el
Ġmar tin
Ġ50 80
Ġman chas
Ġan ime
Ġan jos
fe v
Ġme xica
deira s
Ġu b
Ġu re
Ġor valho
500 3
pu rificador
preto g
Ġ08 1
Ġ26 3
Ġbu ri
gre cido
Ġge olab
600 3
mer iva
Ġano d
bil izante
Ġflu id
Ġvis ao
Ġalfa ce
Ġbis turi
zo o
Ġtre inamento
Ġata cador
fu mo
ud ur
Ġcompri do
Ġcachor rinho
Ġhal f
Ġequ ip
brac elete
Ġ79080 35
Ġingles a
divis or
flora tta
Ġnamora dos
Ġaboto amento
unis sex
3 010
7 34
8 65
k le
z ir
Ġd q
ta ck
Ġs cho
ro ica
Ġf br
Ġe qui
Ġe tilico
Ġl tr
al u
Ġco w
ti ka
Ġ4 89
un cia
ul ina
ma i
Ġca cho
10 44
ic ks
Ġ8 13
Ġk ha
Ġh v
Ġ9 75
11 44
11 33
Ġi gua
ve g
se ladora
Ġ15 20
Ġ15 19
Ġsa lao
Ġtam gg
Ġtra cker
Ġpe qui
Ġle af
Ġam anda
ru t
ver sa
di pirona
Ġ24 99
Ġfor jado
tr il
Ġgra d
ana bela
val cl
Ġ02 30
Ġjo aninha
Ġva p
Ġ48 00
Ġbi anca
Ġdis c
94 01
210 2
Ġstar rett
Ġmi k
med alha
Ġab elha
Ġins umos
Ġsel ene
Ġprime iros
Ġvas soura
Ġeuro farma
Ġflange ada
Ġfur ta
ade c
Ġpapa gaio
Ġventi lado
Ġinsp iron
Ġmia mi
serv ico
caix inha
Ġpola ri
kem on
mode lador
peuge ot
pressos tato
8 39
8 29
a mox
p ole
s nd
t te
t um
u ka
Ġc ulo
00 45
Ġa dao
Ġs ton
to ols
Ġl igh
Ġv iz
de gra
Ġ5 98
Ġ5 56
Ġ6 73
lu k
12 80
lo gan
11 60
11 65
Ġpara ch
Ġdo hler
22 14
16 60
Ġmar cas
Ġcon tr
Ġda ilus
Ġad l
Ġam as
Ġplas ticas
Ġen gor
65 01
Ġu teis
Ġlu ci
Ġsu c
Ġ45 6
Ġ13 70
ven s
pr ia
der na
bor n
Ġgran ado
tel le
ex tintor
Ġsan ol
Ġpor o
Ġroda do
110 3
Ġph an
Ġ07 50
Ġbox e
wa tt
we b
Ġalca tra
dis tribu
Ġmer ck
103 010
cida des
imenta dor
Ġorgan ic
Ġmu da
Ġalterna tivo
Ġespa co
flo x
Ġale a
Ġpica nha
Ġconfe itar
cox ao
Ġpequen os
Ġconserva Ã§Ã£o
Ġcele bra
Ġbim etal
Ġflane lado
Ġuniver so
Ġgabri el
ampli ficador
Ġquadric ulado
Ġcomes tivel
9 13
9 45
e tone
o ur
s ur
w ell
z c
z ona
Ġc pu
Ġm z
00 28
Ġ1 185
Ġl entes
Ġl ixeira
al vej
pa tins
un x
Ġre no
ma chao
Ġo ita
em o
Ġ5 57
Ġro que
ga lax
Ġk bom
lo c
Ġma u
Ġma relli
Ġmo ura
ur umi
pe do
pe pino
18 10
Ġst ress
Ġse la
ido na
Ġ200 0000
Ġfa vor
Ġad ic
Ġ14 91
Ġbe er
Ġ19 80
Ġ19 90
Ġta tico
Ġpr mn
ps is
Ġ11 80
Ġcol l
Ġpar ty
Ġmon tan
Ġauto mor
Ġja teado
ele vador
02 50
don na
pra zol
cli matizador
Ġnr serie
Ġaba jur
Ġox igen
Ġsch ulz
Ġcubo s
Ġprime iro
Ġvic toria
sala deira
Ġferra cini
pun to
Ġfamil y
terra mento
Ġleo pardo
Ġari el
Ġteci d
Ġhus ky
divis oria
Ġchil li
Ġjohns ons
ango o
Ġsegre do
Ġproven ce
Ġhorti fru
Ã´n icos
comu tador
pph ire
c br
f ina
g ic
l ica
m verniz
Ġc idade
in ess
Ġd tex
ca tchup
re che
re gano
Ġe torq
Ġco tele
Ġg ti
en z
01 15
Ġre tal
Ġo tico
qu ilha
Ġcom e
Ġes cama
10 85
Ġ5 76
Ġ5 96
Ġ6 36
Ġ6 39
Ġ6 55
Ġ6 53
Ġin tima
Ġ8 22
11 59
za fira
me tros
Ġdi da
14 12
Ġ00 22
Ġto day
28 01
Ġad u
camiseta s
Ġex cl
Ġne x
iz er
Ġcur l
Ġ17 80
Ġcas h
cho cola
Ġmascul inos
mar fim
pos i
Ġimp ressa
Ġjo ta
Ġ789 84
Ġsal g
gi rius
Ġed redom
Ġpres ti
Ġinter nos
cr iado
Ġvl desc
Ġtec las
pul s
Ġmono comando
Ġinver sor
blo cos
Ġelemento s
Ġlac rado
mole ton
Ġtermo lar
Ġcastan has
Ġplan tas
Ġtru fa
Ġcone ctores
Ġmercedes benz
Ġke y
Ġlil le
Ġlil lo
Ġsincron izado
Ġdinossauro s
Ġteles c
Ġproven cal
Ġbaga geiro
evapo rador
ceram ica
Ġorien tal
5 31
8 26
9 16
Ġc rio
Ġm ur
re fe
Ġa tox
co nex
Ġf ds
de rela
de terg
em as
Ġcom un
Ġcom bate
Ġ5 67
Ġpa re
Ġpa int
Ġ6 74
Ġin sc
Ġ8 36
Ġ8 105
Ġk x
Ġk va
Ġk du
000 30
Ġla tas
30 24
11 35
ne ider
ve las
mo edor
gu incho
13 17
Ġsa pphire
Ġ00 34
ce pa
Ġfa cheta
Ġle e
Ġ14 18
ad ubo
Ġbe ttanin
Ġ60 3
min ia
Ġ35 4
48 00
Ġcas tell
cas cador
col lor
col dre
Ġsh in
Ġpar ts
Ġri pil
Ġcla ri
Ġden in
Ġimp r
Ġ21 20
Ġbu ffet
Ġ27 3000
Ġpes cador
Ġcris ta
Ġfol k
fer v
Ġber lim
140 3
700 5
Ġpos i
Ġgraf iato
cro mado
sem ieixo
Ġfr t
Ġdos e
Ġfas cil
Ġop ti
Ġceram idas
Ġche iro
Ġass is
Ġmus ic
Ġair wear
Ġsmart watch
Ġhaste s
Ġcit ri
massa geador
Ġeletro ventilador
Ġdal ia
Ġjequiti ba
Ġsta y
pri ca
Ġinjeta vel
Ġpress ostato
if ico
Ġaudi tivo
Ġsens ivel
fes ap
vie ma
Ġlou cas
vento inha
Ġbutter fly
Ġreutil izavel
Ġmoul ine
0 200
6 99
6 43
7 39
8 38
9 17
a pt
b ir
r j
Ġa dor
Ġde vore
er mo
Ġv ml
01 16
20 220
Ġo xi
Ġca tiva
Ġcom utador
Ġ6 76
Ġ8 500
Ġ7 23
Ġ7 88
12 17
Ġk max
40 85
Ġ9 63
Ġ9 53
Ġ10 90
ico lor
15 12
za ra
me yer
Ġi ri
inho la
Ġmar ilia
Ġmas sas
res fr
Ġar q
so ut
Ġcar men
Ġman gue
Ġam igo
Ġch ik
Ġen fer
Ġti la
Ġve tor
Ġaco p
Ġsup e
pro longador
Ġga ta
Ġqu iz
Ġcur t
Ġta ke
Ġta chas
pol t
pla cas
68 00
mas s
Ġnu ts
Ġtr s
Ġfo ur
Ġfo rest
Ġsen tra
Ġpi pa
Ġper ig
Ġtur b
Ġza p
tur bina
Ġcompa c
Ġara uco
sil ver
Ġaci d
Ġsua mi
Ġtre vo
Ġdar ling
ÃŃ nio
Ġplay er
Ġfen das
Ġcamp anha
Ġnes cau
var na
band ana
bate deira
Ġsle ep
Ġpeda go
Ġnivela dor
Ġjci iia
cordo amento
Ġhook ah
sli de
Ġanodi zado
Ġpila tes
Ġhas bro
ĠsÃ© rie
6 78
7 46
8 48
9 21
a fas
k f
k el
o ve
q s
y r
Ġc ran
Ġde pil
Ġl enta
Ġ3 010
sa e
50 80
20 33
10 57
Ġ5 74
Ġ6 57
le vo
Ġro c
Ġ7 29
Ġ7 65
lo ren
Ġ9 65
dor mente
Ġpara le
Ġmo ben
po chete
Ġver bal
Ġw el
Ġtra m
Ġtra tores
Ġle ave
Ġme la
Ġbr un
Ġz uri
Ġti a
Ġcin ti
Ġli be
Ġ19 84
ff y
Ġcan nes
pla b
Ġporta travesseiro
Ġ11 40
sapa tinho
Ġmon treal
mas til
Ġ08 2
08 4
gen io
Ġcu ica
Ġgal hos
Ġph arma
Ġsimp sons
Ġmol de
comp lemento
comp osto
Ġbd p
Ġautomo tive
Ġbro ok
Ġblo w
Ġdiv ina
Ġcli ps
ide a
fol der
Ġcra que
Ġ010 3700
Ġcig ana
Ġita lac
Ġdon na
Ġpica do
Ġesmal tada
trin co
Ġeste pe
paco ca
Ġcontro lador
Ġdrape ada
Ġvital in
hen tic
Ġchim arrao
absorv ente
Ġence rado
Ġfacheta do
5 33
7 95
7 96
d ry
l j
p ci
p ly
t Ãªnis
Ġp ba
Ġm ml
00 34
ca le
or bi
Ġa tend
Ġs tro
al ta
Ġco ss
ti le
Ġ4 97
Ġ4 67
Ġ4 236
Ġre pe
il ette
ul to
ri me
20 45
Ġx v
Ġ8 34
Ġ7 45
12 25
Ġj l
30 29
Ġ10 209
Ġma cada
ne ctar
cal ibra
Ġi ps
pe tis
13 12
14 14
Ġte nere
Ġar la
Ġazul marinho
Ġse lador
Ġcar s
Ġ01 01
fe ra
Ġad el
Ġam ante
tri pe
ad u
Ġen te
mp s
imp ressao
Ġcha mois
Ġcomp ress
Ġ45 1
Ġsp arta
des car
Ġporta malas
Ġpar k
gra mpos
du ca
Ġas tral
Ġ27 3
Ġap er
Ġroda pe
Ġdia fragma
09 1
Ġmax print
07 00
Ġinter rup
Ġsc enic
saco las
Ġfu sao
Ġvel ha
ian e
Ġaro matizador
Ġmi jao
motor ola
Ġop us
bel le
bel lo
Ġroyal e
Ġceram ic
Ġpul se
Ġconjunto s
com fort
Ġalfa beto
Ġsand isk
Ġunicor n
Ġoccu ia
Ġcn z
terra ba
Ġespeci e
Ġtape tes
Ġredu zida
Ġcour ino
Ġativa do
Ġcontem po
Ġcaf Ã©
mand ril
Ġretar dante
Ġrela cionado
Ġraven a
Ġpeix es
Ġculo te
6 97
7 76
9 35
a q
e gg
f ull
k k
m te
n ight
o mb
s ion
t win
u da
u tri
v u
ca me
ca dora
te st
Ġs as
la ce
Ġb lan
co med
Ġe os
er vas
Ġ3 268
ol d
Ġ4 99
Ġ4 200
Ġt j
ma qui
em cm
Ġca cto
10 37
10 66
10 700
Ġ5 21
Ġ5 42
Ġ5 88
Ġ6 010
Ġro la
lo f
16 25
na tado
Ġw onder
19 80
Ġso br
Ġar c
ce tamol
Ġto le
23 00001
Ġcar tas
36 48
21 30
ral ho
Ġdes inf
27 01
Ġam r
car r
Ġno vex
di es
di ario
Ġne to
Ġsem ieixo
br ina
Ġlu sa
Ġ17 01
Ġ38 4
Ġsu cesso
Ġcan ulado
Ġmc g
cu ri
Ġtamanho emcm
Ġmic r
Ġres ist
Ġ789 5
Ġdis per
Ġrec upe
Ġbra sao
Ġpi ano
Ġgal ho
Ġsc x
600 01
Ġbal m
Ġpos ic
Ġka ppes
Ġcel ulose
esta bilizador
Ġher cules
Ġ114 1
Ġreal ce
gran ulado
Ġvelo cidades
Ġdal la
Ġ7908 32
Ġger gelim
Ġmaxi ma
Ġgeome tric
Ġform ig
Ġinc ri
Ġcook top
Ġgloss y
Ġeconom y
Ġdesf iado
Ġabsol uto
Ġcort tex
4039 63
Ġhen n
Ġmati zador
fj x
Ġdomes tica
Ġens ino
Ġazule jo
embu tido
galax y
5 67
7 28
d du
g ina
l ixo
Ġc umaru
te ina
Ġa terramento
Ġf ole
Ġf ren
Ġl ule
Ġco ura
ar s
es ia
Ġ4 74
de b
Ġo racao
Ġca pr
Ġca plab
10 65
Ġ6 49
Ġ6 88
Ġ6 54
Ġro tula
Ġk an
Ġma che
ix x
tor ta
Ġal erta
Ġ/ /
15 40
15 80
Ġver y
se la
gu ito
res erv
19 11
Ġba mb
li rio
Ġcar bide
Ġ25 1
26 38
bra med
Ġle itor
Ġno b
Ġch en
deira o
Ġsup lemento
Ġlu er
Ġqu inoa
he tica
Ġ45 3
0000 3
Ġsol ta
Ġama dor
cu re
cu car
Ġlt d
Ġri osul
Ġres gate
Ġho ras
ard ine
Ġmen inos
Ġmicro por
ex austor
Ġchave ada
Ġ29 3
Ġbra z
fo cus
Ġprote ina
den tal
Ġven tisol
Ġreg ul
Ġbro cas
at um
Ġmor dedor
Ġox ido
Ġpul v
Ġhor net
Ġer minia
Ġsx t
Ġraste irinha
Ġfra me
Ġton ica
Ġgua che
dre am
Ġcontin ua
Ġmov imento
los artana
Ġpaul ista
Ġtha i
Ġpatri cia
Ġampli ficada
Ġtrato rado
Ġdic roica
Ġsemia c
Ġgus to
Ġatoalha do
cadar co
Ġlusa film
Ġlule g
0 97
5 63
8 34
8 37
9 23
f ir
m z
m ma
p orte
s pt
in gu
ta il
Ġb less
Ġb Ã¡s
to al
Ġf y
Ġe quipamento
Ġco i
Ġco ast
Ġv iver
Ġg lor
en on
il les
de ra
Ġ5 010
Ġx y
Ġ8 17
Ġ8 010
Ġ7 1000
12 13
Ġk et
Ġh ang
Ġla bor
30 40
Ġma tch
Ġpara bol
ch im
ch ers
Ġdo br
15 19
tra queal
Ġte las
Ġba lada
Ġ18 28
ir landa
89 10
and ra
Ġval eo
Ġno iva
Ġno tur
Ġne vo
Ġu reia
Ġ60 9
33 50
Ġ36 9
Ġ19 87
Ġ35 1
Ġ38 10
Ġq n
cas pa
0000 8
Ġta la
bi k
500 01
Ġimp ress
ven das
Ġ08 3
Ġsal opete
08 3
ser vo
120 4
Ġge ranio
Ġcu ia
Ġpri ce
Ġos ram
Ġbar riga
we i
Ġcel ula
Ġms d
ac tion
bar ba
dis ney
301 2
Ġab sorv
112 1
bel t
Ġcompa t
Ġben d
Ġhor tencia
Ġsobre posicao
Ġsel en
Ġci f
Ġplan ner
Ġfix ar
Ġmecan ismo
rena ult
Ġder mo
Ġteste s
Ġpespon tos
Ġbeb idas
Ġ79080 69
Ġspider man
apl ic
talha deira
Ġeduca tivo
Ġcarinho so
Ġortoped ica
Ġwell mix
Ġluis ance
aren ito
Ġovel ha
Ġtila pia
Ġcinti lante
6 89
7 21
7 78
a pp
a cc
a bc
o lar
s ka
u ic
Ġm ind
Ġd do
ca v
Ġa las
Ġs br
Ġs hadow
ro ma
Ġe da
al mo
ti reno
as ar
on ado
sa bre
ul tura
Ġ6 100
bo is
os an
Ġ7 19
12 23
Ġh ua
lo p
40 24
40 37
30 25
Ġ9 22
Ġma ionese
ura cao
ne g
Ġal ways
Ġver me
se e
Ġw w
Ġpro gr
li do
Ġ01 80
Ġex pl
min iatura
Ġ24 40
Ġ38 3
76 01
Ġfre estyle
tr ina
du flex
Ġri cca
Ġ70 5
Ġja ca
por tal
porta s
Ġho mme
Ġgu ard
tem po
Ġgl ic
Ġus ss
brin cos
wa ra
cb duflex
yo vac
Ġru ido
Ġmad ras
trans parente
Ã³ ria
mem brana
Ġns w
def rog
Ġ7899 65
Ġinc lus
Ġestre ito
passa t
Ġgro watt
conta iner
Ġcy an
home tric
Ġrodo vi
Ġjato ba
Ġchin es
Ġinstantane a
Ġjci va
Ġanda res
Ġuro chloa
Ġparabr isas
Ġmoben sani
Ġmacada mia
7 37
b ita
b ena
f esta
k ed
n v
r subli
Ġd pi
Ġs gr
ro pe
Ġb ge
co fap
Ġf ilha
Ġf yo
do col
Ġg ang
ar quivo
es quadro
Ġn ig
Ġn Ã£o
ul es
Ġo sc
Ġes til
Ġ5 400
Ġ6 19
le ave
Ġin crus
bo u
Ġro vitex
12 55
Ġk k
Ġk az
Ġla ke
Ġ9 23
Ġma carrao
ba ilarina
Ġdo adora
Ġlo bo
Ġlo tacao
Ġver des
Ġw f
Ġcon sumo
ja dor
Ġar l
Ġfa da
Ġval sa
Ġ14 01
lan dia
Ġbe bes
Ġ60 6
imp lante
cor olla
man aria
ss on
Ġ19 85
Ġ38 8
Ġ45 9
for mas
mi ga
Ġpla ta
88 00
Ġpas to
Ġgu ess
cre am
Ġpi ed
rio cril
Ġ09 2
Ġmarca tto
Ġcores preto
140 9
Ġph y
ph ie
Ġgen u
jama i
800 4
ac umulador
Ġmer ko
Ġflor ida
Ġflu tu
Ġmis turador
Ã§a deira
Ġpersonal izados
Ġqual y
ni er
fu sao
Ġintegral medica
Ġdre nagem
Ġtrip lex
Ġroman tic
Ġmari timo
Ġamo re
Ġpress uri
passa deira
Ġcache pot
Ġacetina da
ene grecido
sten io
Ġpespon tado
Ġdom ingos
rot ulo
chic lete
Ġamazon as
Ġgio vanna
Ġreti f
Ġmasca ras
Ġnerv uras
Ġgradu ado
Ġvegeta is
Ġchantil ly
Ġatl hetica
abaca xi
Ġocm ar
Ġhima laia
6 76
a br
a gem
d ur
f q
p izza
p ican
v ille
Ġp gr
ra quete
or g
Ġa po
Ġa tenas
ro ck
Ġb esta
Ġb ree
Ġv iew
Ġv hf
Ġg tech
en gr
Ġ4 78
Ġ4 94
Ġn en
ho p
ri fador
20 49
Ġx d
Ġ8 55
Ġ8 66
Ġun ited
Ġ9 18
Ġ9 35
11 49
Ġdo ador
Ġem issao
22 25
15 90
Ġlo iro
con du
Ġmar mita
Ġcon dutor
Ġ00 24
Ġ00 39
so prador
Ġpe zinho
Ġto ols
Ġpol imento
bra ke
be e
29 01
Ġbe c
Ġ36 7
pro p
Ġje an
iz o
Ġ17 18
Ġcas sete
Ġvermel h
Ġcm s
47 00
Ġcro ma
Ġ90 5
st b
Ġfreio s
Ġwh it
Ġcre w
rol rc
su culenta
Ġ789 89
Ġ789 250
Ġgran ola
Ġmicro soft
che go
lon garina
Ġsal t
bl in
Ġfi bro
Ġcris t
Ġgl s
Ġsc ri
pan tacourt
Ġmid ia
Ġly or
Ġ790 807
ys tick
sal sa
Ġwa bco
Ġmoto cicleta
Ġvo al
barra ca
bras ilux
Ġhe ra
Ġomb ros
Ġcarre tilha
caca u
caca mba
Ġins pe
Ġfel trin
Ġcorre io
wh t
Ġtal ge
Ġcaca rola
Ġlotes l
gela deira
san tana
fra g
Ġsn f
Ġsim ona
Ġmiss ner
Ġaven t
wo ofer
Ġtamanhom cor
Ġpur pura
Ġcapri cho
Ġob jetos
Ġpran chas
Ġcorta g
sar ja
fes nd
Ġsle eve
grip ante
Ġort hometric
Ġmarmor izada
Ġfest color
Ġacus tica
Ġ80005 4300
Ġtonal izante
Ġbipar tido
Ġparamo unt
Ġoxigen ada
reche io
afas tador
9 65
f alo
i uba
j s
j um
m w
n inho
o ce
Ġa qui
Ġs cal
Ġs quad
la eno
ro w
al ma
Ġg ole
es d
01 14
sa fe
ho ck
Ġre tificado
ul her
de on
em en
Ġes po
10 39
Ġ5 59
Ġ6 34
os hi
Ġ8 107
12 45
12 44
Ġj elly
Ġ9 26
ba ga
15 11
15 16
Ġdi la
con trol
Ġsa po
Ġw cb
Ġcon ve
Ġ00 13
no buck
Ġba guete
Ġra cor
fa ti
fa ctor
36 01
ite ira
27 20
Ġno ma
Ġz nd
99 01
Ġsem ijo
Ġli f
Ġcur vas
he lanca
32 30
ris e
Ġele ge
Ġpin heiro
Ġgo mes
500 4
Ġcla reador
pen d
Ġva zio
Ġbla de
th on
Ġquad rup
Ġbi queira
rom ulher
fo cal
Ġcu ida
Ġprote c
Ġprote ction
Ġpan ta
Ġextra tor
Ġju ri
Ġaro matizante
Ġliqu id
Ġ115 5
olo gica
Ġnatal ina
Ġlum i
ere o
Ġspr inger
fru tti
Ġdef in
Ġmari tima
Ġhigien e
Ġcompri da
Ġpig mento
Ġpelucia do
Ġtable te
Ġkar sten
Ġelem ent
Ġcitro nela
plan ta
qt de
Ġcria tiva
Ġesfer ico
Ġquin ta
Ġrefres cante
Ġbss s
6 010
a i
c lu
d ers
e uro
i ena
l k
n w
s ant
v ip
Ġc to
in ko
ta coes
Ġe ther
al th
ti lo
Ġg un
Ġg vi
ar re
on io
Ġn q
pa k
sa q
Ġre queijao
Ġ6 48
Ġro cha
Ġ7 68
Ġk z
30 80
Ġ12 66
Ġcor marrom
Ġdo sadora
ico m
me eira
16 10
Ġi za
gu i
Ġbo tijao
Ġmar isa
Ġsa boneteira
Ġw ha
Ġmas t
Ġcon to
Ġ00 75
Ġna jar
ig el
Ġpro bio
Ġpro adec
Ġval encia
vel cro
Ġle grand
Ġne vada
Ġli lac
Ġac inz
tu me
Ġlu kscolor
he te
Ġmed ic
col meia
cu ma
Ġ80 4
Ġcol li
Ġy d
Ġ34 39
vol ks
Ġfer m
Ġ09 1
mt x
qui aria
Ġespe to
Ġbel go
Ġmol dado
Ġmol dada
Ġul t
Ġmin u
ac qua
sal mao
Ġalum ÃŃnio
Ġmus cle
Ã© tico
Ġtw in
Ġste reo
Ġimporta dos
Ġds l
Ġsep ia
Ġnum fim
lit ro
lit ros
ardana pos
num ini
Ġprati k
sten t
Ġalo ha
Ġaromas il
gma tis
Ġbir d
free zer
Ġevapo radora
Ġampli ficador
Ġpinta dinha
bca a
inj ela
Ġmalh aria
Ġempilha deira
galo cha
jac quard
Ġpadr Ã£o
Ġfleisch mann
Ġure tral
resfr iador
Ġriosul ense
rolrc Ã´nicos
5 42
7 38
8 76
9 66
c rom
c ulos
f inal
f oss
j ul
m icanga
n estle
p ho
Ġa ge
Ġa rena
Ġ2 115
do ve
da gem
en xa
Ġt um
Ġt gen
sa m
50 40
Ġre cu
Ġre ale
ma dor
em pilha
Ġes tra
Ġ5 200
Ġpa b
Ġ6 69
ga me
im i
Ġ7 18
Ġun itaria
12 40
Ġj on
Ġj ura
Ġ9 11
Ġ9 57
Ġcor ona
Ġdo ra
up ro
tro p
Ġal gas
Ġmo re
16 40
Ġi va
cha ton
13 20
Ġmar girius
Ġsa brina
res sos
res pirador
Ġpe la
Ġda isy
ves tre
ck o
Ġpo ur
Ġam er
Ġme lao
Ġz p
Ġex porta
Ġex tintor
di ga
Ġve gan
man ivela
bu ffet
Ġsu culenta
Ġsu cupira
ip el
Ġcan ecas
Ġta ssel
Ġfre q
mar i
des f
Ġ11 60
Ġpar do
Ġpar mes
mba ca
bi anco
Ġden tro
Ġ34 00
Ġho mo
Ġmicro p
th ing
tel li
08 1
ka dett
Ġap ti
je an
09 2
ly n
Ġpi ercing
Ġim ob
Ġprin ted
tiva dor
Ġrol inho
Ġfos sil
Ġcru cial
Ġgen ero
we g
Ġmin imal
enda rio
Ġav on
Ġpen sao
Ġbrin k
Ġdin heiro
Ġfri end
Ġcof w
Ġmus culo
Ġis b
Ġlen ha
Ġhidro lis
Ġdor m
Ġcone c
Ġkar ite
Ġvip i
blus as
Ġeste tica
Ġrel ig
Ġmarin heiro
Ġchip board
Ġvibra dor
Ġlos ango
Ġdelica da
grax ante
Ġhea vy
Ġlaran j
Ġcien cias
Ġtij olo
Ġry zen
nol ia
Ġencapa da
spo iler
goiaba da
Ġacon chego
Ġfelic idade
Ġzal ya
Ġ78995 78
Ġrepu xo
Ġfragran cia
alpar gata
Ġpione er
Ġwom en
Ġbidens idade
Ġparale la
3 145
5 38
6 31
8 49
a pa
a pc
c lar
i lado
l ily
t res
v aria
Ġc ima
ca c
te o
ta uari
Ġs ardinha
Ġe fi
Ġv iper
ha ra
es cla
Ġ4 010
Ġn ia
pa mpa
un k
ma qu
Ġcom unicacao
Ġ5 700
Ġpa vao
Ġpre Ã§o
Ġ6 47
Ġ8 89
12 22
Ġem ul
Ġ20 80
Ġ20 35
90 89
gu itarra
Ġbo ur
Ġaz cl
Ġcon ju
19 24
19 41
no t
Ġna va
Ġar k
Ġpe g
Ġpe ep
Ġto co
Ġ50 39
Ġse lada
ir y
21 90
Ġle ts
alha dor
Ġme an
Ġcin derela
ss ic
Ġmascul inas
Ġ13 16
98 80
Ġpt vc
Ġva ra
mes sa
Ġdd b
Ġbra c
110 7
Ġper m
bro wn
wa fer
Ġmin imo
dis p
yo te
pres ente
Ġdecora tivos
Ġiso lamento
Ġcv to
Ġmus culacao
Ġis la
Ġmp fi
Ġcg c
Ġmun di
micro ondas
Ġfres cor
Ġreserva t
cle ar
rap y
tifica da
Ġaut hentic
Ġpivo tante
dra po
Ġnum ber
Ã´ nico
Ġ098 6
Ġfras le
Ġconta ct
Ġvene to
Ġetiqueta s
Ġbomb as
Ġmano metro
tua gem
Ġcorru gada
Ġarran jo
dup la
Ġconver se
Ġcox ao
Ġconfecci onada
Ġengre nagens
Ġrico h
Ġ790801 17
pamp ili
Ġtung stenio
distribu idor
laeno psis
5 77
7 36
8 27
a ereo
e quipamento
v f
Ġc ente
ra mento
Ġd id
Ġa va
Ġa ml
Ġa sh
Ġa tena
la d
la ca
Ġb ona
co ur
to dos
Ġe ye
Ġl ing
al le
Ġv ox
Ġg h
en tre
Ġre ia
qu an
10 53
Ġ5 43
Ġ5 68
Ġpa uli
Ġro y
Ġ8 65
Ġ8 85
Ġla ct
Ġ10 39
Ġ10 200
Ġcor sario
ch en
ci dos
22 30
15 35
15 55
pe ga
90 24
18 20
70 30
Ġbo real
Ġmar t
Ġmar iana
Ġsa q
19 12
Ġso do
Ġref r
Ġse lante
100 000
Ġ16 000
ge u
Ġ60 2
Ġcas ado
Ġfor racao
mar gar
mi olo
Ġpla ne
Ġ28 1
Ġ02 10
Ġres pira
Ġvi ii
Ġjo ur
Ġon ly
ven e
su bs
Ġgu ian
Ġfo ods
Ġ27 4
Ġanti caspa
Ġdis tal
ril l
para drapo
Ġmarca zara
220 6
mer ica
sal on
Ġstra w
Ġgre cia
Ġbrin q
Ġmi guel
Ġunid s
Ġvis ita
Ġfri zz
Ġfl x
inas tica
Ġcostura do
cab ana
Ġjan daia
cul us
Ġmagne tron
Ġflange ado
Ġnpt f
Ġ7899 75
gor g
Ġpulseira s
gab it
xt z
Ġexclus ive
Ġgab ardine
Ġtim ber
Ġgeo grafia
castan ho
spe ed
Ġfig ura
Ġort ho
Ġmff fw
Ġtrato rada
Ġpolies tireno
Ġtup y
gun dy
Ġmillen ium
Ġfral das
orto pe
Ġeam es
Ġbigo de
manip ulo
Ġphan tom
5 99
8 21
8 46
9 55
a larme
c za
j ic
q j
Ġc ine
Ġp ula
00 60
ta veis
to wn
al b
ti az
Ġv me
en cordoamento
es trada
as alho
Ġ4 400
Ġn el
de dores
20 28
Ġca min
10 68
Ġ5 87
ga t
Ġ8 45
Ġ8 46
Ġ7 24
Ġ7 77
Ġ7 42
lu mb
40 80
30 31
va res
Ġ9 95
Ġ9 96
Ġ9 500
Ġ10 28
Ġ12 30
11 85
ch ester
ba inha
ne ro
22 60
po queira
13 11
Ġsa ms
17 20
Ġna ve
Ġst ry
Ġpro ces
Ġto te
Ġra dex
Ġ18 01
be ador
ts y
Ġbr d
Ġbr is
Ġbr uma
gr upo
Ġu k
man ilha
Ġ13 20
can al
gua rana
cu las
Ġpla te
Ġmul let
pi tanga
Ġ02 35
69 00
Ġdup l
Ġja defrog
Ġlate go
Ġas as
Ġel la
Ġsal ga
Ġadul t
gi al
Ġmax ton
pis os
Ġcru zadas
pl d
cl p
bar te
Ġpd jo
Ġav x
Ġparaf usadeira
301 9
Ġvar iedade
inter rup
olo bium
Ġsolda da
Ġsel im
Ġsubli matico
san ta
Ġgi andu
Ġras pador
Ġef fect
aca i
Ġki wi
Ġjul iana
Ġrad ical
Ġponteira s
Ġguarda roupa
Ġrefe rente
pris e
eng land
Ġcul tura
quipa mentos
Ġmadri d
Ġpolim ero
Ġlex mark
Ġoliv eira
viol eta
Ġdemol icao
Ġexercic ios
guip ir
marte lete
Ġmudan ca
Ġripil ica
Ġdisper so
0 387
9 47
9 018
a re
a ux
c po
g ed
h inhas
l vs
m jg
v ul
x h
an gelim
ti ce
Ġ3 277
ar da
es ul
es cultura
Ġn ine
01 26
Ġre quinte
ma gem
Ġcom peti
10 58
Ġ5 94
Ġ6 68
Ġ6 72
Ġ6 84
Ġro m
Ġ7 26
12 89
12 21
40 41
30 89
Ġ9 19
11 45
11 42
Ġpara barro
Ġdo w
me lao
se f
90 21
Ġ100 4
Ġsa bre
Ġcon form
Ġ00 15
Ġ00 37
Ġto ilette
Ġse ven
fa t
Ġam x
Ġbor b
di esel
Ġga t
Ġqu em
Ġcas co
Ġsu z
tr s
gra mas
Ġfe ito
Ġfe itos
Ġsuper man
et h
che v
Ġas w
bri m
gen erico
120 6
Ġge ar
Ġfil tra
Ġlan cheira
Ġfu maca
Ġesta cao
Ġpon tilha
dar d
Ġano tacoes
Ġultra s
Ġblo q
Ġuni polar
Ġsch neider
Ġcra zy
wn f
Ġdan foss
Ġcons ole
Ġtemp os
Ġvon ixx
Ġtriang ulos
jard im
Ġnes cafe
Ġestrutura do
Ġsco o
Ġhr v
Ġhero i
Ġoral b
Ġsuperf osco
cabide iro
pran cheta
Ġopera cional
Ġsmo oth
Ġfak ini
Ġfro ta
Ġfuji wara
Ġcabide iro
Ġkal ip
Ġbrea k
Ġwy da
tij olo
Ġtatto o
Ġalve olar
she ys
petis queira
Ġsemijo ia
empilha deira
Ġparmes ao
Ġstry ker
5 200
5 48
7 33
9 44
b isco
d il
f z
h q
h Ã£o
i mm
l entes
q db
v iso
Ġd ko
or in
Ġa vi
to re
to ys
Ġl or
do sador
Ġ4 900
01 27
Ġt cl
sa cao
ma re
ri p
10 55
Ġ5 86
Ġ5 62
bo tton
Ġ7 46
Ġ7 66
Ġj uli
Ġ9 85
ix ir
11 51
ica to
Ġdo me
Ġmo od
ten t
ve re
Ġdi aria
70 50
14 40
res id
Ġtra mas
Ġar gon
Ġref l
Ġto x
Ġto wer
Ġse cao
Ġpol ly
Ġpol icia
li ta
Ġman ivela
Ġinf lama
Ġfa br
Ġle gg
lan que
Ġti gor
raf it
Ġcur v
Ġlon garina
gg ar
Ġmod ula
can do
Ġtrib al
cu ia
Ġflo cado
Ġ11 90
Ġsh cond
Ġgo mos
Ġlt z
Ġmic ron
gra v
Ġri ta
Ġres pingo
Ġlar ge
Ġcla u
porta o
Ġpal ma
Ġcos tal
Ġoff set
63 01
Ġtr c
Ġel Ã©
58 00
09 1100
dia g
Ġag il
Ġ09 3
si rene
125 3
Ġjun cao
700 4
Ġju ice
sal opete
Ġvo gue
Ġtrava mento
Ġfan cy
Ġlaco ste
Ġdesen hos
zo lam
lis trado
Ġhi polabor
dea ux
Ġbs w
Ġfabri cado
Ġgi gabit
del ph
Ġstri p
Ġvan ish
Ġmem brana
ib ros
Ġpil low
Ġbeb ida
Ġbir ds
Ġdegra u
Ġocp rim
quite iro
stra ss
Ġcarna val
alvej ante
pican ha
7 99
8 150
9 42
b iv
c pa
d ilu
h k
j or
r nh
y m
Ġc edor
Ġm pro
00 31
Ġd ca
Ġd il
Ġd onal
ta das
is tor
Ġg ian
el ina
es se
es tufa
Ġn cm
01 30
Ġre vista
Ġ0 669
Ġes que
10 54
Ġ5 69
Ġpa tinho
Ġin duzido
ga cao
Ġ8 37
Ġ8 96
Ġla zz
Ġ10 75
Ġmo triz
Ġmo mbaca
me til
Ġlo vely
mo p
na tal
cha da
Ġbo zzano
Ġsa i
Ġtam pas
Ġbranco s
Ġra yovac
li on
34 01
Ġch ero
Ġje ito
Ġ38 6
Ġcas ada
Ġsin cr
Ġcan ad
sapa teira
Ġcol heres
st z
Ġ70 2
rol l
Ġpedido a
conj mm
001 000
ser rote
mon io
para cetamol
Ġ09 4
Ġbar i
Ġfun c
Ġdu bla
Ġbal dan
Ġmol in
Ġmer g
barra mento
Ġliqu idificador
Ġinver tido
gl ine
Ġtempe rada
103 397
401 4
Ġrap id
Ġspe edo
micro computador
ni ke
ome prazol
Ġplan tadeira
cula da
aro matizador
Ġfg m
Ġze us
Ġke ep
Ġder m
Ġviva ice
Ġdig itos
Ġbalan cim
Ġrefri gerador
ata c
Ġaze ite
Ġsig nature
Ġatlan ta
Ġclassi fic
Ġendo traqueal
gla mour
Ġbols inho
Ġescu do
vitta max
Ġchanf rado
Ġpubl ica
Ġpir ul
sna ck
Ġclu be
cader neta
cacha ca
apos tila
flox ac
maqui lante
uic heira
Ġsimona ggio
9 29
9 48
a chocola
e vo
g ly
n j
o ma
s ed
u os
w w
ra bicho
in tro
in ver
00 46
ca deirinha
Ġa radora
Ġs qu
Ġs ign
Ġb wb
Ġe at
Ġde ad
Ġl ÃŃ
es tar
ol ympikus
50 60
Ġre pro
Ġre vital
ma co
ran di
qu ilho
Ġca teter
Ġes tante
10 42
10 52
Ġpre tas
Ġ6 42
Ġ6 800
le ds
Ġin dic
Ġro dri
Ġ7 100
Ġ7 36
Ġk inino
000 20
Ġh elo
Ġla ris
Ġ9 46
Ġ9 82
Ġ10 29
Ġ12 11
11 41
ch inha
Ġdo gs
za o
16 30
Ġver sal
13 25
13 45
25 50
70 40
Ġna cho
Ġar uba
Ġpe ppa
Ġpro j
Ġman eq
Ġdes per
Ġ14 40
Ġno ve
Ġno zinho
Ġplas ma
Ġz l
Ġbor ne
Ġ60 7
man thracite
Ġcomp re
Ġ38 00
Ġq z
cas inha
pp ing
pre t
Ġflo at
Ġ80 8
Ġsl ing
pi res
bi queira
preto p
preto gg
Ġdup las
Ġban hao
su ed
Ġmen os
08 2
mes tre
Ġanti alerg
sen s
06 00
59 00
tubo m
09 00
tic s
Ġat tack
Ġbar r
par f
Ġpan os
Ġdu da
Ġ101 9
Ġpos ter
Ġbc icmsst
Ġ95 26
Ġbrin car
Ġau tr
fil o
Ġten nis
quad rado
Ġhp rime
cur sos
Ġer go
Ġct p
Ġis is
Ġlum in
menta da
Ġki ka
Ġcachor ros
Ġev idence
Ġpress Ã£o
Ġwide a
barb ie
Ġlig th
Ġconden sadora
Ġespeci ficacao
Ġconce ito
Ġspace fox
Ġbsc ss
Ġmaci ez
Ġencan tado
Ġdelica do
Ġtun el
Ġtren to
Ġshi eld
Ġportal vendas
Ġinse tos
war y
Ġlus tre
cons ole
yp ton
Ġglico se
ener getico
Ġsak ura
Ġpita ya
5 98
5 43
7 27
9 36
b icarbonato
b bler
c iv
f urador
n xr
p ie
s pin
x ad
Ġ ira
Ġm te
co z
to po
es paradrapo
Ġn w
Ġt sa
Ġt di
pa pa
de tector
Ġ0 2020
Ġ0 20000
10 31
Ġ5 99
Ġ5 78
Ġ5 71
Ġx enon
bo toes
Ġ8 39
Ġ7 79
000 26
Ġla na
Ġla bora
ba ra
ba con
ba ixo
ci to
15 15
me gane
18 85
Ġ15 25
Ġmar mo
Ġcon st
ja to
Ġar golinha
so cks
Ġpro xim
Ġto sh
Ġse ladora
100 14
Ġ01 12
Ġfa va
Ġfa mastil
Ġpo pa
Ġch um
Ġme tr
Ġu e
Ġ60 4
Ġ19 24
Ġga mes
32 20
Ġta vares
can t
val eo
Ġmul heres
Ġha pp
Ġpp m
Ġnu try
Ġ39 2
capa cho
Ġfo g
Ġ21 12
Ġsor ve
Ġge an
Ġ29 4
Ġpi er
Ġag el
vi tan
Ġjun ina
ag ro
wa ter
Ġmg m
Ġ101 3
Ġpos tica
Ġwa ves
ule ia
Ġano mod
Ġstra p
Ġgas es
301 1
zz y
Ġcobre com
Ġop tica
Ġnat fis
Ġcarre ira
Ġdobra do
Ġjg s
Ġaplica coes
men olobium
fri g
Ġtrip le
Ġsintetica parte
Ġhal l
Ġalon gamento
Ġcook ie
Ġalimenta dor
Ġacopla do
ono ra
Ġmala ga
Ġadap tacao
Ġcher y
Ġasso al
Ġespi gao
Ġwin cy
aj us
Ġlun ar
Ġbei jinho
Ġassime trico
Ġwash ed
Ġperu ana
Ġpix el
Ġdefu mada
escap ulario
Ġergonom ico
Ġske chers
tup per
Ġanim ale
Ġperig oso
Ġether net
Ġgiandu ia
achocola tado
6 200
7 29
7 48
8 42
k eira
s ist
v iv
00 80
00 38
00 48
Ġb su
da c
Ġv ixon
Ġg ta
en as
ha deira
el rin
ol li
Ġ4 79
Ġt ref
pa ral
ul ico
20 55
Ġes trada
10 51
Ġpre mol
bo ca
Ġ8 98
Ġ7 55
Ġ7 95
Ġ7 32
Ġh cl
Ġ10 21
Ġ12 90
Ġ12 17
11 89
22 11
me re
Ġlo ose
Ġlo mbar
Ġ20 210
po tiche
Ġdi e
con t
Ġ15 01
14 70
que za
Ġra c
100 001
li tico
Ġ16 25
Ġ14 15
ber t
Ġbr m
ad idas
Ġbe at
Ġen tra
Ġex austor
cor sario
Ġ36 000
Ġ17 11
Ġ17 22
Ġq boa
mb io
Ġ150 9
Ġama ciada
can el
Ġpra do
ana dor
pi que
Ġy ara
Ġy ear
Ġcre pom
Ġden uncia
am pola
Ġtr il
che iro
Ġ03 50
je quiti
fer t
iss ima
Ġprote se
ili fe
220 5
Ġtor ic
Ġpan socks
Ġsuspen sorio
Ġbras fort
Ġbel ina
ac em
Ġstra ight
Ġbrin des
itor io
Ġhy dronorth
Ġmis ter
uti ful
Ġcer da
Ġgaveta o
Ġtre e
Ġjac q
Ġbs uss
Ġsti cks
Ġcole ta
Ġsand ra
Ġmagne ti
Ġger m
del ta
aba fador
Ġseca gem
Ġecon o
ĠÃ º
Ġcoca cola
fos co
pedal eira
Ġantique da
Ġcarrinho s
Ġespeci fico
Ġfris ada
Ġnau tica
Ġfz k
pat inete
asso alho
Ġhusq varna
escri vaninha
comer cial
Ġtole do
Ġbree ze
7 65
8 100
8 43
f k
f fa
k ia
l ig
n to
n im
o as
q b
Ġp ls
Ġm io
ta se
Ġa be
Ġa gem
Ġa val
Ġe iri
Ġ2 135
al imento
ti dao
Ġv ca
Ġv anco
Ġg k
es tra
as persor
Ġ4 77
01 45
Ġt ps
Ġt ween
50 25
Ġo ss
10 69
Ġ5 64
Ġpre pint
Ġ6 600
Ġ6 013
ic ro
Ġro ca
lu xo
Ġk os
lo usa
30 21
va cuo
Ġ12 60
Ġcor s
Ġcor tada
Ġcor bege
ch id
Ġmo lar
Ġmo ana
Ġlo cker
16 24
16 21
Ġi gual
Ġver bena
Ġsa il
Ġw ides
19 20
Ġ00 80
ja q
24 40
Ġtra vas
Ġtra dicao
Ġ30 20
Ġst b
Ġpro je
Ġto i
Ġto w
Ġ18 40
75 01
Ġan dor
fe c
tan do
Ġdes lo
Ġno x
ine is
lan cia
vestido s
Ġu hf
bu ca
sh ell
Ġlu cas
Ġsu mm
Ġsu ica
iza Ã§Ã£o
Ġ13 17
pla ina
Ġsp c
Ġpin duca
Ġmic ros
Ġsil vestre
Ġcomb inado
bor ne
Ġpu ket
cre malheira
Ġcris tina
Ġsan rio
mon tante
Ġfil ter
Ġfil oso
Ġpi al
dia co
Ġterm ina
Ġtor pedo
Ġcl ink
Ġol ive
700 01
cx pap
tado res
Ġru a
cen t
at m
Ġmel ho
Ġ199 1
Ġiso lador
170 5
Ġsobre posta
Ġdescar t
Ġhel la
Ġ119 5
Ġpalha co
esp umante
Ġvinil ico
Ġtrop ica
Ġwal ita
Ġsed u
Ġhal ter
Ġvita for
Ġliber ta
Ġbalan co
eva p
cup im
Ġanatom ic
Ġalim ent
Ġflan g
Ġ79097 130
Ġcompon ente
Ġbich inho
Ġnerv ura
Ġoliv ia
Ġmateria is
Ġsou za
Ġtij ol
Ġindica dora
Ġsensa cao
Ġnip le
Ġsher pa
gir l
inst into
Ġinfant is
Ġcatar ina
lazz udur
cobal t
ilum inador
Ġespan hol
Ġdesta que
Ġoas is
Ġamas sado
Ġmicropor osa
Ġguian ensis
Ġconform idade
4 010
7 200
7 31
9 49
a vela
b v
b inha
i ft
k as
k raft
q k
x bra
Ġp sc
00 21
00 39
00 42
Ġ1 119
Ġ1 111
ca cao
te ca
or izador
co pia
co queteleira
Ġ2 118
al f
Ġco yote
en tro
on ibus
pa per
pa gos
Ġre play
Ġre ld
em ul
em bala
qu ita
Ġes tar
10 89
10 99
10 56
Ġ6 46
Ġ6 63
Ġx a
Ġx sara
ga tilho
Ġ8 64
Ġ7 37
Ġ7 44
12 27
12 63
Ġk h
Ġ9 16
Ġ9 999
11 48
Ġdo ctor
22 18
Ġmo bile
con ut
Ġ100 7
14 15
que ador
Ġcon tos
35 50
Ġ00 36
Ġtra mado
ce dora
Ġra beta
23 10
Ġcar lo
89 90
ite s
ge dore
mel ho
car dan
ita dora
Ġu hd
Ġaco l
Ġcha p
Ġ19 01
Ġcas cata
Ġmed ico
Ġta ranto
Ġ13 15
Ġgra ce
Ġpla x
short doll
ton al
Ġce go
41 20
41 80
ke tchup
Ġ37 1
Ġ39 4
Ġcamis ete
Ġ789 000
am erica
Ġ32 10
Ġcab le
Ġgu e
Ġgu ide
Ġmulti kids
Ġesp resso
Ġpor ti
Ġpor cas
fo ra
Ġag s
Ġim pe
Ġtur q
tex til
Ġven ice
Ġesta gio
Ġju va
Ġmil d
Ġlim o
cl in
900 4
Ġblo om
Ġdiv iso
401 6
Ġlocal izacao
Ġades ivado
Ġlubri ficacao
Ġ116 7
Ġcole gial
Ġsand ing
Ġsaco las
Ġtsh irts
eletro calha
Ġ7908 2048
Ġ7899 66
Ġcross fox
Ġrece p
Ġsof istica
Ġnk f
Ġisa bel
capo darte
Ġang ulo
cox inha
Ġdun as
Ġtransporta dor
Ġexplo rer
ceto conazol
Ġbud de
Ġdefu mado
trac tive
gene romulher
sti hl
Ġdimen sao
jer icao
Ġnauti ka
tube te
Ġpaisa gem
Ġkha ki
posi tivos
Ġportatravesseiro s
Ġcoura tari
Ġinspe cao
Ġlaris sa
6 42
a mb
f tan
t ranca
Ġc va
Ġp br
Ġp he
Ġp tas
ra t
Ġm Ã¡
ca chor
Ġa br
Ġa pol
Ġs ia
Ġs lub
Ġe o
Ġe po
Ġ2 222
er vilha
Ġl up
Ġl oss
al is
ti que
ha el
01 39
pa to
un ia
sa cl
50 70
Ġre is
Ġre pelente
de tal
de ck
ri pa
ri pao
20 42
em an
Ġ5 73
Ġ6 86
le treiro
us plat
Ġ8 38
Ġ7 27
Ġ7 98
Ġ7 74
Ġun ilife
12 46
Ġk ik
Ġh its
Ġ9 66
Ġ10 26
Ġdo ol
Ġal par
Ġmo un
Ġlo gus
Ġ20 25
pe z
cha ta
18 40
Ġbo om
Ġ15 13
Ġw l
Ġw an
19 30
17 21
Ġar v
Ġpe pino
fa me
Ġbas s
Ġfa vo
Ġdes natado
Ġle ticia
Ġplas tificado
lan to
tri turador
man ns
ito nas
Ġlon gos
Ġta pioca
pre dn
for o
mi de
Ġ11 12
96 00
ton ia
Ġdire tor
41 60
Ġha t
Ġpp r
Ġsuper max
Ġgr f
Ġ789 1027
am ido
Ġas x
Ġgu ara
Ġel le
Ġsal gada
fi lado
ser vi
Ġap erto
ex tru
Ġfer r
cin ped
ea to
ly s
Ġbra ve
tos copio
Ġcl os
Ġju vo
Ġperf urado
fl stb
sil verado
Ġher sheys
Ġran ge
Ġth under
Ġturbo gas
Ġgar i
ill ing
Ġeletro calha
vinil ona
Ġstandar t
Ġmine iro
Ġblus inha
condicion ado
Ġvit ro
Ġtamanhog cor
Ġpolie t
cigar ro
Ġalimenta dora
Ġgro ss
Ġcaneta s
dri ver
Ġecolo gica
Ġpico tada
Ġaque cimento
Ġari zona
Ġviole tera
quite ira
Ġacondicion ados
Ġgradu ada
Ġboo ts
Ġindu tivo
Ġarredonda da
Ġarru elas
Ġarq plast
Ġformig res
Ġhidrolis ado
margar ida
rafit thy
Ġtosh iba
Ġwides creen
8 67
b ull
j us
l isa
p q
t ran
z r
Ġc cx
ra pa
ra bo
ra tura
00 44
Ġd cp
Ġ1 116
ca vadeira
Ġa os
ro das
Ġb ine
Ġb vi
Ġe pi
Ġe cg
an jo
Ġv icmsst
ar gila
Ġn im
ma os
ma za
de calque
em e
em ar
10 43
10 67
Ġpa es
le ta
Ġin su
us or
Ġ8 29
Ġ8 47
Ġ8 014
Ġ7 67
Ġ7 73
Ġun unica
30 35
Ġ9 29
11 99
ba las
ba bado
60 30
60 22
22 19
15 17
Ġlo rena
na ra
90 23
con f
Ġaz ula
19 13
Ġ00 23
Ġte ar
Ġna tur
Ġpe tite
Ġst yl
Ġto l
Ġped int
Ġ16 11
Ġ25 50
26 40
34 48
28 70
tan k
Ġdes colorante
Ġam ido
gr f
Ġti mer
Ġestampa das
Ġex presso
99 99
ver g
di f
Ġne ver
Ġsem p
Ġlu ar
cas tor
32 19
Ġta feta
Ġest ran
Ġter n
pc r
Ġres inada
Ġban hada
Ġ26 50
Ġcab new
Ġsal ermo
Ġros eta
Ġmb ustivel
Ġsor r
dura s
09 4
Ġ09 2080
Ġ55 1
Ġultra sson
xa rope
mos quetao
Ġvar i
190 5
Ġtro cador
Ġis ento
Ġmu riel
Ġcompos ta
cab ine
Ġrena v
gol den
Ġtre m
ret te
Ġcole tora
flo wer
flo reira
Ġ325 000
Ġsta bil
cod barra
Ġhar ley
Ġmode lagem
Ġvit ral
Ġfort rek
Ġrock et
Ġover lock
Ġcoru j
Ġspecial ized
Ġlic hia
Ġaze itona
Ġdivis or
Ġpeda co
Ġlady bug
Ġenx ada
Ġfro st
Ġvitam inas
dig ital
Ġfloren ce
Ġpie tra
aroma gia
Ġcem ent
Ġfortale za
Ġmercur y
Ġapr l
redon do
Ġmantimento s
Ġbotica rio
Ã¡l vula
crea tina
Ġmonito ramento
Ġipi ranga
Ġgole iro
Ġultras som
xad rez
Ġtween ie
Ġbudde meyer
1 125
7 47
7 110
8 89
8 33
d ing
i ka
q linha
x is
Ġ iogurte
Ġc st
00 37
Ġd io
Ġd cr
Ġs wa
Ġe ros
is ona
Ġco dor
Ġv inagre
Ġv brake
es f
01 80
sa bon
Ġre at
il ol
20 39
Ġ5 49
Ġpa v
bo las
Ġ8 0000
Ġ8 97
Ġ7 47
Ġ7 94
Ġk em
Ġh on
Ġpreto g
Ġpreto m
Ġma rea
Ġem porio
Ġmo e
mis s
cal deirao
mo t
90 50
90 25
gu m
70 35
14 11
24 25
24 28
Ġna tubom
Ġba ter
Ġba cker
Ġba hia
Ġra ios
Ġra jado
Ġpol vilho
Ġman go
26 80
Ġ40 20
Ġbas il
39 20
Ġdes ig
ru der
mp el
Ġcin tos
kg f
br m
Ġcha v
Ġga te
ado cante
48 30
32 11
Ġta tuagem
col heitadeira
Ġpar da
Ġ37 00
Ġ22 000
Ġden til
ind us
Ġoleo sa
bl ister
Ġdis trib
09 3
ds on
Ġjun gle
Ġcomple te
ian to
Ġesta gios
Ġprof is
Ġmil ita
Ġbel ize
meia o
sal eiro
Ġpet isco
Ġabs trata
789 8535
Ġinte g
Ġlin guica
Ġexp ander
Ġmu das
Ġpassa ge
reg on
Ġlen ox
Ġbon ita
Ġclo g
Ġmara ca
Ġsim bolo
Ġamar ilis
Ġty pe
Ġaceta bular
espe cial
sar rafo
Ġbarba ra
Ġkel y
Ġnar guile
Ġcher rie
Ġabsol ut
Ġgala pagos
Ġacc elo
Ġperi fer
cach imbo
Ġcid reira
Ġpha laenopsis
Ġspen sao
Ġjabo randi
luk ma
Ġ10209 7800
calibra dor
Ġhua wei
Ġreale za
Ġexporta cao
Ġdubla gem
6 41
u z
u ver
Ġc ral
Ġc ftv
Ġp lo
Ġ1 115
Ġ1 118
Ġ1 117
ca a
Ġa parente
ro sh
Ġb ito
co so
to uch
Ġg ws
Ġ4 31
Ġt ch
Ġt mx
pa racao
pa quimetro
de as
Ġo la
Ġo tto
em pres
Ġcom ics
Ġ6 201
Ġx pg
tam il
os tras
Ġ7 38
lu re
12 33
12 66
12 59
Ġj ess
lo real
40 70
30 65
Ġ9 34
Ġ9 97
Ġ10 38
Ġ10 44
Ġma ggi
Ġ12 25
11 95
ch el
Ġem pina
80 22
Ġal v
Ġi e
Ġsa mambaia
Ġoc tra
Ġ00 90
Ġte matico
24 20
24 10
uro s
ce reais
23 50
23 20
Ġ25 01
Ġan idro
fe ma
28 25
Ġ14 000
44 20
man equim
Ġ19 58
Ġcal ig
Ġcan cun
Ġgra mmer
Ġflo re
Ġ37 4
Ġvi la
bol inho
Ġden ver
et tone
Ġ000 38
Ġgran ada
Ġflex icom
Ġas tro
72 20
02 20
th an
fi ti
mon za
120 7
220 3
Ġprin ce
cli pe
pl ica
ess on
Ġtubo lar
Ġcp vc
cap im
cane lado
Ġass im
rinho s
Ġaf ro
Ġsun down
Ġ114 3
Ġfra g
Ġgor ro
Ġpente l
Ġfen zza
pri x
Ġinten sa
Ġtech no
Ġvic enza
Ġbul k
Ġbot tero
Ġlol ly
Ġcorbranco tamanho
Ġcamba gem
dro ps
Ġbir ken
Ġtranslu cida
Ġclin ica
Ġrolam en
Ġhibri da
trali zador
Ġserr ilha
Ġbeija vel
4042 13
quar to
Ġpulver izacao
nav alha
Ġnotur na
Ġtimber land
Ġinflama vel
Ġchero kee
5 78
8 47
c pu
d entes
f sc
j n
j bc
r linha
s ut
u ja
y d
Ġ icone
Ġc da
Ġp and
Ġm ica
re ady
Ġb ps
to eira
Ġf mp
Ġf ux
Ġf hd
er y
Ġco ord
ti f
Ġv ime
Ġ4 140
Ġ4 013
Ġn tc
01 38
01 56
Ġt tr
un ge
sa gem
ul ta
ma mao
Ġes pada
10 84
Ġ5 77
Ġ5 72
Ġ5 82
Ġ6 89
Ġ6 94
Ġin ducao
it ron
Ġ7 99
lo g
30 43
Ġ9 28
11 47
11 56
tro it
Ġmo das
ur il
16 90
mo bile
na x
cha mpagne
18 15
Ġ15 70
Ġ15 24
Ġmas ti
Ġcon feite
res er
Ġ00 003
17 22
17 18
Ġtra queal
tico na
Ġref produto
23 18
23 70
Ġ16 17
ge x
Ġfa tor
29 76
Ġam per
Ġch v
Ġplas tificada
tri go
Ġbe xiga
Ġve b
Ġu tp
cor n
Ġ19 86
Ġga ia
pre tom
pol ho
Ġama c
Ġgra cas
Ġcro wn
Ġcol he
ms ter
Ġdire it
Ġri dge
ona de
Ġpp f
Ġ000 26
Ġas sado
lam bril
Ġap is
Ġmb ps
Ġnatura ls
Ġmax imo
Ġpri va
Ġcil s
Ġcristal lo
220 7
Ġny c
Ġcl ic
Ġnr mp
Ġven cimento
700 9
Ġgraf it
Ġcapa c
comp os
Ġau da
pres unto
at w
Ġbio tipo
Ġtempe ros
Ġext ru
Ġfri day
Ġsis bov
Ġrs m
bla de
Ġana t
end inha
Ġpersonal izadas
Ġ67 98
Ġcora marelo
Ġsua v
fun ko
Ġseg mento
Ġbea utiful
Ġesca vadeira
Ġajus t
gs m
imo b
gro und
Ġhar pa
Ġarti fic
Ġdz arm
bm w
Ġorto pe
Ġadvan tage
Ġjas min
Ġpran chao
Ġreche io
Ġanal ise
Ġgaro ta
Ġquadra dos
Ġflan nel
Ġei ffel
Ġranh ura
Ġprec urada
Ġextre mo
evapo radora
Ġpaci ente
Ġeletric ista
Ġfemen ino
Ġcoll ins
Ġflutu ante
condu ite
Ġjura ssic
Ġeiri lar
5 400
7 42
a to
a ct
b est
c nh
c enoura
g anthracite
h ort
k an
s can
u fa
Ġm pi
in c
Ġd ux
ta upe
Ġa bre
la minas
ro en
co pos
to sa
Ġf j
Ġf eira
Ġe j
Ġe ws
ti um
ha u
ha pe
Ġn em
Ġn iveis
Ġt Ã©
sa bor
il da
ul us
Ġca ibros
Ġes merilhadeira
10 41
10 63
10 448
Ġ5 100
Ġ5 31
Ġ5 102
Ġpre ven
Ġ6 79
ic lo
bo ot
bo tijao
ga m
Ġ8 28
Ġ8 33
12 36
12 28
Ġj t
Ġ9 27
Ġ9 31
Ġ10 65
Ġma mao
Ġma ya
Ġcor res
ba lanc
up s
za xy
gu an
con dic
25 20
Ġmar ino
Ġaz era
Ġsa zon
Ġoc t
Ġtam an
Ġcon qu
camis as
19 50
Ġ00 27
Ġ00 005
24 50
no velo
Ġtra y
Ġped ro
Ġ01 60
Ġ01 03
21 70
Ġpo ma
Ġz s
Ġen gen
Ġti fan
man t
Ġcomp el
Ġlon guete
lus tra
Ġ13 10
Ġ13 24
can ce
Ġ300 3
des cascador
Ġsh el
500 5
pu re
Ġban k
et ina
Ġ789 1354
Ġmole jo
ele tri
150 2
Ġ48 2
Ġ48 3
Ġel isa
Ġel Ã¡s
Ġsal via
Ġros q
08 6
Ġslim e
Ġap uleia
Ġfol h
iss i
62 10
Ġos ter
Ġtan dem
Ġfran jas
Ġlim itada
Ġtec nica
Ã¡ tico
301 6
Ġunivers itario
Ġ4500 26
Ġop coes
789 84
plas tic
170 2
Ġsho re
com pa
Ġher tz
Ġcora Ã§Ã£o
Ġfash n
Ġliv ia
nu d
Ġdar dos
Ġson o
Ġ116 1
Ġdura cell
Ġlr j
Ġsta tion
multi metro
Ġger med
Ġcross fit
Ġresfr iamento
Ġhol ly
passa manaria
liv ros
Ġquadri culada
Ġrebite s
teste ira
Ġspo iler
Ġdesidra tada
Ġrecorta do
Ġreconstru cao
Ġnapol itano
Ġguaran y
bole ro
Ġquartzanlgocx aco
escu madeira
amox icilina
Ġbend ix
floxac ino
Ġporti olli
6 4500
8 64
e tos
s pi
y la
Ġc imenta
Ġp icmsst
Ġm elo
Ġm udo
00 90
00 43
Ġd vo
Ġd hb
re tifica
or quidea
Ġa tra
Ġs cud
Ġf id
Ġde vol
do t
Ġco g
ar go
en vol
as ep
01 57
Ġt po
sa t
Ġca io
Ġ5 52
Ġ6 78
mm f
Ġro u
Ġ7 48
lu pa
40 25
Ġcor dourado
11 36
Ġdo min
60 24
60 96
tro z
Ġal con
Ġal ive
Ġlo usa
Ġlo oney
Ġdi plo
pe qu
pe tit
cm st
14 30
Ġ00 70
Ġte ster
Ġna tiva
Ġpro jetor
Ġra mos
Ġ18 10
Ġ18 13
Ġan il
Ġ01 10
Ġfa tal
vo dka
Ġdes ma
Ġdes os
Ġle on
Ġle ga
Ġam ianto
Ġch el
Ġen tr
ru bi
kg x
pro va
pro lol
bu ch
Ġ19 49
Ġcur up
Ġ45 4
Ġsp or
Ġsp ike
des li
Ġcro c
Ġtrans i
Ġgol gran
Ġ789 93
Ġ000 474
Ġcho cola
150 9
Ġ48 7
Ġel im
Ġsal lo
64 10
Ġ27 1
Ġcr ypton
vas elina
mon ica
ze ma
gi va
Ġat w
07 1
mol o
600 7
Ġlam en
140 2
mer il
vi ar
Ġ43 30
max x
900 5
Ġfron has
pul gas
Ġ4500 22
Ġmf mss
esto pa
Ġcv t
801 8
sil o
Ġlocal izado
Ġaf rica
Ġcs n
Ġrefor ma
Ġcopo bras
Ġ59 10
eletro ventilador
Ġale tas
rex idina
Ġsr t
hel ico
Ġlixa do
Ġcn c
pera triz
cis teina
Ġcache po
marca cao
Ġperfu mada
Ġjor dan
liqu ido
Ġesporte s
Ġpresilha s
glo bo
Ġbanda gem
Ġvitam in
ĠplÃ¡s tica
Ġarras tao
Ġnic hos
Ġliver de
Ġcac tos
hum an
Ġwill ia
Ġbou quet
Ġdesk top
Ġmichel in
Ġlato nado
Ġoita vada
cale con
lido caina
Ġminu ano
Ġnava gio
5 79
8 200
9 28
a pple
a cionador
d le
d vr
e w
i gado
p anthracite
p Ã§s
s mt
x f
y n
00 100
00 55
re trato
te co
Ġs id
Ġb ts
Ġde posito
an dador
er izavel
Ġco conut
en ero
es cort
01 34
01 48
pa lanque
un idades
Ġre tificacao
20 90
Ġo dora
Ġo bras
10 77
10 62
Ġ5 83
Ġ6 98
tam o
Ġ8 26
Ġ8 56
12 26
Ġk in
Ġk ris
Ġ9 36
Ġ9 42
Ġ10 33
Ġ10 48
Ġ12 45
Ġ12 34
Ġr tx
11 34
11 46
11 43
ba y
60 70
ci tante
ne ck
Ġal em
22 24
Ġmo i
Ġmo di
15 000
15 70
Ġlo mbo
cal cola
16 22
ve i
mo bil
Ġ15 0000
Ġmar shmallow
14 24
Ġ00 60
17 37
Ġte linha
tico ll
Ġpro ib
Ġto ol
Ġda i
Ġda ys
ida d
Ġse quen
Ġcar da
Ġcar los
26 30
Ġan s
Ġan ilha
calca s
Ġval ent
Ġno bu
jo ula
ver n
Ġbor deaux
33 20
33 17
Ġml h
Ġor galine
Ġsup ers
Ġcha pas
Ġ17 60
ion eta
mar g
mar mitex
Ġcro chet
Ġflo p
Ġ90 6
Ġ80 6
41 10
Ġ02 40
Ġ70 4
Ġjo ystick
Ġnu ance
Ġtu f
inel os
Ġ000 6
der mo
Ġgran ulos
tina to
Ġmen u
pas so
Ġel ixir
Ġfo am
03 01
ea o
Ġed en
Ġcu ticula
Ġgal lo
Ġtop z
Ġcombus ti
cr m
Ġlan te
Ġly on
Ġdel icia
Ġms g
Ġmoto ciclista
Ġau ten
Ġflor zinha
Ġbermuda s
112 2
quad ros
gl ico
Ġpel ic
Ġcli pper
ale u
fol ia
inf masc
fus ion
Ġbt c
Ġenca derna
off white
fecha mento
Ġaero na
Ġmassa ge
Ġespa cadora
Ġci bie
Ġaplica vel
Ġpero lizado
Ġger ia
del ineador
hor quidea
Ġpig mentada
Ġconfe te
caps ulas
Ġbrown ie
tol ina
Ġcorpretotamanho g
Ġob longo
Ġcarta z
Ġcontin uo
spa ce
Ġcalo i
Ġmira ge
Ġrepa racao
char rel
Ġ7909 65
Ġmati zadora
Ġpatri monio
Ġharmon y
Ġalmofa dado
Ġconfecci onado
Ġdesidra tado
Ġuti lar
wal k
Ġ89550 46
moda re
Ġintro ducao
tenol ol
dril le
Ġorel has
Ġengor da
Ġdida tico
Ġcash mere
Ġcitri cas
Ġpirul ito
asep xia
a vel
h h
l one
s cania
t relica
w t
ra Ã§Ã£o
in ol
Ġa pu
Ġa brac
Ġs ir
to y
Ġf ul
Ġf ry
Ġe lan
Ġe quipamentos
Ġ2 117
Ġde mi
Ġde tona
an gel
Ġl w
Ġv u
Ġv il
Ġg is
Ġg fa
Ġg pon
es tic
on ca
de do
20 37
Ġo regon
Ġ6 56
le i
Ġro di
Ġ8 24
Ġ8 68
Ġ7 28
Ġ7 800
Ġk dori
Ġk icks
000 50
Ġla je
30 34
11 39
11 69
11 57
ch ips
Ġem bra
60 23
ci rc
Ġal en
Ġal ica
con creto
18 30
Ġbo ho
Ġbo hem
Ġmar m
14 16
14 26
Ġsa wary
Ġtra p
Ġpe ti
Ġst k
Ġse tor
Ġcar n
Ġcar nes
bra y
Ġpo kemon
27 40
Ġle onora
Ġam pola
Ġno tas
Ġu h
85 01
Ġ19 315
Ġqu ot
Ġqu ick
Ġ45 6500
cas ca
cas co
76 00
0000 10
ris que
st l
Ġtrans l
ros as
Ġ22 13
pen is
Ġja mes
Ġsk il
Ġ789 83
Ġtrase ir
400 8
Ġsus hi
Ġbi f
ka zoo
Ġroda gem
fo te
ped estal
600 6
Ġdianteiro em
Ġus ina
Ġ07 00
tia ia
Ġtan go
tamanho s
gar to
gar raf
cx p
Ġmag nolia
ko f
Ġgre til
Ġflor ido
tela da
Ġfri to
lim peza
Ġthe rapy
Ġhel iar
Ġfres co
Ġwor king
gal inha
Ġ116 8
Ġfina me
Ġlux e
rex ona
Ġgri fo
xx x
Ġviva i
Ġflow pack
fos fato
Ġsant ino
Ġdro etker
Ġversa illes
mag ic
Ġespeci fica
Ġhum ano
Ġsto re
sha pe
tala barte
sobre mesa
Ġprecis ion
Ġcarra ra
Ġtul ip
Ġhil lux
Ġradia d
quinte ss
tw ister
Ġempilha vel
Ġacus tico
4035 97
sinal izador
Ġflane lada
Ġcoo per
ĠÃ¡ gua
cere ja
Ġglicer ina
Ġinde term
Ġfisi ologico
donna y
loren z
Ġoctra zer
0 202
5 100
7 010
7 017
c icatri
d inos
j l
m wm
r ilha
x re
y lon
z elo
Ġc ina
Ġp len
Ġm go
Ġm orte
Ġm entos
in il
Ġ1 175
re du
ta cho
Ġa vo
co pa
to tal
Ġe ro
Ġde mon
Ġg um
ar ticula
Ġ4 72
01 44
01 47
pa tim
pa pai
ho k
de k
de mais
Ġo em
Ġo pp
Ġcom eta
Ġes pre
Ġes guicho
10 98
Ġ5 89
Ġ5 32
Ġ5 79
Ġ5 800
Ġ6 4500
Ġin pm
bo vs
os tos
Ġ8 67
Ġ7 93
Ġ7 215
000 80
Ġla Ã§o
30 28
Ġ9 49
Ġpreto p
Ġma z
Ġma desa
Ġcor tante
Ġcor preta
11 98
11 71
Ġpara cho
ch y
Ġem pre
Ġem bolo
60 20
me ias
Ġ20 88
16 17
mo mo
13 52
70 29
Ġ15 16
14 22
Ġaz ulado
Ġw aleu
Ġte st
Ġte mas
Ġar thi
ce ptor
um bens
Ġba tizado
ida zol
Ġra v
Ġpol tronas
Ġman guinha
Ġ01 06
Ġtri m
Ġad i
Ġam onia
car bon
Ġch ens
jo ur
raf os
Ġve u
imp les
imp ressos
Ġor io
Ġli bras
pro vador
Ġ19 82
48 01
Ġq s
0000 6
Ġ13 30
Ġele ct
Ġsp ar
Ġsp orta
Ġcol ch
Ġha rald
pc x
Ġ22 80
Ġfe c
bol sas
Ġmetal frio
Ġpt preto
pen as
Ġmen s
Ġ48 6
Ġdis positivos
Ġmb g
120 9
Ġge ek
Ġfil h
sc rub
07 506
mc c
Ġcl r
pon t
Ġcafe teira
800 01
210 3
cl ick
Ġfr m
180 4
Ġpen as
Ġmoto cross
900 6
Ġflor ipa
Ġmor to
Ġhy po
ime ticona
Ġvis conti
Ġfri gideira
fol io
Ġdescar taveis
Ġdesen vol
Ġfel p
Ġnor ma
Ġmun ique
Ġsegu ran
Ġeletron icos
sol d
tern as
Ġcit r
Ġalterna da
Ġvaria vel
Ġpedra rias
Ġlux ury
term ica
ua is
fru tas
Ġpia ta
Ġcross er
Ġsinal sul
Ġorigem china
Ġeste reo
Ġteste ira
mec tina
ciona vel
ges so
fal ex
Ġagra tto
Ġsaca polia
Ġpag inas
Ġconti tech
Ġlaran jeira
Ġemba lado
odor izador
Ġwm ns
Ġalba troz
Ġcarte las
Ġhell manns
Ġmedido ra
Ġalea tory
Ġphy to
Ġodora ta
8 32
9 76
a qu
f tex
k mf
l un
p ha
p tero
s le
s ba
x iaomi
Ġc raft
ca roco
Ġs tel
Ġl icor
Ġco brir
Ġ3 147
Ġv izz
Ġg hz
Ġg inastica
ar ru
ar tigo
on to
Ġ4 784
Ġt ca
50 20
Ġre vela
Ġre bel
ri cos
Ġo g
qu io
10 86
10 87
Ġ5 92
Ġpre dial
Ġ6 43
Ġ6 71
ed dar
Ġx e
Ġx al
Ġ8 44
Ġ8 76
Ġ8 52
ter s
ter yx
Ġh h
Ġ10 36
Ġma triz
Ġ12 99
tor rada
11 66
11 68
11 67
11 58
ba b
Ġal lure
16 15
Ġi gre
na val
ino moto
gu lador
18 22
Ġbo tas
Ġbo uts
Ġmar ting
Ġmar tins
14 000
que to
so b
Ġ30 30
Ġcar toes
uto n
Ġfa cao
Ġpo as
27 11
Ġle vel
Ġle vante
Ġam ber
Ġam pl
Ġch m
Ġplas tr
Ġz an
di to
Ġcomp ass
Ġlu iz
Ġ45 013
Ġ13 25
Ġpla quinha
Ġ80 9
ton s
Ġkit sch
Ġtrans gen
Ġtrans formador
bi b
Ġri ca
Ġnu tr
Ġpas chassi
Ġja bu
pr d
400 9
ele ck
ced ro
Ġtr unk
pas sador
Ġcr c
Ġmulti pla
Ġmb w
ux inha
Ġvisco sa
bucha mento
Ġat Ã©
ili an
Ġim b
140 5
Ġny l
Ġprof it
Ġaro eira
Ġdel ic
210 6
210 9
130 7
Ġstar ret
Ã¡ ria
zz le
Ġvin co
esto es
Ġlin do
Ġbasic s
Ġtx t
Ġcora c
Ġmos queta
garrafa o
Ġcf g
Ġdec umbens
Ġtran coso
hd mi
Ġsti r
Ġcond ulete
Ġdra g
Ãª s
Ġfort mix
Ġroup eiro
Ġferra dura
flu or
Ġeletr Ã´nico
fura d
star key
Ġgarden ia
Ġdim ens
Ġbarbe cue
Ġcali bre
Ġderi vacao
Ġencolh imento
Ġfelpu da
Ġsty lis
574 100
Ġcatal isador
his toria
Ġrecorta da
Ġhik vision
Ġaparel hos
Ġmah le
Ġ78918 35
Ġeleg ante
Ġ789998 25
arran jo
cami er
Ġental hado
Ġrepeti cao
Ġente ral
ĠbÃ¡s ica
baga geiro
Ġccx np
Ġtern ura
balanc im
Ġsequen cial
falex ina
5 49
5 88
5 300
5 41
6 32
7 97
9 31
a is
Ġ ortecedor
Ġp mp
in ense
Ġd li
Ġd sc
Ġd pl
or den
Ġa pla
ro to
Ġe io
Ġe pr
al iv
al face
Ġ4 91
Ġ4 016
sa mo
Ġre bu
ma p
ma pa
ma mad
Ġo ggi
em bl
Ġca melo
Ġes quad
Ġpa uta
Ġ6 300
Ġin cepa
mm c
bo tas
tam pas
Ġ7 63
Ġk fb
Ġh n
40 45
30 27
Ġ9 37
Ġ9 76
las anha
Ġ10 47
Ġma gg
Ġcor deiro
ix i
11 31
up orte
80 20
80 40
ur ta
tra tamento
Ġdi fe
90 90
13 30
13 46
18 12
18 14
Ġ00 000000
Ġtra mon
Ġpe gador
ce b
Ġse ren
Ġ16 36
26 22
be i
Ġdes taca
Ġam ster
ine ken
ad it
Ġbor o
Ġbor das
man guito
Ġli e
Ġli to
Ġcal do
gg anthracite
Ġcm c
mb ol
Ġkg f
Ġta nara
47 8960
Ġpar lock
ros ivo
gra vador
Ġres er
Ġsuper io
Ġban do
Ġban ner
Ġja q
Ġmole t
ele tr
Ġsinte t
Ġas m
Ġ48 000
top y
Ġmescla da
dic lof
Ġdis penser
mal wee
Ġchave iros
Ġsor o
pin gadeira
ze rano
Ġ29 00
don t
Ġbra Ã§o
fo rever
cil e
cil ia
par t
Ġtor res
83 23
bas ica
pan icum
700 7
ista tina
bon y
Ġ790 969
Ġmal lor
cb x
Ġpl g
Ġpl ena
yo u
Ġvo vo
cam bo
motor redutor
guar n
Ġmono grama
112 7
cra me
Ġbaba dor
Ġhy menolobium
sand ha
Ġsho yu
Ġfel ipe
Ġnor onha
ang ulo
Ġata c
Ġtran cas
Ġcond imentos
Ġmate lado
Ġci randa
Ġeletro litico
Ġfabri cante
Ġplu gue
fri os
inte tica
ax or
alcool chassi
Ġhu g
contra pino
cone te
num ia
Ġendu rec
Ġisa bela
Ġalo jamento
Ġsanf ona
Ġdiag nos
Ġfon tana
Ġdun lop
Ġgy m
Ġaga ve
cloro tiaz
Ġlio ff
Ġdepi la
Ġdimen soes
Ġhik ari
Ġasf alto
Ġtintura da
Ġlumino sa
Ġmares ia
Ġatend imento
Ġrepe at
Ġadel bras
Ġket chup
Ġmerg ulho
Ġvanco uver
5 89
8 63
h inho
i fica
n iss
p ica
p Ã©
r inhas
s ino
Ġc racha
Ġm bl
Ġm kt
Ġd ale
Ġ1 135
ca ri
ca mba
re ferencia
Ġb te
Ġb tu
to tem
Ġe ri
Ġde troit
er i
Ġco pe
ti metro
es ton
Ġn iv
pa pe
ri to
em p
Ġca ram
Ġ5 63
Ġ6 33
Ġ6 59
Ġ6 61
Ġin plast
bo ti
bo pp
Ġro te
ga reiro
Ġ8 49
Ġ7 43
Ġ7 69
12 38
Ġk ilos
30 46
Ġ9 17
Ġ9 100
Ġma tsu
Ġr z
11 97
Ġpara da
ne uro
80 55
Ġal me
Ġal pino
ur inha
15 85
Ġlo ft
Ġi ec
25 60
Ġbo oster
Ġbo dies
Ġ15 40
Ġ15 90
Ġmar r
Ġsa g
Ġsa x
Ġso rento
Ġ30 50
23 60
Ġman iv
36 40
Ġ01 90
fe itos
28 750
39 01
Ġme trica
tri ciclo
ante mo
Ġpc ts
ver tino
Ġsem ino
cor cinza
Ġor den
Ġga uss
Ġ17 12
Ġ17 14
Ġfor n
ras te
32 50
66 01
Ġfre i
Ġbol t
tar ra
Ġce c
ut h
gra m
Ġvi de
Ġban h
150 6
Ġtr ilux
fi er
Ġ21 70
bl d
Ġmulti fun
Ġbaby look
250 2
ux e
Ġhidra ta
Ġcu bas
Ġfun ada
125 1
Ġprof und
Ġgraf ito
Ġlim ited
Ġcap tiva
cl c
Ġwa x
prote ina
sand traseiro
Ġmr h
cane cao
Ġara mis
Ġher bal
Ġpedcli ente
chu v
Ġdan ce
tiv idade
mil itar
Ġeli ana
gon dola
Ġclo reto
Ġ7908 4085
Ġdon adu
Ġrc pt
Ġacr ÃŃ
hu b
Ġnes fit
Ġprog ress
Ġnar iz
Ġamorte c
Ġnov os
Ġlia zul
Ġlap idado
Ġbate dor
vento sa
cif ico
Ġcele ron
Ġtransmis sor
Ġener getico
Ġabra vanel
Ġmand ril
Ġfior i
tamin ico
Ġnega tiva
Ġortodon tico
Ġacos tamento
Ġpru dence
Ġantialerg ico
Ġartific iais
2 115
6 400
7 43
8 010
9 27
f te
f ior
f ish
m ort
m onte
o i
p z
p ulo
r w
s ele
u bio
00 56
ta u
Ġa fi
Ġa randela
ro ad
Ġb mx
co elho
co urier
Ġe ferv
Ġl ica
is ma
es sa
Ġ4 700
01 46
20 44
20 200
qu ente
Ġpa mi
Ġpa reo
Ġ6 97
Ġro ger
Ġ7 76
lu g
12 57
Ġk on
Ġj os
Ġ9 89
Ġ9 47
Ġr ne
Ġr chlo
11 32
ml t
ci g
Ġ20 95
16 80
se o
pe p
cha ira
18 19
Ġ15 18
Ġsa tinato
que ima
Ġcon cursos
19 19
17 12
17 35
ja guar
Ġna da
Ġar isco
Ġpro v
Ġba yer
Ġba ioneta
Ġto nela
Ġra mal
Ġse culus
45 000
Ġ18 16
26 16
ite l
Ġfa das
Ġad dan
Ġpo da
27 25
Ġle t
car bo
55 01
Ġ14 28
Ġno d
Ġne uro
33 40
man da
Ġ19 75
conjunto s
Ġga p
Ġqu ina
Ġq c
gg s
Ġ13 14
Ġele tros
Ġmalha s
col on
cu ca
Ġ11 000
Ġtrans icao
ros ene
Ġ120 5
Ġ70 6
Ġpp b
Ġja pan
Ġmole que
Ġ000 28
vol ine
am etasona
Ġflex o
che f
Ġel g
Ġpu ido
Ġquad ril
fi tilho
64 5030
Ġ110 4
Ġcr z
Ġlarg as
Ġborracha s
Ġtecido plano
86 00
Ġat tractive
Ġeletri cos
Ġcombus tive
bro xa
Ġdu blin
Ġus bc
Ġol inda
Ġespe tos
per neira
Ġka te
210 4
comp l
Ġcanela o
sal gado
papel eira
Ġbri g
esta cao
fic ina
tur ma
Ġvin yl
cer ca
789 707
Ġox ig
Ġdisco very
Ġpoli bras
moto lia
Ġcer rado
Ġfl g
tone te
Ġfull print
Ġneu tral
gal v
form ina
lamina do
Ġchar donnay
Ġgri ff
Ġoccu ca
Ġvit ta
Ġlixa deira
Ġpig mentar
Ġia m
Ġdig ita
Ã¡s cara
Ġyo g
tens ia
Ġio x
Ġbur gundy
fg c
calha u
Ġconta tor
Ġang lo
Ġinfin ito
Ġvibra cao
ich urri
Ġholo fote
Ġtrin co
Ġgalo cha
Ġancora gem
Ġbotan ica
Ġdina mica
Ġjum per
orig inal
Ġ7892597 34
Ġyan mar
Ġduck e
gmatis m
cachor ro
Ġchel sea
Ġcurup ixa
Ġwillia ms
Ġsporta ge
9 32
a fe
a tenolol
f pp
f est
g ros
i tico
k ra
l fs
m vs
n ano
y nc
Ġc sa
Ġp ca
Ġp ck
Ġp raf
Ġm use
ca das
re ma
Ġa za
Ġa ka
Ġs la
Ġs one
Ġb rio
Ġb ule
co cada
Ġf iado
Ġe geu
Ġde b
Ġde li
Ġl z
do so
Ġco ton
Ġco lumb
da gua
sa ias
qu ine
Ġes tufa
10 72
Ġ5 54
Ġin col
Ġin nova
Ġx xi
Ġx ei
bo tinha
ga d
Ġ7 64
Ġ7 87
lu gar
Ġun ile
Ġk or
Ġh pe
Ġma crame
Ġ12 19
Ġ12 55
Ġem brea
Ġem pres
80 30
22 70
22 44
ico n
ten cil
me lancia
tra dos
cal cio
cal cico
13 24
con ser
Ġ15 87
Ġw en
19 99
Ġar ia
Ġar quivo
Ġpe gas
um en
Ġra sa
Ġra lo
Ġra diante
Ġra deon
Ġpol ir
Ġcar pin
Ġ18 15
Ġan na
Ġdes emba
Ġle treiro
Ġam iga
ts ply
Ġex aus
cor rosa
Ġlu cky
ito l
Ġ17 19
Ġ17 17
Ġmed ias
Ġta p
Ġ13 01
Ġ13 90
Ġsp ice
Ġbol has
Ġpar to
Ġce bolinha
Ġmul tico
ros c
sup ra
Ġy aris
Ġha mster
tin al
pu ri
Ġsil va
Ġ34 1700
Ġja human
inel li
150 4
Ġcos mo
Ġ48 4
mes tico
Ġap ito
mon tagem
ref res
ea ton
Ġcu ff
Ġmax xi
Ġmax life
Ġbar ril
pal ete
140 8
Ġpan icum
Ġph ar
Ġus ar
az it
qui deas
Ġmag n
ac eta
Ġ790 93
sal sicha
Ġav iacao
Ġcir co
pul d
fr ina
112 6
112 9
Ġflu ence
Ġtp x
cane co
Ġis ca
Ġexp ort
Ġconj pijama
Ġsom ente
cond imento
Ġ53 2300
Ġpele ti
fas t
gran ito
Ġblin dagem
esp alhador
Ġita u
Ġita tiaia
Ġsta ra
Ġton ico
Ġcone ct
encia dor
Ġgela do
Ġjul ie
Ġequ inos
Ġfund ida
Ġsecre ts
Ġevo ra
Ġinstrum ento
Ġpat hok
Ġperfe ita
pola ina
apl ica
Ġleitura s
Ġfaz endinha
Ġjor nal
Ġved ante
Ġmh x
rot ulos
Ġviv enza
Ġther mal
fur to
oro ma
chio to
Ġgam ma
Ġfaro is
Ġpci e
Ġreman ufa
Ġrox inho
Ġreba ixa
Ġactiv ia
Ġmada gas
Ġblow tex
Ġfole y
Ġnen em
Ġkalip so
Ġstabil o
Ġcodor na
Ġfux ico
Ġconfeite iro
Ġdli rius
0 284
5 97
7 32
9 89
b gl
c una
f ant
h and
k nit
p ido
u sao
x mm
Ġc pp
Ġp tr
00 33
Ġd ul
ca ia
ca va
re ten
Ġa ura
Ġa ste
Ġa tras
Ġs um
Ġs ans
Ġs est
la vanda
ro und
Ġde po
ti g
ti culas
Ġg w
Ġg ente
Ġg ille
ar ic
en chimento
ol ux
pa jero
Ġre qu
Ġre ady
qu asar
Ġes preto
Ġpa m
Ġpa ce
Ġ6 77
Ġx b
eta do
Ġla zer
40 51
Ġ9 58
Ġ9 600
Ġr ho
11 78
11 79
Ġal ine
Ġal bum
Ġ20 85
16 14
Ġi k
Ġi zy
cha pas
13 75
Ġbo ut
Ġmar inha
14 90
17 90
17 36
Ġte ddy
24 000
Ġtra pp
Ġpe tro
Ġto uro
Ġto tem
Ġda d
Ġ50 75
Ġse creto
23 40
23 25
23 36
Ġped ia
fa relo
Ġan dar
Ġ01 75
ves ul
and es
tan tes
Ġpo ker
Ġdes cas
29 99
Ġ14 60
ber mu
Ġu t
Ġu ba
Ġ19 89
ff le
Ġsu tura
ers on
Ġmed ical
Ġ13 000
49 01
mar sala
Ġcro nos
Ġ90 2
Ġlt c
gra tis
mas k
Ġfe els
Ġwhite g
Ġros es
Ġros quinha
Ġbi fe
gan es
gen gibre
ka o
09 1000
Ġbra cadeira
Ġgal zerano
Ġlam bril
rela x
Ġ07 0001
Ġven ez
Ġesta c
210 8
dio do
Ġ900 5
Ġvo z
Ġultra sonic
Ġza mak
quinho s
cen ce
Ġ4500 24
sand uicheira
Ġamarra Ã§Ã£o
esto que
far m
end ur
Ġada ta
212 1
Ġcomfort flex
Ġsun shine
Ġ78 15
ki bon
dd in
Ġdura tex
mix er
ther m
Ġport inari
lona f
Ġinterna cional
Ġembu tida
Ġcolo rado
Ġarti gos
Ġduo mo
Ġroman tico
Ġamar r
Ġcamp an
Ġvan ad
bron z
Ġilhos es
Ġequ ino
Ġsco tt
conta ct
Ġshine ray
Ġever ly
Ġcorazul tamanho
Ġ157 45
Ġ635 900
Ġbiju terias
Ġfiv elas
mus culo
taru go
Ġcaip irinha
Ġclin ico
Ġchil eno
Ġaus trali
gla de
cou ve
Ġunip ort
Ġluk ma
Ġsod ico
Ġdepi lacao
stan dard
Ġwhi ten
estes ico
Ġimobil izado
cbr v
Ġincri veis
almo f
Ġlif estyle
Ġmedic inal
Ġclau dia
Ġespecificacao unico
Ġbito la
Ġdevol de
Ġlega cy
Ġrote ador
Ġdonadu zzi
Ġtonela das
8 69
8 73
g las
k h
k j
m ch
s z
z ie
Ġc mp
Ġp enta
00 69
Ġd sp
Ġs cuba
ro bo
Ġb es
Ġb iso
Ġb ze
Ġe col
Ġde marcacao
Ġco ti
Ġco lante
ti onal
da e
Ġv idas
ar y
en sor
Ġ4 93
01 36
01 28
01 001
Ġt ut
50 38
10 88
10 97
Ġpre go
ic ida
it inho
Ġro to
Ġro rato
Ġ8 53
Ġ7 34
Ġ7 86
Ġ7 83
12 35
Ġj umbinho
000 36
Ġh da
lo ve
30 70
30 84
va vel
Ġ10 27
Ġ12 95
11 38
Ġem ana
22 80
Ġmo inho
Ġdi or
gu es
13 28
13 33
18 60
Ġmar s
Ġaz c
Ġoc plano
til h
19 0000
17 19
24 22
Ġtra cta
Ġpro longador
ce bolinha
Ġba iano
Ġra quete
Ġcar rier
Ġ16 30
26 000
Ġan chor
calca dor
Ġtri turador
Ġtri fasica
Ġpo ule
Ġdes ire
27 10
Ġz ar
Ġex bom
di va
Ġne b
Ġne c
Ġac em
Ġac ne
ie ve
ito ne
he ro
he us
Ġq a
mb b
Ġta ra
98 00
cu i
cu z
Ġce rato
31 40
pi poqueira
ut p
Ġy as
Ġy ea
Ġri va
Ġauto adesivo
dy ne
Ġ70 7
Ġcamis as
bs f
Ġflex i
pas x
Ġ04 50
Ġ21 10
bri d
56 00
ban heiro
Ġveic ur
ena co
rel le
Ġper c
cil lus
cil ind
par ka
Ġpan dora
cr yl
ph ia
Ġaca frao
Ġmid night
Ġpos to
Ġpos tura
cro mo
Ġka ppa
Ġ800 574100
ule iro
Ġav iador
Ġpen iana
ama rela
Ã¡ tica
301 4
Ġab el
cen trifuga
Ġ4500 28
Ġten da
tur y
Ġflu x
Ġmf b
Ġvis eira
Ġche ia
Ġer vilha
Ġsobre coxa
Ġbos que
moto sserra
Ġcostura da
Ġbril li
Ã³ gio
fun da
Ġata cama
bf w
Ġpn k
mate ch
Ġbs fw
Ġespa ce
Ġsand y
Ġeli za
gon ha
Ġsur prise
sun gao
Ġchar les
Ġgi ft
Ġamort diant
md p
Ġlem e
Ġliber dade
sl ider
Ġtermos t
cone c
triz eta
Ġapa che
Ġcorpretotamanho m
tele comando
Ġnitril ico
Ġurs inhos
magne tico
Ġkw id
Ġamig as
Ġrolam ent
inser t
Ġselva gem
mak ita
fig er
premi er
absorv edor
Ġtecn ologia
Ġaventura s
Ġconex oes
Ġbale ia
reti ficador
spl it
Ġ790828 19
Ġargen tina
Ġmons tros
Ġcham bray
Ġcarmen ere
Ġpedago gico
Ġdesinf etante
Ġchen ille
Ġespo rao
Ġprobio tica
Ġnia gara
wnf oleo
Ġentra das
Ġtijol inho
dinos sauro
clorotiaz ida
Ġjahuman gueira
Ġocplano q
5 37
5 147
6 110
8 78
d entada
e teira
e uca
f gr
f bs
g w
g rendha
m ira
n pk
n aninha
r gb
s cal
s tone
s trong
t unica
u reia
Ġc ml
Ġp le
Ġm st
Ġm hl
Ġm icanga
00 57
Ġd ren
Ġ1 145
Ġ1 114
ta pioca
la vitan
Ġf ic
Ġe bs
Ġco ex
ti d
ti p
Ġg uty
ha m
Ġ4 300
Ġt mc
pa te
sa to
ho use
Ġre agente
Ġre messa
20 75
20 201
Ġca ba
Ġcom enta
io es
Ġpa ineis
Ġ6 52
ga mo
Ġ7 0000
12 47
ter raneo
Ġla ger
Ġla queado
40 26
30 23
30 33
Ġ9 51
Ġ12 13
Ġcor inga
11 76
11 74
11 84
Ġdo cile
ci encia
Ġal inha
Ġal imento
22 16
mis se
Ġi w
se ca
se ed
90 70
70 24
Ġ100 9
14 45
Ġsa ve
Ġoc j
19 16
Ġ00 002
17 14
Ġar ra
Ġ30 60
Ġpe Ã§a
Ġto al
Ġ18 17
36 000
Ġan ta
bra l
bra si
be ca
Ġpo is
Ġle ad
29 80
Ġ14 46
ita cao
Ġno break
Ġme zz
37 01
jo gos
Ġen ro
Ġen ri
Ġti ro
ru by
Ġaco para
lar gador
Ġ19 11
Ġ19 88
Ġ17 16
Ġlon gline
Ġsu ico
ip ur
Ġ13 40
Ġ13 27
Ġsol tinho
can til
Ġflo ter
77 00
pi ri
41 40
Ġy u
Ġy ale
Ġri pado
500 6
ven til
Ġ000 39
ivers al
Ġbarra mento
Ġcab ides
Ġel t
Ġ21 60
ka ftan
Ġanti furto
ex tr
Ġpi lao
Ġque ima
Ġag l
Ġpri de
Ġber injela
Ġsola dos
Ġfun il
vi deo
vi gota
Ġpan tone
Ġol ymp
Ġblue berry
pon tas
82 80
Ġfu oss
Ġcru cifixo
Ġcen ter
Ġdel im
130 2
130 5
Ġmer c
Ġmoto queiro
Ġveda Ã§Ã£o
Ġvo y
Ġmi lan
Ġsuporte s
Ġcd c
qua ra
Ġur bana
Ġru bro
Ġ4500 25
Ġflu ida
401 8
esto ne
Ġche io
Ġche ese
fl ix
Ġass inatura
Ġfl r
Ġades ivas
Ġmu cambo
Ġmos quetao
Ġrena van
chu va
sol u
bic ida
mul her
Ġdan iela
050 7
af w
Ġger man
Ġ137 2
lit tle
Ġsau davel
tru ck
Ġlite ratura
board short
Ġdom ina
Ġguip ure
Ġcher ie
genero homem
Ġtab uleiro
Ġath enas
Ġori ente
Ġpaco ca
Ġico nes
comb gasolina
ved ante
ved ilol
Ġfunda mental
desen ho
Ġcame ras
Ġ524 300
Ġavan co
Ġbole ro
Ġfern anda
Ġexcen trica
Ġscrap book
gaz ine
Ġcow boy
Ġfurta cor
Ġbrook lyn
Ġ790832 89
ska te
bita t
Ġacinz entado
Ġjour ney
Ġjuli eta
Ġdiviso es
articula dor
Ġxal ingo
6 001
a das
f ole
g il
g iv
i un
k rona
m ho
o relha
p ant
r sa
u ga
y ma
z l
Ġ iog
Ġc ta
Ġm ys
Ġa res
co ss
Ġf ant
an elo
do b
do na
Ġco pra
Ġv irt
Ġv eno
Ġv ivos
en ts
en treme
Ġn n
un ny
Ġre des
Ġre carga
Ġre born
il d
de v
de an
20 38
20 52
10 93
Ġ5 41
Ġpa ro
Ġpa ola
Ġ6 21
Ġ6 87
tam bul
Ġro de
Ġ8 21
Ġ8 87
Ġ7 39
Ġ7 700
12 69
12 58
Ġk angoo
Ġj iu
Ġ9 300
Ġ9 700
Ġ10 85
Ġ10 49
Ġ10 98
Ġma ck
Ġma tic
Ġcor ren
tor k
ml ess
up la
Ġmo urao
ten da
16 99
mo usse
po w
po ra
con de
14 60
Ġoc ulta
Ġso ya
Ġtra tada
Ġazul ped
Ġpro s
Ġpro pria
ce f
Ġba in
Ġda f
Ġpol vo
Ġpol ion
li ke
ir u
Ġ16 66
89 01
Ġbas ket
Ġ01 25
Ġ01 05
Ġ14 70
ts ol
ing as
Ġz k
cor cel
pro veta
Ġcha mas
Ġ19 36
Ġcomp res
Ġqu estoes
Ġ17 20
Ġ17 89
ff em
Ġsu cata
mb ro
Ġta u
Ġgra mpos
col is
ps c
Ġtamanho unico
31 30
Ġsl m
ke ting
gra ss
Ġy am
Ġgol inha
rol es
bol os
Ġjo an
Ġban cos
Ġon line
su ale
Ġho pe
Ġcho w
Ġgran o
Ġtr m
Ġgu ac
08 00
Ġ110 5
Ġsen tido
gi ma
Ġ600 3
enta cao
Ġpremi un
pal ux
140 7
Ġtor cedor
pon cho
Ġtex ture
Ġou te
Ġ101 7
len cos
Ġelastico s
Ġfixa Ã§Ã£o
180 2
cam painha
Ġbio degra
Ġmix er
Ġ64 5030
Ġ99 90
Ġcv c
Ġbron z
com enda
fol d
Ġrs d
Ġ119 8
cama rao
Ġsun flower
Ġliv ing
Ġespa cial
cris ta
esp anador
Ġcaval inho
Ġsim one
Ġalmofada da
Ġeas e
Ġout lander
Ġvulcan iz
Ġgla cial
Ġcopa cabana
xl r
ez inho
Ġhu b
osso m
Ġvir tual
Ġfur uka
mag nesio
Ġnb j
Ġbloque ada
Ġsna ck
Ġmaxim us
graxa deira
Ġtun es
Ġbull dog
Ġcruze iro
Ġsmo ke
Ġhea ther
ipa va
iona is
Ġhava i
Ġfut uro
Ġgrease pel
Ġmach ine
Ġgau cho
Ġserig rafia
Ġpull man
Ġdip teryx
Ġ1939 21
Ġprop rio
Ġarmaz ena
week end
Ġhortifru ti
Ġinsc ricao
Ġenfer magem
Ġcuida dos
ĠlÃŃ qu
extru dado
Ġrodi zios
Ġdestaca vel
Ġpraf esta
Ġmadagas car
Ġvirt us
entreme io
7 003
8 79
8 140
a titude
g j
k ko
l una
p ante
w ard
Ġc ento
Ġc wm
Ġm ina
in heiro
00 70
00 32
Ġd ix
Ġd cm
la y
co gumelo
Ġl er
is en
Ġco isas
ti z
Ġ3 278
Ġv ick
Ġn to
01 66
pa u
un ca
Ġre car
Ġre vis
20 47
20 53
qu ele
Ġca mi
Ġpa cifico
us tica
ic es
im bu
Ġ8 58
Ġ7 96
Ġj inko
40 60
va ge
Ġpreto s
Ġr ules
11 86
11 54
60 35
up ri
ne ces
Ġal ban
Ġal cance
id ante
Ġmo c
za dos
me trica
tra je
pe ts
13 39
13 76
25 000
25 35
14 25
14 34
que en
Ġoc fev
19 70
17 16
24 70
24 23
Ġpe el
ce o
Ġba tido
Ġba ggy
Ġda vi
Ġpol is
26 10
Ġ01 02
bra ss
bra quiaria
tura da
Ġfa bi
Ġpo u
Ġle ila
car diga
Ġch ico
Ġch eddar
ts l
Ġmm x
37 36
Ġti mes
Ġ500 0000
mp reto
Ġ24 50
Ġcha mex
Ġje gging
Ġcomp lex
Ġcas tel
Ġcal m
cas cata
Ġcan ula
Ġ13 60
Ġ13 26
Ġgra pe
Ġ80 40
Ġ80 27
Ġest d
paraf sext
Ġ37 38
Ġy ang
67 49
rol ha
Ġpt v
inel ly
Ġ26 1
Ġtr uss
Ġas ia
Ġ23 50
Ġros so
Ġbi fasico
Ġbu da
rom icina
ref nf
Ġoriginal s
Ġmarca solar
600 8
Ġtor onto
Ġlan cer
pan ettone
Ġesta tor
Ġju ju
Ġpos ticas
Ġmol hado
Ġcamb ios
160 2
Ġau rea
med ia
Ġint ruder
301 3
Ġuni fap
112 4
240 6
Ġcobre q
Ġhe ineken
lin er
Ġvd c
Ġcoz ido
Ġcof re
Ġcra q
Ġ0001 01
end ix
Ã© is
Ġcle o
Ġeu c
Ġaf ter
rea mento
Ġpassa deira
Ġ0000 20
mul ticolor
Ġgalax ia
Ġcond imento
Ġimper m
Ġangel ina
Ġlaser jet
Ġwo ven
esc ente
Ġras gada
Ġsele cta
Ġrece ita
Ġris cado
Ġris chioto
Ġio dado
Ġmaior ca
Ġpira mide
Ġcabedal couro
Ġboot cut
Ġado les
sho ulder
Ġbarbe iro
Ġlea ves
Ġmargar idas
nit ro
spe cial
Ġrefrige rado
Ġhil figer
Ġorna mento
Ġpima co
78967 27
Ġliver pool
Ġvulca flex
Ġspl sh
Ġsepara da
stre tch
reci piente
Ġ800054 30
Ġscho ol
Ġcelebra tion
Ġ7895 904
Ġfren ch
Ġparabol ica
Ġinclus o
Ġconve xo
trop ical
empres o
scan ner
ĠelÃ¡s tico
lorenz etti
Ġseguran Ã§a
Ġguac ira
Ġoute mu
5 64
8 31
a gr
c ino
f res
f ris
j fo
n istatina
o ts
s ie
s pr
w el
z p
z t
Ġc bs
Ġp ina
Ġm ort
00 58
Ġd ane
Ġa tu
co quetel
Ġe na
Ġe tc
Ġl la
do ur
Ġv hd
Ġg inger
Ġn is
Ġn pk
Ġn ilo
Ġn Ãº
01 000
01 33
01 58
pa ras
sa mba
de vol
20 41
qu inhas
Ġca ran
Ġca digo
Ġcom l
Ġes car
Ġes tend
10 95
Ġx aro
ga mes
Ġ8 27
Ġ7 33
Ġ7 58
12 85
Ġh eta
Ġla gos
30 68
30 58
Ġ9 67
Ġ9 87
Ġ9 800
Ġ10 32
Ġpreto branco
Ġma ia
Ġ12 39
Ġr pf
11 96
11 61
ura to
60 25
Ġmo is
Ġ20 24
po ten
gu la
13 22
13 85
14 80
14 67
19 34
Ġ00 26
ja ck
Ġna vete
Ġpe trole
ce falexina
Ġto ca
Ġra fit
23 11
Ġ16 60
Ġ16 22
Ġle ader
Ġam onio
Ġno z
Ġpc li
Ġz x
Ġor quideas
one t
Ġ19 40
Ġ19 44
Ġ19 79
isco se
he queira
Ġ45 015
cas tell
ras t
Ġsin c
32 12
ris per
Ġ13 19
pla ta
cu da
cu eiro
Ġkit chen
Ġgo ma
Ġbol os
Ġce t
31 60
31 80
Ġinox cal
Ġha ve
pu ran
69 01
Ġjo marca
Ġtu aren
Ġban an
Ġho je
Ġ789 590
Ġ06 50
Ġcho col
Ġdesc ricao
vol one
Ġmen sal
Ġgu ardanapos
mes es
Ġfer rette
250 5
Ġge f
cin as
Ġim peratriz
par ts
61 80
Ġpan co
Ġus p
Ġus ual
Ġfu afw
Ġpos tos
Ġlim e
ry s
210 5
ac endedor
Ġwa hl
Ġautomo tiv
Ġgas tro
anco ra
Ġabs tra
301 7
pul se
Ġur ina
Ġblo g
Ġdt valid
cad inho
Ġfan ta
Ġrf id
Ġbos sa
Ġfus iveis
Ġalfa zema
Ġnova ra
Ġala ddin
Ġtre viso
Ã§o te
Ġbota fogo
Ġbs mss
Ġport inhola
Ġ330 500
haste s
Ġhex a
Ġras go
vm h
couro s
Ġpren sada
cru cifixo
Ġesti lete
Ġsky lack
Ġcia collor
Ġcav idades
plan tadeira
Ġsea mless
Ġflam ingos
Ġlou ise
Ġaque c
cps l
Ġbandei rantes
Ġtutti frutti
comb inacao
Ġvaz ia
Ġprim ula
Ġemo ji
glu ten
Ġvare jo
Ġbac teri
Ġassa deira
polim ero
Ġdefini cao
Ġalimen tar
Ġtrol ler
Ġcome douro
Ġcran berry
Ġgenu ino
Ġbrac elete
Ġbsu fw
Ġtransi tions
Ġencaderna cao
Ġmarting ale
Ġmallor y
camba ra
Ġpegas us
Ġsest ini
Ġfuruka wa
3 103
a cm
a pres
a mbar
f ro
f cd
h igh
l cd
o per
s co
w he
Ġc anho
in co
00 47
Ġd inelly
ca ppuccino
ta baco
Ġa ps
Ġa ros
Ġa topy
Ġs assa
to c
Ġf iona
Ġe sab
Ġ2 175
an cio
Ġn ana
01 95
Ġt ina
Ġre parador
Ġo a
Ġca di
Ġca mesa
Ġca tua
Ġes verde
Ġes corredor
10 76
Ġ5 287
Ġpa ti
ed ic
Ġx ls
Ġx dz
tam b
im pala
os ta
Ġ8 59
Ġ7 72
12 39
12 78
Ġk ick
Ġk eleck
Ġj cb
000 27
Ġh bb
lo e
lo pra
30 38
30 55
Ġ9 48
Ġ9 84
Ġ9 94
Ġma uri
Ġ12 35
Ġ12 29
ba cillus
60 80
ci ence
Ġal lo
Ġal car
Ġmo edor
15 33
Ġi bramed
ve jeira
Ġver da
pe ed
pe troleo
na vy
25 33
18 54
Ġw as
19 44
Ġso be
17 69
Ġte or
24 35
Ġtra co
Ġpro dasa
ce iros
li ft
Ġ18 19
Ġ01 55
tan t
tan ce
Ġdes cola
car pa
car valho
ing les
37 50
Ġex citante
Ġ500 7
Ġne vas
Ġli za
Ġac in
Ġ19 18
Ġ19 33
Ġlu ma
Ġq r
ion ario
Ġta gima
Ġama ciante
Ġmc r
Ġgra mpeador
cu rio
cu meeira
Ġ90 3
Ġ80 2
Ġser rote
Ġdire ct
Ġce cilia
41 000
mba t
cabo v
bi finho
Ġha us
Ġ22 20
Ġauto colante
Ġsil igel
rol os
bol ha
Ġimp ostos
Ġib ira
Ġmetal on
Ġban heira
Ġfo ot
Ġbu falo
Ġcr b
03 30
Ġanti v
cre m
06 50
06 20
ref lexo
04 50
Ġdoura dos
fo g
Ġsapa teira
Ġat le
Ġpri mor
cj t
Ġdir ty
ph is
Ġprof issao
Ġmil ena
Ġbel t
Ġcen tury
ac tive
bar ito
Ġautomo veis
tur b
Ġup s
Ġinj et
Ġben g
401 2
esto f
Ġum ido
Ġass y
od les
Ġtub ulacao
Ġpino t
Ġfoto eletrico
Ġchapa do
Ġseg undo
Ġseg mentado
050 6
Ġintel li
botina do
Ġangel es
Ġplay boy
Ġsta in
Ġchar ged
Ġgri pir
vio la
fla re
Ġsul fato
wo bbler
sala me
Ġrece itas
Ġconfe c
Ġev ga
Ġorto bom
ate go
Ġdesli z
Ġunit Ã¡rio
plan ner
hidro xido
Ġisa baby
Ġfac chini
Ġpret ty
ican gas
Ġdom ino
Ġespi ga
Ġurs inha
Ġrodo ar
lum ina
bul izador
Ġdob by
Ġcorrosa tamanho
Ġlev orin
Ġsty lus
dup lo
Ġcoa mo
Ġexplo sao
pick up
1033 90
vig ia
Ġcamur cao
impa cto
Ġconca vo
web cam
Ġiri dium
Ġamante igado
Ġsodo calcico
subs trato
Ġdow ny
Ġandor inha
Ġacol cho
Ġauda x
Ġdiagnos tico
0 303
b txt
c bs
g ps
h ante
k iss
l il
o e
t cel
y lus
z h
z eta
Ġm si
Ġd du
te mas
Ġs Ã³
la p
ro y
Ġe bony
Ġde maquilante
al len
ti es
Ġg et
ha us
Ġ4 92
01 13
01 23
un icor
ho la
ho moc
Ġre pos
ul ti
20 46
Ġo o
Ġ0 671
Ġca iro
Ġes colher
Ġ5 61
Ġpa tins
Ġ6 41
mm d
ga zul
Ġ8 78
Ġun il
Ġun ig
12 65
12 48
12 52
Ġj h
Ġj k
000 34
000 29
lo u
30 62
Ġ9 21
Ġ10 95
Ġ10 58
Ġma chado
Ġma tinal
Ġ12 26
Ġ12 46
11 93
ch t
ba un
Ġem bor
ci ficador
Ġal ian
22 34
22 37
Ġmo ra
15 34
Ġ20 70
Ġ20 89
gu t
13 34
13 65
13 47
18 16
Ġ100 01
Ġ15 17
res piro
19 28
Ġ00 29
Ġso cc
17 24
Ġte ia
Ġazul im
Ġba rata
Ġto ny
Ġra id
Ġra zer
23 80
23 14
Ġcar inha
36 50
Ġinf fem
Ġ01 70
34 46
Ġam ni
Ġam gratis
Ġ14 80
lan g
Ġen z
Ġex ceto
arra s
Ġli branco
Ġga bi
Ġ45 2
32 16
mb ran
Ġ300 2
tica ba
Ġcro no
col n
88 32
Ġmon tante
Ġmul tica
41 30
bi go
mas h
67 40
Ġ39 40
ven aria
pen t
05 01
capa do
Ġsk i
Ġ789 67
150 7
150 8
Ġwhite m
lon as
Ġsus pe
Ġbi kes
bl es
250 4
ref our
Ġfol iar
Ġfil m
Ġpri v
Ġper d
1000 2
pal let
par is
cc b
Ġfla via
Ġpan tane
Ġph ys
bal Ã£o
Ġlan c
brin k
tia go
cara bina
Ġsuspen sÃ£o
Ġreg is
700 8
Ġgen ius
Ġmil ime
Ġka ren
cl ona
Ġret refnf
Ġpad ro
Ġpl eno
Ġgre mio
barra s
Ġcara me
Ġcara van
Ġdt c
fil t
240 2
Ġvin do
Ġben e
Ġfri ta
Ġsho wer
Ġ112 8
Ġessen ciais
Ġth ings
cio metro
Ġaf tosa
Ġtw r
Ġqueen s
Ġdobra d
Ġdry wall
Ġtal ento
Ġdra p
Ġtv x
Ġplan t
Ġcons titu
Ġmaqu ira
Ġmine craft
Ġout let
Ġital ian
Ġcopa iba
Ġsy m
uni forme
Ġkn up
Ġsed ucao
folha gem
ila to
passa ro
Ġestrutura l
Ġting ido
Ġges tao
cup ula
hidro clorotiazida
Ġpit bull
Ġintegra is
Ġintegra da
Ġpante ra
Ġretang ulo
Ġfarma ce
Ġamig urumi
Ġspan dex
Ġmoran guinho
Ġarras to
Ġchanf rada
Ġpei tilho
Ġchal len
Ġpaci fic
Ġvilla ge
Ġestrel inha
Ġfrigor ifico
Ġautoades iva
Ġmexica na
Ġpolari zado
Ġcompac tador
Ġcoi fas
botton s
Ġalme ida
Ġunile ver
Ġvulcaniz n
Ġdane va
Ġrafit thy
0 205
2 125
9 39
9 77
a th
a tanado
b pv
b tus
c ros
h aria
j itsu
m bu
Ġp gs
ra bico
Ġm cotton
00 75
Ġd vi
Ġ1 333
ca Ã§a
re ra
re agente
re polho
ta x
Ġa ram
Ġs cha
ro metro
Ġb br
Ġf da
Ġf ito
al iza
Ġg osto
es pel
es ms
Ġn ino
pa g
pa gao
ho st
Ġre uniao
Ġre zen
20 74
Ġo zon
em bal
Ġcom f
10 78
10 74
10 61
Ġ5 81
Ġpa y
Ġ6 001
le za
Ġx f
bo lao
tam ar
Ġro lao
os tomia
Ġ8 300
Ġ8 63
Ġ8 86
Ġ8 73
Ġ7 97
12 56
Ġj w
Ġ9 88
Ġ10 37
Ġ10 46
Ġ12 47
Ġcor i
Ġcor ten
tor o
Ġr ino
ica m
80 26
15 25
15 38
me ios
tra dor
Ġ20 45
16 36
Ġi bo
ve rona
pe us
90 26
con tato
Ġw t
Ġcon te
35 90
Ġso coco
Ġso ciais
17 30
Ġte adit
Ġna chi
so cial
Ġ30 48
Ġref let
Ġpro to
Ġpro gra
Ġda ko
Ġ50 70
Ġse as
Ġse ios
Ġ16 01
Ġ16 10
Ġbas tos
Ġan y
21 000
bra q
Ġfa ma
Ġdes in
Ġdes tina
Ġle go
Ġle vis
29 14
Ġ14 22
Ġbr z
Ġpc r
Ġ60 20
Ġ60 30
Ġsem anal
Ġml t
Ġ24 0000
sh er
Ġcas trados
Ġsin imbu
Ġcan t
lus h
des ign
pel le
cu aria
Ġpin te
Ġpin tar
Ġ11 015
77 01
42 12
Ġmotor s
Ġmotor izada
Ġmon str
Ġdire c
31 90
31 70
Ġlt x
paraf usos
Ġ37 50
bi quin
Ġ02 70
Ġ70 3
pu dim
Ġcla y
Ġden tsply
Ã§ ol
Ġjo ana
ces a
Ġtu cuna
pen tina
Ġho cks
Ġva bene
Ġflex iveis
Ġel s
Ġel ring
Ġfo fa
Ġ21 90
Ġap imenta
gi as
Ġbl ossom
fita s
Ġsapa tas
Ġcu be
Ġcod cliente
Ġinter lock
220 9
Ġcl c
Ġfu ba
per fe
Ġnr c
Ġaba ulada
Ġaba fador
Ġmag na
Ġredon dos
Ġcapa cho
Ġplast cor
sal do
Ġautomo tivos
Ġsi bra
bras ilia
Ġ4500 19
Ġ4500 29
Ġinver sora
ien ce
801 7
bola cha
Ġher b
moto redutor
Ġ57 9700
Ġis adora
Ġis tambul
Ġcorre dica
Ġmos ca
Ġmos truario
Ġace rola
Ġtre filado
Ġ0000 10
Ġtermo plastico
Ġdan ubio
Ġbs mfw
Ġand re
Ġvas co
Ġfra c
Ġeli ane
Ġpala ce
Ġmine rais
Ġnutri tivo
Ġale gre
yl ine
san to
Ġclean er
dex ametasona
gor dura
Ġfal sa
Ġhexag on
Ġradio telecomando
Ġfinal izador
Ġmom ent
Ġdro ps
Ġrelax ante
bot tom
Ġreche ada
Ġslo t
Ġvk ds
Ġhen na
Ġping entes
Ġsty lo
Ġclassi ficado
Ġpim ent
Ġbols inha
Ġpalav ra
bet ty
polim erizavel
Ġsole il
Ġreco zido
ĠcÃ³ s
Ġcompen sado
Ġautocla vavel
Ġintera tivo
Ġveter inario
mena u
Ġluc cas
Ġmontan ha
Ġpare des
Ġexpl os
Ġ790807 26
Ġagil ity
sued ine
oas ys
alf inete
detal he
Ġmoun tain
compos icao
envol torio
Ġigre ja
Ġdife rente
Ġsolados intetico
Ġrezen de
8 001
a mi
a ther
b endix
f ine
g lass
n ini
s mo
v onder
x ic
Ġ ios
Ġp io
ra h
Ġm ula
Ġd olo
re gular
re peti
or dem
la pril
to cha
Ġe cf
er io
do min
is ia
is queiro
Ġg j
Ġg ior
ar do
en trada
ha ke
on h
01 43
Ġt pr
Ġt Ã¡
Ġt cs
sa th
50 23
Ġre di
20 99
20 72
Ġo regano
Ġca ge
10 64
Ġin i
mm k
bo ss
Ġro ch
ga x
Ġ8 57
Ġ8 94
12 75
12 37
12 97
Ġk ir
lo gica
40 23
30 78
Ġ9 59
Ġ10 68
Ġma co
Ġ12 68
Ġ12 57
Ġ12 54
Ġcor n
cal i
Ġi dade
13 69
13 71
con feito
25 25
Ġmar ra
Ġ00 17
Ġ00 0106
Ġ00 8910
Ġpe w
Ġpe onia
Ġba ix
Ġba mbi
Ġto cha
Ġra jada
Ġcar tier
Ġ18 18
26 66
fa x
36 46
38 10
be toneira
Ġpo oss
Ġdes em
car vedilol
gr y
tri dent
Ġbe matech
Ġpc p
Ġz w
Ġz y
Ġti ps
65 10
Ġbor os
200 18
man chao
Ġac ss
tu las
tu aba
Ġ19 12
he tic
ip last
Ġbase us
Ġsin tonia
Ġsol dar
pol ido
Ġmc urta
des k
des in
cu mmins
ps ia
Ġpla in
ixo te
Ġce asa
41 70
68 01
tom il
Ġcla ras
Ġimp lante
ste el
su queira
Ġ789 0000
Ġ789 98
Ġpal las
Ġcho pper
Ġesc ur
Ġcab verniz
Ġas trona
Ġ03 30
Ġgu er
Ġ21 30
bl end
gre y
Ġque das
Ġque imador
fo od
sc s
Ġmarca brass
220 8
Ġtor ica
cc inato
Ġfla kes
Ġpan na
Ġdu e
Ġdu rex
ag ul
ag ile
Ġfos f
Ġgraf ico
cro ped
Ġ115 8
gl icer
Ġinfer io
Ġhe alth
lin gua
Ġcompa ctor
Ġsilk y
401 7
Ġum idificador
Ġsext long
Ġara be
olo gy
Ġ810 24
190 3
tis mo
Ġmun ic
hi po
Ġnume racao
Ġid ent
Ġseg ura
Ġip b
Ġand reza
Ġblin dada
Ġgros elha
Ġplan tar
Ġvelo x
Ġchu v
Ġita ipava
Ġnutri ex
Ġfs n
Ġforte s
Ġhoriz onte
Ġinten siva
cy cle
fru t
Ġveg ana
Ġchi fre
Ġcamp esi
Ġdisplay port
Ġserv ir
Ġlem onade
Ġwar m
ak x
Ġspeed y
Ġcirur g
bx p
Ġing leza
Ġalcool gasolina
Ġambi ental
Ġhs f
Ġcorpretotamanho gg
Ġob jeto
anti que
uc um
Ġventi lada
Ġslo uch
Ġcul inario
Ġbloque ado
zin cado
Ġbandei ja
Ġatlan tis
cit roen
Ġbate deira
Ġembala da
Ġpie ce
Ġherme tica
Ġsca la
gara peira
gira dor
Ġensa io
Ġfisio terapia
abra Ã§adeira
Ġtorno zeleira
Ġnauti cal
Ġxo do
Ġmau ve
descar pack
Ġposic ion
Ġabsorv ente
Ġalas ka
Ġfibro cimento
volks wagen
Ġrelig io
Ġbour bon
Ġbris tol
Ġfiloso fia
Ġultrasson ico
ĠtÃ© rm
vei tamento
Ġmagg ion
Ġpeleti zada
Ġmezz ani
crista leira
upri mer
lopra m
Ġnevas ka
repeti dor
Ġmarcabrass unny
6 201
7 98
b ps
c cia
e ur
f lux
g ig
k ini
l pm
o res
p gg
s tro
s weet
s imeticona
t ren
t mas
t Ã³rio
u sado
w ella
Ġp ms
ra zol
in utri
00 51
Ġd ps
Ġ1 366
ta rio
Ġa tr
Ġa che
Ġa umento
Ġb enta
co de
co ver
co at
to g
Ġe tan
Ġ2 113
Ġ2 116
an ga
ti ficador
da kota
Ġv ive
ha mburguer
as ter
01 55
01 51
ma car
ri tz
20 85
20 64
20 87
Ġo w
Ġo bes
Ġo este
qu ilhos
10 96
ed c
ed redon
Ġx m
bo k
bo tt
ga tos
Ġ8 43
lu pulo
12 43
Ġk ane
Ġk ang
Ġk ley
Ġh ct
lo k
40 34
40 29
30 48
30 32
Ġ9 200
Ġ9 64
Ġma maria
Ġ12 22
11 37
11 52
11 94
ba ixa
60 28
ci e
80 25
Ġal ten
22 000
22 29
cha ud
90 60
13 86
con cen
Ġ15 80
Ġmar fin
14 13
14 89
14 95
Ġsa f
Ġw ish
Ġoc ta
til cisteina
19 17
19 32
Ġte rapia
24 80
Ġtra mont
tal ia
Ġ30 40
Ġpro lon
Ġda fiti
ida da
23 24
23 23
100 24
Ġman t
Ġman jericao
Ġ14 30
Ġ14 25
Ġ14 17
Ġch ile
tri cos
Ġti ida
Ġex ped
elo f
Ġml ca
man a
man hola
Ġcur vada
ras pa
Ġmed ix
Ġta til
Ġ150 2
Ġama mentar
Ġsp len
Ġgra di
Ġcro ped
for to
Ġ90 9
dos ia
Ġcol lani
Ġter ceiro
ron i
31 12
Ġy ins
du rana
Ġsil encio
Ġsil nax
Ã§ os
Ġnu vens
Ġdeco re
Ġfo fur
Ġquad rinhos
Ġbi be
Ġsen tado
Ġsen suale
je ep
57 00
09 10
09 80
Ġpi ranha
Ġ600 5
para ch
Ġag itador
Ġat m
220 4
mt c
Ġfla g
bro ch
Ġcl p
Ġtur queza
Ġven das
Ġven ancio
Ġbox y
pl in
Ġ101 60
we iser
Ġmin is
Ġcapa citor
Ġ790 82
Ġmoto pro
Ġperf umes
Ġint t
Ġza a
motor s
Ġhe mati
Ġhp n
ju v
Ġins pire
230 3
Ġ112 3
Ġfl b
trans istor
Ġmos quito
Ġmos quiteiro
Ġlac ca
Ġala kazoo
Ġrus so
Ġtru fado
Ġvira b
vit t
vit rine
Ġdark ness
fla cao
Ġ7899 754
Ġcilind ricos
Ġks b
Ġks w
Ġcand ura
Ġcamp estre
Ġaven tal
Ġaven ida
Ġgrava dor
Ġ155 78
Ġacadem y
Ġmit su
Ġbk r
blus inhas
Ġfura da
Ġcomer cio
Ġnv me
Ġbest fer
Ġnin tendo
Ġbomb ona
Ġdus t
Ġrepa ros
Ġjol itex
Ġclar k
eu calipto
pru mo
ely see
rib bon
Ġaus tin
hen na
Ġenvelhe cida
Ġsegre dos
Ġorna mental
fig ura
run ning
phil ips
Ġbou cle
Ġcatar inense
Ġwap sa
Ġopa ca
Ġmeto do
Ġeur oroma
hig ien
Ġlau ren
Ġbraz ilian
merica no
tonal izante
Ġinsu flacao
Ġmoe das
Ġbasil isk
Ġcorres pon
azit romicina
Ġocj aneiro
Ġfofur inha
0 208
6 101
9 37
9 010
a w
g rosa
j ica
t ul
w j
Ġm uro
in ks
00 77
ca mento
re q
te rio
ta bu
ta dos
Ġa fe
Ġde v
Ġde gelo
an za
er sao
al bar
al ergen
Ġ3 101
Ġv fa
Ġv ky
en xo
pa tinho
20 73
20 54
Ġca charrel
Ġes dd
10 83
10 92
10 81
Ġpa prica
Ġpre misse
Ġx ixi
it ra
Ġro vere
Ġ8 200
Ġ8 42
Ġ8 54
Ġk er
Ġj fl
Ġla san
40 22
40 65
30 66
30 54
Ġ9 43
Ġpreto preto
tor nado
ba f
ba guete
60 98
up ia
up iry
ci p
tro ca
22 48
22 95
Ġmo tion
Ġmo enda
15 60
15 75
15 36
15 44
15 46
za mento
me i
Ġ20 27
Ġdi jean
se pio
na tus
gu as
13 99
13 43
25 90
Ġ15 11
Ġmar sel
14 29
14 54
Ġaz z
res pingo
19 22
Ġ00 28
Ġso prador
Ġte ra
Ġtra zeiro
Ġpe ter
ce p
um ba
Ġba um
Ġto sa
Ġse i
Ġped icure
Ġcar refour
Ġman i
Ġad s
be g
Ġam s
ine frina
lan ce
Ġne go
one w
Ġ19 70
Ġcomp lexo
Ġsu ggar
Ġ45 000
Ġcal l
Ġmed icina
Ġ13 11
Ġ13 35
Ġ13 28
pre m
Ġmod ena
98 28
cu reta
Ġsh ip
Ġgo d
Ġgo t
Ġtrans it
Ġsl ider
pos t
Ġtu tano
et inha
et zel
ilho tina
Ġel y
Ġbu ff
lam padas
Ġcr s
Ġ75 2
03 20
cre ma
Ġap tamil
Ġfi b
Ġfi el
Ġfer til
Ġpi q
Ġpi oneiro
Ġbar ber
Ġcurto a
Ġus inado
az i
Ġtan q
Ġaca lanto
Ġou tro
Ġcap itone
800 6
Ġcel ulas
0001 6
Ġmer ce
Ġbro ken
fic h
301 8
Ġmat is
ns k
fil l
tur bador
Ġcano pla
bel ina
cd c
bd c
801 4
190 4
Ġfl v
Ġsw im
Ġveiculos r
Ġcirc le
Ġnas a
Ġliv ina
Ġae rea
Ġae oss
Ġfis ico
Ġfra pe
Ġhidro light
Ġit r
Ġts w
Ġff v
Ġgs b
Ġdef ender
mara cuja
Ġgrava coes
Ġdri vers
Ġchur ras
Ġpren dedores
Ġresf bovs
Ġgorg ur
Ġviol ino
ib pt
Ġesmal tes
Ġconcen trada
Ġio do
pers onal
Ġsinal izador
Ġtele f
vassoura o
espe c
banda gem
star t
nip el
Ġfin ish
Ġskate board
Ġwin ner
Ġlea gue
mus go
isol ona
quebra cabeca
Ġcontro il
Ġpure za
Ġinstan t
acopla dor
lot te
Ġ2260 768
carb onato
Ġnet flix
Ġpode rosa
Ġincl inacao
Ġestofa dos
Ġembre ag
Ġdesk jet
Ġinco term
Ġreconstru tor
Ġfemen ina
Ġlips tick
Ġpep eta
13789294 99
Ġetern ity
Ġalle gra
compen sado
ĠmÃ© dio
fati ador
clu tch
dilu ente
Ġdonal dson
Ġsumm it
eletri ficador
Ġdesma ia
Ġapla inada
Ġtara mps
Ġbiodegra davel
Ġtucuna re
6 203
a tivo
a xial
b tc
m Ã¡scara
n ina
n se
p us
p inho
s par
t som
v te
v imento
Ã ¸
ra u
Ġm pc
00 59
Ġd ana
Ġd vr
Ġ1 165
re pos
ta ke
Ġa cor
ro mance
Ġb ral
Ġe no
Ġ2 285
Ġl nh
al mox
al gema
Ġco im
Ġco lado
Ġ4 101
Ġt bfw
Ġre tex
Ġre beca
il es
20 63
ran t
Ġca i
Ġ5 91
Ġpre da
Ġ6 31
Ġ6 92
Ġ6 301
Ġ6 205
le ao
mm ar
bo toeira
im po
Ġ8 150
12 99
12 95
12 96
12 82
000 35
Ġla d
Ġla sh
40 90
40 54
30 52
Ġ9 39
Ġ10 89
Ġ10 56
Ġma ma
Ġ12 38
Ġ12 37
Ġr mi
Ġdo ck
Ġem bl
80 48
Ġal tern
ur ia
cal Ã§ado
16 13
mo ton
po d
po int
pe an
13 74
25 30
25 18
70 201
Ġsa ga
Ġmas ha
19 29
Ġ00 55
17 55
Ġar color
so phie
Ġpe vesul
Ġba tida
Ġra iada
100 18
26 50
26 35
fa a
bra do
34 44
39 50
Ġpo eira
Ġpo we
Ġdes m
ita ge
Ġno ah
Ġbr f
tri pa
Ġen xa
Ġve ga
200 0000
min t
33 10
Ġor c
Ġli fan
Ġlu ana
Ġov inos
Ġsu inos
Ġcal f
Ġcal can
cho calho
Ġfor mol
32 17
Ġcan in
Ġcan ta
0000 47
Ġ13 12
47 22
mar cas
78 9089
Ġama deira
Ġ300 1
Ġ300 5
42 50
Ġvol tas
gra o
Ġri pa
500 8
Ġvi king
Ã§ ada
Ġdeco upa
su v
capa dura
Ġgr b
Ġho molo
Ġ789 6700
Ġpal e
am ura
Ġmicro pore
maca rico
Ġas fal
72 000
tem pera
bri da
Ġ110 2
Ġcr t
Ġcr y
gan ce
Ġsan gria
Ġsan tiago
Ġesp umante
mado ra
pin os
ze pina
Ġfil l
rel one
Ġos seo
1000 3
Ġinter f
Ġbar rica
cil on
61 60
Ġol lie
ag itador
Ġesquer dr
Ġmil en
Ġmil ks
800 5
800 9
cl f
ac s
180 9
Ġ210 5
toalha s
Ġluz tol
pul sor
ger gelim
Ġ4500 18
112 3
Ġbic r
Ġbaba dinhos
Ġceram fix
Ġ56 35
170 8
Ġum idade
230 9
end ula
Ġdesen gripante
Ġmu ay
Ġgar nier
ill er
Ġclo ck
vs lim
Ġall flex
Ġblus as
ala v
care iro
Ġchar ge
Ġchar lote
pn k
Ġentre meios
Ġhar pic
uri t
fla p
Ġmoldura s
del uxe
Ġsul tan
au di
Ġep ic
Ġlil ly
Ġtable tes
flu xo
inea pple
Ġvir gin
dero so
casa queto
Ġkel li
Ġmarine x
roup as
Ġpais ley
genero unissex
Ġarticula vel
Ġfin an
bul get
univ cd
Ġvid r
Ġzip per
Ġchro ma
sin vastatina
Ġtul um
Ġhipo alergen
Ġvulca bras
Ġcarto grafia
Ġlembrancinha s
Ġsilico nada
tape tes
Ġbipar tida
Ġ22607 80
Ġergonom ica
Ġtai ff
Ġtron co
Ġesfre gao
cita lopram
Ġcolheitadeira s
ĠcÃ³ d
Ġfranz idos
Ġenxo val
maste rol
Ġhawa ii
Ġservi Ã§o
Ġimpul so
Ġigua is
Ġpresti gio
Ġrola me
final izador
upro feno
quan tidade
tupper ware
Ġclos et
Ġprofis soes
Ġpoma rola
Ġgis ele
Ġbout is
Ġvanad io
Ġxaro pe
Ġredi kal
0 203
5 150
6 015
8 72
9 43
c ios
d um
e book
e dade
f da
h iper
k or
l icor
m q
n q
n on
p pe
p Ã§
p mc
u y
v Ã¡lvula
Ġc icatri
Ġp top
in je
00 76
00 52
Ġa ran
Ġa ip
Ġa ire
Ġa melia
Ġs nr
Ġs nt
Ġb nc
co q
to k
Ġf eno
Ġf urado
Ġe y
Ġe terna
an ima
Ġco up
Ġ3 000000
Ġv h
Ġg rel
ar tic
es mal
ol iva
Ġ4 203
01 90
01 52
Ġt da
un ho
un iversal
de ir
de ep
ri t
20 31
ran g
Ġca pel
Ġca pi
10 79
Ġpre v
Ġ6 206
le tras
Ġro be
Ġ8 72
Ġ8 83
Ġ7 49
Ġ7 300
Ġ7 84
12 29
12 54
12 92
Ġk ian
Ġj ur
Ġj ost
40 46
30 26
Ġ9 68
Ġ10 78
Ġ12 65
Ġ12 96
tor i
11 72
11 87
11 53
Ġpara b
Ġdo o
60 36
60 200
60 58
Ġal i
15 22
15 14
15 99
me tria
tra mado
Ġ20 34
Ġ20 44
16 35
cha pinha
con ico
18 000
70 90
Ġbo ost
Ġmar tina
Ġmar cio
Ġsa to
Ġsa fi
Ġsa turno
Ġw ing
Ġtam ba
19 15
19 98
Ġso pa
Ġso ur
17 23
17 95
Ġna z
Ġar mani
so pa
Ġref t
Ġpro volone
um entos
Ġto ff
Ġto ffe
Ġda colonia
Ġra f
li an
Ġcar c
Ġ18 80
26 20
Ġdes t
Ġdes dobra
Ġle pper
29 34
Ġam t
Ġch ine
37 95
lan cador
Ġbr branco
tri p
tri angulo
Ġbe terraba
ver d
tu tinha
Ġ19 76
Ġlu cy
Ġga mbo
Ġmes as
Ġmes mo
ox ido
pp reto
Ġ13 22
Ġfre es
mar ro
des tro
Ġgra tidao
Ġpr Ã©
for mao
col inha
Ġ90 8
ps ita
88 01
ron es
Ġmul tina
Ġ05 50
gra os
du rante
Ġri ch
Ġri beiro
Ġ70 29
tin as
bol t
Ġib bl
Ġcomb in
Ġsk at
Ġpal ios
ele fante
Ġcho ice
Ġcho cker
Ġgu irlanda
Ġfo guete
Ġpu a
Ġmulti f
Ġmulti dentada
ka da
Ġdd c
09 22
Ġdoura d
Ġed c
Ġfil eiras
Ġbra id
Ġprote inas
Ġ09 20
Ġber lin
Ġ55 3
600 9
Ġmt c
Ġmadeira do
cc l
Ġpan etone
cr v
002 000
Ġtan dy
Ġven til
pan talona
Ġpon cho
Ġgen g
Ġmol ico
Ġmol ine
comp leto
Ġret valv
180 3
180 6
0001 5
prote ct
Ġ210 6
160 3
Ġmoto bomba
iva h
Ġcara c
mic ida
izado res
Ġop tix
mos truario
Ġpoli tica
ju ta
401 00
Ġiso lacao
Ġlin coln
cur sor
Ġmad ru
190 6
Ġcj to
Ġcer t
Ġran d
Ã© ster
Ġcle a
Ġth ol
icle tas
Ġfoto celula
Ġmos s
cond im
met formina
260 3
Ġata laia
Ġ76 20
Ġsli pon
Ġaplica da
af iador
Ġpedal eira
op ard
Ġsele tor
Ġfal ta
aze itonas
Ġinc lu
Ġast ma
guarda po
cora coes
Ġmx t
Ġevol ut
Ġmec tronic
Ġbur g
Ġfle cha
Ġcache ado
Ġescri to
Ġsincron izadora
Ġadap ter
Ġpapa ia
acu careiro
Ġabas tec
head phone
Ġarticula dor
Ġmano bra
Ġcria tive
Ġbil har
Ġema gre
mand ioca
Ġsegre to
Ġhugg ie
Ġlio cel
Ġextre m
Ġtribu tavel
Ġcarna uba
Ġatom ico
Ġbicro matizado
quart zo
Ġlumino us
Ġkam ylus
Ġretal ho
Ġpontilha do
Ġgian nini
Ġmelho res
Ġphe bo
Ġalpar gatas
Ġhypo farma
Ġcitr ino
Ġseren ity
Ġprofund idade
Ġcampan ario
Ġpolion da
Ġ78967 008
Ġpantane iro
sath conj
fich ario
3 137
7 41
9 150
a es
a gra
f lash
h us
h ion
k am
n an
o w
p se
w an
w ide
Ġc na
Ġp ineapple
Ġm ta
Ġm cm
in di
ca rio
re vol
re cedor
re camier
te res
Ġa penas
Ġs we
Ġb hs
Ġf to
Ġf ts
Ġe yes
Ġde uts
Ġl br
Ġl ese
do br
Ġco vid
Ġv am
en de
es por
ol dura
Ġ4 015
01 37
Ġt mg
Ġt ls
Ġre bo
20 65
20 57
em ia
Ġ0 205
qu o
Ġca a
Ġca pra
Ġca deirinha
Ġ5 300
Ġpa gao
le uca
Ġx lt
Ġx per
Ġro b
im ed
Ġ8 74
Ġk ivah
ter ca
Ġj en
000 28
Ġla me
40 27
Ġ10 66
Ġ10 88
Ġma za
Ġ12 49
Ġcor set
11 64
Ġem paco
Ġmo mentos
15 26
Ġlo pes
Ġ20 55
16 26
ve rao
po las
pe e
13 55
13 68
con g
70 60
70 70
70 45
70 21
Ġmar ru
14 75
14 65
Ġcon he
res to
17 46
24 30
Ġna ra
Ġda m
Ġ50 60
Ġ50 27
Ġra pos
Ġpol en
Ġcar mel
Ġ18 30
ula nte
ge an
Ġtri um
34 10
Ġpo dium
Ġ14 10
Ġz or
di as
imp resso
33 80
33 16
Ġor fs
tu eta
br s
Ġ19 10
ff les
95 01
32 000
32 40
32 14
Ġgg b
Ġsol ution
Ġpra c
Ġpin gao
short saia
42 16
Ġest rut
Ġsl ick
Ġ28 50
du e
Ġri ffel
Ġ120 3
Ġvi qua
Ġfe v
Ġpt g
ven ti
ele ire
Ġcab ina
Ġ03 20
pas se
pas tel
Ġgu ias
Ġ23 01
Ġ33 34
03 22
Ġrec co
Ġbra ke
Ġpi u
Ġ600 2
Ġ600 6
fer r
si aninha
Ġlinha o
1000 5
ct is
Ġtor p
Ġpan ini
tiva do
Ġdu zia
Ġnatural le
bas ic
per uca
Ġsuspen sys
Ġaca cia
Ġly c
Ġka t
Ġka ra
800 7
ess ion
210 7
130 9
Ġcb f
Ġcabe Ã§a
Ġautomo b
Ġpet is
Ġbro w
Ġperf um
Ġsi rius
Ġpers on
Ġblo gue
Ġmono fasica
Ġdiv ine
Ġsm ith
Ġvd r
Ġmor lan
sand sol
Ġinte i
Ġmf c
tec fil
Ġomb reira
2000 3
ivela dora
190 2
230 2
Ġcola gem
Ġ67 49
trans porta
Ġgar fos
met com
Ġtre co
Ġtal hadeira
Ġvaria dor
Ġste tsom
Ġax e
Ġhidro grafica
Ġhidro filo
mati zada
Ġplay ground
pastilha s
Ġhomoc ine
Ġestabil iz
Ġrock s
Ġdri ma
Ġrc di
wo che
Ġpap iro
Ġice berg
Ġdiaman t
Ġblu betty
Ġhal ls
guarda roupa
Ġconcen trica
Ġvip al
pala v
Ġty pec
Ġcorpretotamanho p
Ġhero es
Ġaqu oso
Ġloc tite
Ġpat inhas
Ġconta iner
fixa cao
Ġbn ss
Ġpico li
Ġmarte lete
sha keira
Ġautor izacao
Ġcrav os
Ġhea ven
Ġgatinho s
Ġpag ina
desem p
sim ilar
Ġquei jos
Ġpesso al
Ġtren dy
Ġborra ch
bur g
Ġdeck ing
sinal eiro
divers as
Ġinser t
Ġbrux a
Ġnail s
Ġglicer inado
Ġestan hado
Ġric ino
Ġmaj estic
Ġgru met
Ġwol f
zir con
Ġindic e
Ġrodri go
Ġapol lo
Ġestran gulador
Ġdiplo mata
garraf inha
Ġcina momo
Ġ7215 55
raste irinha
Ġescar late
Ġcanho to
Ġcatua i
clona zepam
Ġsibra tec
elof ane
8 41
b tu
c ele
c si
e ff
f ss
f ito
f lip
f cinped
g top
h rosa
v ga
v ue
w est
y br
in fo
00 41
Ġd pa
Ġd ba
ca ras
re j
Ġa mm
Ġa bran
Ġb li
to u
to uro
Ġl rs
is tico
Ġco elha
ti rox
Ġv km
Ġv iola
ol u
pa mento
Ġre par
ri fle
20 84
Ġo ex
qu ed
Ġes can
Ġ5 93
ed er
Ġin ga
Ġx xl
ic il
tam etasona
Ġ8 84
Ġ8 600
Ġ7 21
Ġ7 41
Ġ7 71
Ġ7 2000
12 31
12 448
Ġj aneiro
Ġh j
Ġh tom
40 28
40 53
30 90
30 37
30 56
Ġ9 86
Ġ12 58
Ġcor on
Ġcor laranja
11 91
60 50
80 50
Ġal venaria
22 26
ur ban
15 77
tra x
16 19
mo bi
mo rena
Ġdi ar
pe q
na dor
90 34
13 36
13 21
13 38
13 44
25 11
18 25
18 18
18 70
70 39
70 46
Ġ15 55
14 23
Ġw rp
que ada
Ġcon chas
res p
35 20
35 25
Ġ00 54
17 25
17 89
Ġar nica
Ġar dosia
so da
Ġpro fi
Ġba rao
Ġba ked
Ġra z
Ġra bico
23 45
45 22
100 006
li er
Ġman cha
ir ri
26 13
Ġbas es
Ġan zol
Ġan gus
lor o
38 01
ge ral
bra ch
tan as
Ġdes b
Ġch p
Ġbe ans
Ġbe cker
44 01
44 50
Ġen ch
Ġve ron
Ġve rano
imp ed
Ġsem e
Ġsem en
cor tro
Ġor gus
Ġ24 70
Ġsup orta
pro jeto
tu tti
Ġcha ise
Ġ19 78
Ġlu cca
Ġq l
cho ff
32 35
0000 45
Ġta ba
Ġfre sa
pol vilho
Ġpra zer
Ġmc d
Ġsp i
Ġcro cs
Ġflo rais
ps t
mi k
val or
Ġter ceiros
Ġha mbur
500 9
dy n
et t
ven a
Ġdiante i
su cupira
Ġgr p
Ġho p
bor rifador
Ġgu incho
Ġ75 9
Ġsen so
Ġanti ox
Ġfi go
Ġdis se
mon daine
Ġesp ira
250 3
250 6
Ġgl x
Ġgl itz
Ġpi pe
Ġmax inutri
07 50
Ġcores vermelho
Ġbar uel
pra ti
94 1700
61 70
rela na
83 01
den s
ag asalho
Ġven tura
Ġhd d
Ġsar rafos
Ġbal lo
Ġbel ica
Ġul tima
Ġ790 800
Ġmal i
Ġwa w
900 7
Ġab b
mic key
Ġ4500 4
Ġuni baby
Ġbio lab
401 1
ien cia
Ġer ca
230 6
Ġdr inks
Ġaf ri
trans dutor
Ġada pta
Ġhel ix
Ġ119 6
Ġpassa dor
Ġqual ita
212 6
Ġeletron ic
Ġcf w
Ġvul cano
cul entas
Ġplu mas
Ġclo thing
deso dor
Ġangel ica
multi laser
Ġtm d
Ġnit ron
pri da
hy undai
Ġilum inado
Ġchi quiteira
gor durante
Ġseca dora
Ġaven ture
Ġlab ios
Ġzo et
Ġpren sado
hor n
Ġdiver tidas
Ġbarb ante
Ġsv k
Ġtar ja
Ġesteril izacao
Ġlic encia
Ġvibra toria
Ġpai ol
Ġsto ck
sha mp
zin ni
Ġrefrige rante
conden sadora
ob jeto
Ġ78999 94
hid r
Ġcober t
lem on
Ġtransmis sÃ£o
Ġporte iro
Ġexcel ente
Ġetn ica
Ġexer cito
Ġranh urada
Ġcien cia
Ġbotan ic
Ġcox inha
Ġsif onada
Ġhava iana
Ġsilico n
Ġencapa do
Ġinser to
ferra gem
Ġbanqueta s
Ġmanip ulo
Ġpup unha
wor ker
Ġadri ano
Ġoro ch
Ġapren di
Ġextens ivel
Ġhawa i
quant um
Ġcrio ulo
Ġleave in
civ ic
Ġnatfis granulado
ajus tador
Ġpremol dada
Ġpand in
Ġmassage adora
Ġalica tes
Ġindeterm inado
cicatri cure
Ġcarpin teiro
Ġanta res
Ġpew ter
Ġdeuts ch
metcom cal
0 222
0 302
3 123
a go
a cor
a mora
e os
f lam
f rozen
g br
g preto
j ust
k ot
k nob
n en
p ana
s ic
t ulipa
Ġc ie
Ġc pt
Ġc Ã¢
Ġm mm
Ġm icangas
00 63
Ġd ray
Ġd nt
Ġd vs
re con
re tan
Ġa go
Ġa tar
Ġs corp
Ġb ie
co lantes
to do
Ġf bs
Ġ2 225
Ġ2 999
Ġde tec
an estesico
ti ta
ar c
en os
as ti
pa is
Ġre colh
de cora
ri es
Ġo va
em bolo
ran du
Ġcom il
Ġes ma
Ġpre parado
Ġx xx
it ud
Ġro pe
Ġro hs
12 81
Ġh mc
Ġla is
40 56
30 47
30 93
Ġ10 64
Ġ10 86
11 77
60 90
ci ano
80 38
22 12
22 17
22 75
22 21
Ġmo fo
15 32
15 54
15 87
tra il
tra ma
16 28
se gu
pe onia
na tu
13 23
con dor
con tos
70 22
14 21
14 28
14 27
14 99
14 88
14 97
35 40
35 60
17 60
17 17
24 29
Ġtra que
Ġpro x
Ġba talha
Ġto u
Ġra quel
Ġpol ig
li to
Ġcar im
Ġ18 90
Ġ16 12
Ġ16 0000
fa f
fa zer
Ġ01 500
38 40
Ġfa zen
Ġfa chete
Ġad d
vo il
Ġpo tente
27 30
29 10
Ġno vel
Ġch icle
Ġme g
Ġme us
lan che
Ġbr k
Ġbe t
Ġz zo
Ġti ge
ru z
33 15
Ġor feu
Ġli bel
Ġ19 60
Ġcur cuma
ado res
Ġ17 25
Ġ17 23
Ġ17 78
he teiro
Ġcas trado
Ġcas sia
Ġcal esson
cas al
ans as
Ġfor jada
mar cha
pol ies
pol itriz
Ġ300 8
Ġpr s
Ġsh ut
Ġ80 80
Ġbol do
Ġ28 35
Ġy b
Ġvi gotas
Ġfe ver
ste l
ste p
05 12
Ġcamis aria
Ġcamis ao
Ġho w
Ġ789 6
Ġ789 41
Ġpal oma
Ġcho t
Ġesc ultura
am arra
Ġmicro dont
02 11
tel y
Ġ21 40
Ġbi quinho
Ġbu ch
Ġ110 8
Ġsen hor
Ġmulti filamento
sen si
Ġcalca rio
06 01
250 9
Ġbra ss
Ġpi j
Ġpri maria
52 60
Ġinter camb
Ġpan osul
bal oo
Ġsint Ã©tico
Ġfu el
Ġcam painha
Ġven um
Ġhd r
Ġreg ional
Ġaca ba
Ġgen erica
Ġbal one
Ġcen tr
Ġdel ine
bon i
Ġcel ite
ac ne
Ġfixa do
Ġfr d
ko ut
Ġperf uro
Ġsi fao
Ġusa das
Ġ115 2
lin da
Ġmor inga
Ġhy brid
Ġpel udo
bb it
170 4
170 6
Ġfri go
Ġsub woofer
far do
Ġ810 29
Ġfus or
aa a
Ġis c
Ġperola da
Ġbone cos
Ġbis choff
Ġtw s
ab t
Ġgar gantilha
Ġir rig
lis t
Ġ113 4
Ġnas o
Ġand reia
Ġson oro
Ġbea triz
Ġblin dex
Ġrus ty
Ġste via
Ġbom be
Ġbom bril
Ġforma tura
mor inga
Ġspa zio
Ġrt m
Ġmara jo
Ġcolo ur
Ġgreen plac
km j
Ġze bu
ranha dor
dra mar
Ġcamu fla
Ġblu menau
Ġkar inho
Ġkar cher
Ġsout h
Ġgela da
sl ing
Ġtamanhog corpreto
Ġcompl emen
Ġrend inha
pente adeira
tele visor
478 69
tru fa
Ġstor z
gf v
Ġanalo g
Ġzebra da
mun hequeira
Ġconv ite
Ġarabes cos
Ġ267 200
caval o
bomb ona
Ġveicul or
Ġnet uno
Ġespiri tual
Ġfini re
Ġtens ionador
Ġplasti cor
Ġincl inado
Ġvolk ped
Ġleb lon
Ġantibac teri
Ġreci pes
Ġcrea tive
Ġexpans iva
Ġtorno zelo
aqua rela
Ġafo gador
Ġske tch
tub ulacao
Ġumede cido
Ġcampe iro
Ġshar p
levo tirox
Ġnevo a
Ġestra te
gorg urao
gly de
Ġkos tal
embala gens
Ġdesig nado
Ġmilita ry
Ġcalig rafia
iclo vir
ĠacrÃŃ lico
scal p
tsl pvc
Ġlla nero
Ġmarsel ha
Ġvirgin ia
0 409
0 606
b ed
d bi
f ta
f ini
f subli
k ell
l w
n ers
u rante
u gal
z inhas
Ġp da
ra mal
in ffem
Ġd iodo
Ġ1 188
Ġa trio
Ġs ie
Ġs mt
to day
Ġf te
Ġf cia
Ġ2 114
Ġde van
Ġl ina
Ġl pm
al go
is tas
Ġco za
Ġco tt
Ġco pper
Ġco gumelo
ti val
ti mer
da d
Ġg z
Ġg hel
Ġ4 000000
01 85
ia m
un ch
sa bo
Ġre j
ri max
20 88
20 56
20 59
20 94
Ġo per
Ġca viar
Ġcom an
Ġ5 160
Ġpa tina
Ġ6 350
Ġ6 203
ed oria
ga ze
Ġ8 69
12 32
12 71
Ġj hc
Ġh upi
lo ja
lo mbo
40 61
30 44
Ġ9 77
Ġ9 93
ch inelos
ba ralho
Ġdo or
Ġem palux
60 38
60 29
ci one
22 46
Ġ/ //
15 65
Ġlo ka
pe gada
18 39
Ġ100 006
Ġbo j
Ġbo ttle
Ġbo teco
14 36
14 55
14 44
14 33
que imador
Ġcon trato
19 36
Ġ00 006
17 13
24 12
24 99
Ġtra vertino
Ġar s
so und
um ix
Ġba ralho
Ġba kof
Ġda car
Ġda vene
Ġ50 30
Ġse reno
100 50
Ġ18 22
75 44
26 60
26 28
fa g
fa lante
ite iro
Ġinf usao
Ġan tico
Ġan gra
Ġan th
38 48
ge ro
bra ia
Ġtri al
ral le
Ġdes umidificador
55 80
Ġ14 24
Ġno odles
Ġch loe
ad dera
Ġbe toneira
Ġpc x
Ġz t
jo gger
Ġen contra
Ġen comenda
Ġex gg
ver tus
di tion
Ġ500 1
ren s
Ġu fc
200 55
33 30
Ġac cord
Ġ24 23
pro g
br c
Ġcha pinha
Ġq q
32 15
ox etina
pp anthracite
Ġmed sonda
Ġta ti
mar c
mar in
can jica
Ġcro cod
43 16
42 19
Ġser ve
Ġest p
st y
Ġbol onh
Ġpar b
Ġmon oc
31 20
31 000
Ġri pas
Ġauto s
pos ter
bol s
Ġden ta
Ġtu ti
Ġtu tela
Ġtu bel
porta retrato
05 21
Ġ000 50
400 30
Ġ26 28
am orte
am end
Ġva cina
Ġel x
conj blusa
08 10
Ġbi an
Ġbi ologico
bl r
gan visa
74 01
Ġfi asa
gb t
ref le
Ġgl it
Ġpis cinas
73 01
tic io
pal meira
branco g
ag ar
pan etone
Ġ65 0000
wa x
Ġmag ni
Ġju juba
Ġcen si
Ġcapa ci
ac p
Ġ240 4
max ion
Ġpet unia
Ġmoto ra
Ġbri ck
Ã¡ til
Ġsi rene
Ġur b
fil ina
240 3
789 85
sand kidy
Ġpel mex
Ġmf d
ap li
inter face
401 9
Ġche etos
Ġsub st
Ġsch we
Ġlamina cao
fus ca
Ġmos t
feren cial
Ġns pa
lamina ti
Ġaero fit
leite ira
00000 2
Ġbon ito
ass inatura
Ġsta tslpvc
Ġsr x
dom ino
Ġespelho s
Ġgs r
Ġpj longo
Ġchi fon
Ġserra das
soft ware
vr d
smart watch
hor iz
Ġpq s
Ġblu r
Ġant iss
Ġglo b
av on
Ġestrutura da
out door
Ġdesli ga
bat man
Ġradio di
Ġwil lys
Ġfir m
hm w
Ġartic ul
sar ie
Ġabo ve
fes tao
Ġhydra glyde
Ġbsc fw
umb itos
Ġchin esa
Ġsaca pino
Ġantis hock
Ġfaber castell
liga cao
Ġblon de
enca ixe
Ġdesmon tado
Ġalex a
Ġbud weiser
Ġsara iva
tempra palio
Ġ789127 65
Ġtig go
Ġdianteir r
Ġtort ugu
Ġarredonda do
Ġ548 800
Ġodonto logico
Ġhom ens
Ġpoliv iscose
icio us
lacto bacillus
Ġston es
fesap bx
Ġlibe racao
Ġcontempo raneo
Ġincrus tada
canel eira
ĠÃº nico
Ġimpe rador
Ġtray mon
pequ eno
Ġ8955046 20000
Ġrevela cao
diclof enaco
Ġsemino vo
Ġphar lab
aplica cao
0284 1401
Ġuba tuba
Ġdelim itadora
empreso metro
Ġdesem pen
Ġastrona uta
Ġpreda tor
Ġsafi ano
Ġblogue irinha
levotirox ina
0 209
0 307
3 0000
5 0000
7 908
9 908
a fer
c sa
e um
f ed
f enda
f ung
g z
g iro
h v
j fa
j bl
k bc
p rim
r sh
Ġp inha
Ġd ha
re i
re ve
re gador
te tra
Ġa vel
Ġa ren
co al
Ġf gr
Ġl ido
do z
do se
is on
Ġco to
Ġv iro
Ġv cto
as i
Ġt fl
un ky
sa f
Ġre vo
ma y
de cker
20 96
Ġo dores
Ġcom po
Ġes se
Ġes meril
10 71
Ġpa po
Ġin vi
Ġin set
Ġx ingu
mm m
Ġ8 001
Ġ8 140
Ġ7 91
Ġk tl
Ġj i
Ġj aleco
Ġh ds
Ġla bs
30 96
30 73
Ġ9 010
Ġ10 74
Ġ10 53
Ġ10 345
Ġpreto gg
Ġ12 75
Ġ12 28
Ġ12 27
Ġ12 85
tor ques
11 88
11 83
Ġpara iba
60 95
ci la
Ġal ga
22 76
15 29
15 51
Ġver dade
cha ise
ino ar
90 201
gu re
13 35
13 53
25 12
25 80
Ġbo tox
Ġ15 60
14 19
14 46
Ġmas ks
19 18
19 65
35 36
35 55
Ġ00 65
17 39
17 88
Ġna m
Ġna tive
Ġtra c
Ġtra der
ig as
Ġpro cessa
Ġba ra
Ġto ne
Ġto quio
23 35
23 95
Ġ18 11
Ġ16 14
Ġ16 34
26 18
fa m
jun tas
Ġan v
Ġ01 42
ge ar
28 20
28 24
ral cool
Ġam assa
car tolina
Ġ14 90
Ġch r
Ġch ita
lan do
ad s
Ġen vern
Ġti ros
mp t
Ġne ed
200 00000000
33 33
Ġor tos
Ġ36 48
Ġac f
Ġ24 28
Ġsup plex
Ġ19 25
Ġ19 45
Ġlu durana
Ġsu as
32 80
pp b
Ġta quara
47 90
mar shmallow
Ġama ranto
Ġsh ant
42 000
val enca
cla va
mas a
Ġha y
Ġ22 10
Ġvi b
Ġfe ixo
bol izador
ven osan
ced rinho
Ġwhite p
ok i
Ġtr ilhos
Ġcab eleire
Ġanex o
tes ter
02 40
Ġ03 75
th ers
Ġpu gg
08 21
Ġbi elet
lam ed
Ġ110 9
Ġpes ticida
ban do
04 20
ea t
Ġmini pa
Ġbl iss
Ġpis tÃ£o
cel este
fer rugem
lt da
rel Ã³gio
Ġgal era
Ġim ersao
Ġmarca cao
cc d
Ġol iver
Ġrol ling
Ġfu ofw
Ġpos tural
Ġlim it
Ġcen tra
Ġmal div
enda zol
Ġbb b
Ġbro to
240 5
Ġuno palio
bel iche
mos si
Ġpolia xial
Ġpel es
Ġcli ma
401 3
Ġara pon
Ġsub m
2000 2
Ġher itage
Ġcat upiry
cci on
Ġcra queado
madeira s
Ġth in
Ġtx c
trans f
Ġfoto polimerizavel
Ġqual ea
Ġir mossi
sol flex
Ġsun rise
Ġlen cos
hi um
fu ba
Ġhig i
Ġ76 30
Ġjan elas
flo or
Ġeletro mar
gos o
Ġdal u
Ġgalvan o
Ġit s
Ġchar lotte
Ġnos e
Ġpass as
Ġze iss
fm j
Ġguar dian
hy dra
Ġroman o
del co
Ġbf h
Ġsy mbol
aca frao
Ġkar ui
ib uprofeno
Ġalon g
Ġalon ga
Ġelec tric
Ġpress ure
Ġfura dinho
Ġlow cucar
prof eno
liberte kids
casa quinho
Ġpapa iz
Ġhead phone
Ġdrive way
Ġath ena
Ġalgo d
Ġsic ilia
Ġspin ner
spe edo
wi fi
Ġreten to
Ġtho mas
Ġcosme tico
Ġintra med
Ġcober tor
Ġazu is
Ġsca le
table te
Ġsara h
Ġresta uracao
Ġpec cin
Ġtai lan
Ġexcen trico
Ġpsico logia
Ġnick el
Ġapren der
Ġestim ulador
Ġtrilo bal
Ġchris tmas
eas y
Ġaper itivo
Ġscri ty
Ġquadrup la
Ġrecu ado
maqu iagem
esul ida
Ġcanad ense
Ġhapp iness
Ġkik i
rapa dura
indus trial
Ġlenox x
Ġamper imetro
Ġbohem ia
colon iao
ĠlÃŃqu ido
ĠnÃº mero
unicor nio
Ġslouch y
Ġlasan ha
asti gmatism
Ġcomplemen tar
Ġtortugu ita
0 404
2 136
4 201
6 202
6 1101
9 012
b st
b ios
c umaru
e poxi
f tal
f ona
h inhos
n ivela
o io
o regano
s es
s bb
u iche
w ind
z x
Ġc gr
in za
in ity
00 85
00 66
00 49
re tal
te cla
ta gs
or osa
Ġa pe
Ġa rado
Ġa bras
la la
ro e
Ġb ed
Ġf end
Ġde bora
Ġco q
ti Ã£
Ġg ral
en na
es fol
Ġ4 014
un as
sa caria
Ġre condicionado
il li
20 62
Ġo bri
qu ip
Ġca iru
Ġes tica
Ġ5 900
Ġpre tor
le an
ed uca
Ġin tex
bo hn
ga u
Ġ8 002
Ġ7 003
Ġun x
Ġla ve
Ġ9 74
dor flex
Ġ12 33
Ġcor pink
Ġr kt
ch p
ch umbinho
Ġem erg
ci pro
80 35
Ġal ves
Ġal ien
15 62
16 000
Ġi h
Ġver tus
Ġver mont
Ġdi ego
cha peus
90 45
90 36
13 66
13 97
[...]
