{"[PAD]":0,"[UNK]":1,"[CLS]":2,"[SEP]":3,"[MASK]":4,"!":5,"\"":6,"#":7,"$":8,"%":9,"&":10,"'":11,"(":12,")":13,"*":14,"+":15,",":16,"-":17,".":18,"/":19,"0":20,"1":21,"2":22,"3":23,"4":24,"5":25,"6":26,"7":27,"8":28,"9":29,":":30,";":31,"<":32,"=":33,">":34,"?":35,"@":36,"A":37,"B":38,"C":39,"D":40,"E":41,"F":42,"G":43,"H":44,"I":45,"J":46,"K":47,"L":48,"M":49,"N":50,"O":51,"P":52,"Q":53,"R":54,"S":55,"T":56,"U":57,"V":58,"W":59,"X":60,"Y":61,"Z":62,"[":63,"\\":64,"]":65,"^":66,"_":67,"`":68,"a":69,"b":70,"c":71,"d":72,"e":73,"f":74,"g":75,"h":76,"i":77,"j":78,"k":79,"l":80,"m":81,"n":82,"o":83,"p":84,"q":85,"r":86,"s":87,"t":88,"u":89,"v":90,"w":91,"x":92,"y":93,"z":94,"{":95,"|":96,"}":97,"~":98,"¡":99,"¢":100,"£":101,"¤":102,"¥":103,"¦":104,"§":105,"¨":106,"©":107,"ª":108,"«":109,"¬":110,"®":111,"¯":112,"°":113,"±":114,"²":115,"³":116,"´":117,"µ":118,"¶":119,"·":120,"¸":121,"¹":122,"º":123,"»":124,"¼":125,"½":126,"¾":127,"¿":128,"À":129,"Á":130,"Â":131,"Ã":132,"Ä":133,"Å":134,"Æ":135,"Ç":136,"È":137,"É":138,"Ê":139,"Ë":140,"Ì":141,"Í":142,"Î":143,"Ï":144,"Ð":145,"Ñ":146,"Ò":147,"Ó":148,"Ô":149,"Õ":150,"Ö":151,"×":152,"Ø":153,"Ù":154,"Ú":155,"Û":156,"Ü":157,"Ý":158,"Þ":159,"ß":160,"à":161,"á":162,"â":163,"ã":164,"ä":165,"å":166,"æ":167,"ç":168,"è":169,"é":170,"ê":171,"ë":172,"ì":173,"í":174,"î":175,"ï":176,"ð":177,"ñ":178,"ò":179,"ó":180,"ô":181,"õ":182,"ö":183,"÷":184,"ø":185,"ù":186,"ú":187,"û":188,"ü":189,"ý":190,"þ":191,"ÿ":192,"Ā":193,"ā":194,"Ă":195,"ă":196,"Ą":197,"ą":198,"Ć":199,"ć":200,"Ĉ":201,"ĉ":202,"Ċ":203,"ċ":204,"Č":205,"č":206,"Ď":207,"ď":208,"Đ":209,"đ":210,"Ē":211,"ē":212,"Ĕ":213,"ĕ":214,"Ė":215,"ė":216,"Ę":217,"ę":218,"Ě":219,"ě":220,"Ĝ":221,"ĝ":222,"Ğ":223,"ğ":224,"Ġ":225,"ġ":226,"Ģ":227,"ģ":228,"Ĥ":229,"ĥ":230,"Ħ":231,"ħ":232,"Ĩ":233,"ĩ":234,"Ī":235,"ī":236,"Ĭ":237,"ĭ":238,"Į":239,"į":240,"İ":241,"ı":242,"Ĳ":243,"ĳ":244,"Ĵ":245,"ĵ":246,"Ķ":247,"ķ":248,"ĸ":249,"Ĺ":250,"ĺ":251,"Ļ":252,"ļ":253,"Ľ":254,"ľ":255,"Ŀ":256,"ŀ":257,"Ł":258,"ł":259,"Ń":260,"Ġc":261,"Ġp":262,"ra":263,"Ġm":264,"in":265,"00":266,"Ġd":267,"Ġ1":268,"ca":269,"re":270,"te":271,"ta":272,"or":273,"Ġa":274,"Ġs":275,"la":276,"ro":277,"Ġb":278,"co":279,"to":280,"Ġf":281,"Ġe":282,"Ġ2":283,"Ġde":284,"an":285,"er":286,"Ġl":287,"al":288,"do":289,"is":290,"Ġco":291,"ti":292,"Ġ3":293,"da":294,"Ġv":295,"Ġg":296,"ar":297,"en":298,"ha":299,"el":300,"es":301,"ol":302,"as":303,"on":304,"Ġ4":305,"Ġn":306,"01":307,"Ġt":308,"ia":309,"pa":310,"un":311,"sa":312,"ho":313,"50":314,"Ġre":315,"il":316,"ul":317,"ma":318,"de":319,"ri":320,"20":321,"Ġo":322,"em":323,"Ġ0":324,"ran":325,"qu":326,"Ġca":327,"Ġcom":328,"Ġes":329,"10":330,"Ġ5":331,"io":332,"Ġpa":333,"Ġpre":334,"Ġ6":335,"le":336,"ed":337,"Ġin":338,"us":339,"Ġx":340,"ic":341,"mm":342,"bo":343,"it":344,"tam":345,"ira":346,"Ġro":347,"ga":348,"im":349,"os":350,"Ġ8":351,"Ġ7":352,"lu":353,"Ġun":354,"eta":355,"12":356,"cao":357,"Ġk":358,"ter":359,"ina":360,"Ġj":361,"000":362,"Ġh":363,"lo":364,"Ġla":365,"40":366,"30":367,"va":368,"Ġ9":369,"dor":370,"las":371,"Ġ10":372,"Ġpreto":373,"Ġma":374,"Ġ12":375,"Ġcor":376,"go":377,"ix":378,"tor":379,"Ġr":380,"11":381,"Ġpara":382,"ch":383,"ura":384,"ica":385,"ba":386,"Ġdo":387,"Ġem":388,"iv":389,"60":390,"ml":391,"up":392,"ci":393,"tro":394,"ne":395,"80":396,"Ġal":397,"id":398,"22":399,"Ġmo":400,"ur":401,"ico":402,"Ġ/":403,"mis":404,"15":405,"ten":406,"za":407,"me":408,"tra":409,"Ġfem":410,"Ġlo":411,"Ġ20":412,"cal":413,"16":414,"Ġi":415,"ve":416,"mo":417,"po":418,"Ġver":419,"Ġdi":420,"se":421,"pe":422,"na":423,"Ġbran":424,"cm":425,"cha":426,"ino":427,"90":428,"gu":429,"13":430,"con":431,"25":432,"18":433,"inha":434,"70":435,"Ġ100":436,"inho":437,"Ġbo":438,"Ġ15":439,"Ġmar":440,"14":441,"Ġaz":442,"Ġsa":443,"Ġw":444,"que":445,"Ġoc":446,"Ġtam":447,"ento":448,"Ġmas":449,"Ġcon":450,"til":451,"res":452,"camis":453,"19":454,"ort":455,"35":456,"Ġ00":457,"Ġso":458,"17":459,"Ġte":460,"ja":461,"24":462,"no":463,"Ġna":464,"Ġtra":465,"tico":466,"lusa":467,"Ġbranco":468,"ig":469,"Ġar":470,"so":471,"tal":472,"Ġ30":473,"Ġpe":474,"Ġst":475,"Ġazul":476,"Ġref":477,"Ġpro":478,"uro":479,"ce":480,"um":481,"Ġba":482,"Ġto":483,"Ġda":484,"kit":485,"ida":486,"Ġ50":487,"Ġra":488,"Ġse":489,"23":490,"45":491,"Ġped":492,"100":493,"Ġpol":494,"li":495,"iro":496,"Ġcar":497,"Ġ18":498,"Ġman":499,"75":500,"Ġmasc":501,"Ġlis":502,"ĠĊ":503,"ir":504,"Ġ16":505,"Ġ25":506,"ixa":507,"89":508,"Ġlote":509,"26":510,"fa":511,"tido":512,"ido":513,"ula":514,"36":515,"ite":516,"Ġ40":517,"jun":518,"Ġbas":519,"Ġinf":520,"tampa":521,"Ġan":522,"Ġ01":523,"uto":524,"lor":525,"21":526,"blusa":527,"ves":528,"38":529,"Ġ200":530,"ge":531,"fe":532,"bra":533,"and":534,"calca":535,"ck":536,"tura":537,"Ġtri":538,"Ġfa":539,"mel":540,"ole":541,"34":542,"28":543,"orta":544,"Ġval":545,"Ġad":546,"ral":547,"vel":548,"tan":549,"be":550,"39":551,"vo":552,"Ġpo":553,"tenis":554,"Ġdes":555,"27":556,"Ġle":557,"29":558,"Ġam":559,"car":560,"55":561,"alha":562,"Ġ14":563,"ita":564,"ber":565,"orte":566,"Ġno":567,"Ġch":568,"ts":569,"Ġfemin":570,"mento":571,"Ġmm":572,"ine":573,"Ġplas":574,"Ġme":575,"ing":576,"37":577,"lan":578,"Ġbr":579,"gr":580,"tri":581,"ante":582,"ad":583,"Ġbe":584,"camiseta":585,"deira":586,"Ġ201":587,"Ġpc":588,"44":589,"Ġz":590,"jo":591,"Ġen":592,"Ġti":593,"ru":594,"Ġestampa":595,"Ġex":596,"Ġrosa":597,"99":598,"Ġcx":599,"elo":600,"65":601,"ver":602,"junto":603,"Ġbor":604,"raf":605,"di":606,"Ġve":607,"Ġ500":608,"ren":609,"mp":610,"Ġne":611,"vestido":612,"Ġcin":613,"Ġu":614,"ente":615,"Ġaco":616,"200":617,"85":618,"Ġ60":619,"Ġverde":620,"imp":621,"min":622,"Ġsem":623,"33":624,"cor":625,"Ġml":626,"arra":627,"man":628,"Ġor":629,"Ġli":630,"Ġ36":631,"Ġac":632,"kg":633,"Ġ24":634,"Ġsup":635,"pro":636,"tu":637,"br":638,"ss":639,"Ġcha":640,"anho":641,"Ġje":642,"ie":643,"iltro":644,"gem":645,"bu":646,"lar":647,"one":648,"Ġ19":649,"conjunto":650,"sh":651,"Ġ35":652,"Ġcomp":653,"46":654,"Ġlu":655,"Ġga":656,"isco":657,"ito":658,"Ġqu":659,"iz":660,"andal":661,"Ġcur":662,"ado":663,"48":664,"Ġ17":665,"he":666,"Ġ38":667,"ff":668,"Ġlon":669,"Ġcas":670,"Ġov":671,"Ġsu":672,"Ġ45":673,"Ġvermel":674,"Ġcal":675,"Ġq":676,"cas":677,"Ġmes":678,"ip":679,"cho":680,"ans":681,"76":682,"95":683,"Ġfor":684,"Ġbase":685,"ras":686,"lex":687,"ers":688,"sao":689,"ion":690,"pt":691,"andalia":692,"Ġsin":693,"mu":694,"gg":695,"32":696,"Ġmanga":697,"Ġcan":698,"lus":699,"ox":700,"0000":701,"Ġcm":702,"ris":703,"pp":704,"sor":705,"uso":706,"Ġmed":707,"mb":708,"antil":709,"Ġmascul":710,"Ġkg":711,"Ġta":712,"iza":713,"201":714,"Ġ13":715,"Ġgg":716,"47":717,"66":718,"pre":719,"Ġsol":720,"49":721,"Ġ150":722,"Ġele":723,"Ġmod":724,"Ġfre":725,"Ġinfantil":726,"mar":727,"ies":728,"ela":729,"pol":730,"Ġjeans":731,"mg":732,"78":733,"tr":734,"Ġama":735,"can":736,"pla":737,"Ġ300":738,"rans":739,"Ġpra":740,"dao":741,"tica":742,"Ġmc":743,"Ġsp":744,"Ġmalha":745,"eira":746,"muda":747,"Ġcinza":748,"des":749,"98":750,"bre":751,"Ġplastico":752,"pel":753,"camisa":754,"Ġpv":755,"Ġmarinho":756,"Ġvermelho":757,"Ġgra":758,"Ġfeminino":759,"ini":760,"ant":761,"Ġtrib":762,"Ġcro":763,"Ġpr":764,"idro":765,"for":766,"Ġporta":767,"Ġcolor":768,"gua":769,"col":770,"cu":771,"Ġpin":772,"Ġflo":773,"Ġ90":774,"dos":775,"ps":776,"mi":777,"Ġ11":778,"onte":779,"Ġmeta":780,"43":781,"ana":782,"Ġsh":783,"sapa":784,"96":785,"Ġpla":786,"tas":787,"short":788,"77":789,"Ġ80":790,"42":791,"Ġmotor":792,"ixo":793,"Ġser":794,"val":795,"88":796,"Ġ250":797,"Ġliso":798,"Ġcol":799,"cido":800,"Ġest":801,"ton":802,"caixa":803,"relo":804,"oleo":805,"Ġter":806,"cia":807,"Ġkit":808,"st":809,"Ġgo":810,"Ġtrans":811,"Ġ220":812,"Ġpreta":813,"Ġbol":814,"Ġpar":815,"tar":816,"cial":817,"ms":818,"ron":819,"godao":820,"Ġmon":821,"Ġdire":822,"erf":823,"Ġce":824,"Ġtamanho":825,"31":826,"tilha":827,"sandalia":828,"Ġlt":829,"Ġmul":830,"Ġsl":831,"300":832,"Ġvol":833,"pi":834,"Ġinox":835,"Ġ05":836,"paraf":837,"Ġpvc":838,"Ġmic":839,"41":840,"ros":841,"sup":842,"ut":843,"mba":844,"ke":845,"cla":846,"cabo":847,"gra":848,"Ġ28":849,"Ġ37":850,"Ġfreio":851,"rente":852,"Ġy":853,"cola":854,"du":855,"68":856,"bi":857,"Ġri":858,"mas":859,"Ġ02":860,"by":861,"Ġplus":862,"das":863,"Ġ120":864,"Ġha":865,"pc":866,"nex":867,"Ġwh":868,"Ġ22":869,"500":870,"Ġauto":871,"Ġ42":872,"dy":873,"97":874,"Ġ70":875,"010":876,"reia":877,"Ġfiltro":878,"Ġcre":879,"utos":880,"Ġ400":881,"bermuda":882,"Ġfeminina":883,"tin":884,"Ġqt":885,"67":886,"pos":887,"Ġres":888,"tom":889,"pu":890,"Ġvi":891,"Ġgol":892,"Ġsil":893,"Ġfio":894,"rol":895,"Ġpedido":896,"Ġelas":897,"Ġalgodao":898,"Ġfe":899,"bol":900,"Ġlar":901,"ona":902,"idade":903,"Ġled":904,"Ġcla":905,"Ġalu":906,"69":907,"Ġden":908,"Ġimp":909,"Ã§":910,"Ġpp":911,"gata":912,"Ġjo":913,"racha":914,"Ġib":915,"Ġnu":916,"preto":917,"lamento":918,"Ġdeco":919,"Ġsuper":920,"ces":921,"Ġcouro":922,"Ġmetal":923,"Ġtu":924,"Ġdup":925,"Ġ34":926,"ind":927,"Ġpt":928,"Ġban":929,"Ġbranca":930,"terna":931,"ilha":932,"Ġcomb":933,"Ġpas":934,"et":935,"Ġon":936,"Ġ39":937,"ven":938,"ulo":939,"ste":940,"pen":941,"nda":942,"Ġdiante":943,"Ġja":944,"101":945,"por":946,"porta":947,"su":948,"05":949,"inel":950,"capa":951,"pr":952,"tao":953,"Ġgr":954,"Ġhid":955,"Ġcamis":956,"Ġsk":957,"Ġho":958,"Ġ789":959,"Ġ06":960,"Ġtrase":961,"Ġ08":962,"ard":963,"Ġmole":964,"Ġpal":965,"Ġestampado":966,"ivo":967,"Ġic":968,"lado":969,"iester":970,"Ġvalor":971,"Ġ000":972,"ivers":973,"400":974,"ele":975,"Ġcho":976,"Ġ26":977,"ced":978,"Ġdesc":979,"150":980,"Ġwhite":981,"rado":982,"bs":983,"Ġesc":984,"der":985,"Ġcos":986,"vol":987,"bor":988,"Ġoff":989,"jogo":990,"Ġgran":991,"Ġlate":992,"Ġvidro":993,"Ġfonte":994,"filtro":995,"Ġsinte":996,"Ġbarra":997,"irt":998,"Ġoleo":999,"tina":1000,"63":1001,"vula":1002,"am":1003,"ilho":1004,"ok":1005,"Ġtr":1006,"Ġ32":1007,"Ġva":1008,"Ġcab":1009,"Ġanex":1010,"Ġmen":1011,"anel":1012,"79":1013,"Ġbla":1014,"Ġmicro":1015,"ior":1016,"iso":1017,"Ġorig":1018,"ual":1019,"Ġflex":1020,"Ġblusa":1021,"che":1022,"tes":1023,"racao":1024,"Ġamarelo":1025,"Ġmasculino":1026,"maca":1027,"rao":1028,"Ġas":1029,"72":1030,"tivo":1031,"02":1032,"Ġ03":1033,"cinha":1034,"Ġtributos":1035,"parafuso":1036,"pas":1037,"th":1038,"Ġ48":1039,"lon":1040,"Ġanexado":1041,"Ġgu":1042,"Ġel":1043,"van":1044,"ft":1045,"conj":1046,"Ġfo":1047,"Ġcurta":1048,"ranja":1049,"Ġpu":1050,"Ġ04":1051,"Ġsal":1052,"Ġ44":1053,"Ġsus":1054,"xi":1055,"Ġ23":1056,"top":1057,"Ġquad":1058,"tel":1059,"Ġros":1060,"58":1061,"fi":1062,"Ġ21":1063,"08":1064,"Ġbi":1065,"Ġdiant":1066,"tem":1067,"Ġibpt":1068,"bl":1069,"bri":1070,"inal":1071,"Ġnf":1072,"64":1073,"Ġbu":1074,"lam":1075,"Ġ110":1076,"Ġlisa":1077,"ivel":1078,"Ġ27":1079,"igh":1080,"001":1081,"Ġclaro":1082,"Ġcr":1083,"les":1084,"Ġ75":1085,"suporte":1086,"Ġ1000":1087,"rante":1088,"Ġpoliester":1089,"gan":1090,"cos":1091,"Ġpes":1092,"Ġ33":1093,"Ġlonga":1094,"gen":1095,"rom":1096,"queta":1097,"Ġsen":1098,"Ġmulti":1099,"bran":1100,"vas":1101,"03":1102,"Ġfci":1103,"Ġadul":1104,"Ġslim":1105,"onal":1106,"mes":1107,"74":1108,"ka":1109,"Ġanti":1110,"Ġlarg":1111,"sen":1112,"gueira":1113,"Ġclas":1114,"cre":1115,"ser":1116,"Ġborracha":1117,"Ġcalca":1118,"Ġmescla":1119,"Ġblack":1120,"dic":1121,"56":1122,"Ġ46":1123,"icao":1124,"Ġap":1125,"ex":1126,"Ġfi":1127,"Ġdis":1128,"Ġsex":1129,"Ġfer":1130,"Ġcris":1131,"mal":1132,"Ġtampa":1133,"Ġmb":1134,"Ġsan":1135,"mon":1136,"ador":1137,"Ġesp":1138,"est":1139,"gre":1140,"mado":1141,"Ġrec":1142,"Ġprata":1143,"Ġpor":1144,"Ġrenda":1145,"Ġbaby":1146,"Ġlistra":1147,"Ġchave":1148,"Ã£":1149,"Ġpto":1150,"Ġsor":1151,"06":1152,"Ġroda":1153,"Ġbege":1154,"dura":1155,"Ġcabo":1156,"ban":1157,"250":1158,"120":1159,"Ġborda":1160,"pin":1161,"Ġqtde":1162,"gb":1163,"ze":1164,"ril":1165,"Ġmasculina":1166,"Ġge":1167,"Ġdia":1168,"Ġouro":1169,"ux":1170,"ref":1171,"Ġbebe":1172,"Ġkid":1173,"cin":1174,"Ġadulto":1175,"Ġunica":1176,"Ġ180":1177,"Ġmedio":1178,"je":1179,"59":1180,"nr":1181,"cedor":1182,"tubo":1183,"57":1184,"Ġhidra":1185,"Ġfol":1186,"Ġdd":1187,"Ġalumin":1188,"04":1189,"Ġtecido":1190,"Ġmd":1191,"ea":1192,"09":1193,"fica":1194,"Ġnew":1195,"Ã£o":1196,"Ġ29":1197,"ly":1198,"Ġveic":1199,"gi":1200,"Ġpecas":1201,"Ġmeia":1202,"Ġdoura":1203,"Ġmini":1204,"Ġnatura":1205,"Ġed":1206,"Ġcaixa":1207,"Ġbl":1208,"Ġpres":1209,"86":1210,"Ġaluminio":1211,"fita":1212,"don":1213,"Ġfil":1214,"Ġbra":1215,"mpo":1216,"Ġagr":1217,"Ġvisco":1218,"Ġgl":1219,"Ġtras":1220,"Ġpi":1221,"bucha":1222,"dia":1223,"Ġ600":1224,"Ġpis":1225,"73":1226,"tentor":1227,"cel":1228,"Ġque":1229,"ios":1230,"fo":1231,"ada":1232,"para":1233,"ped":1234,"Ġitem":1235,"Ġsapa":1236,"ano":1237,"Ġcu":1238,"Ġmax":1239,"tic":1240,"fer":1241,"teira":1242,"iss":1243,"54":1244,"Ġlaranja":1245,"Ġag":1246,"Ġprote":1247,"lue":1248,"rio":1249,"84":1250,"painel":1251,"lt":1252,"enta":1253,"sc":1254,"Ġpremi":1255,"Ġ09":1256,"110":1257,"Ġat":1258,"ena":1259,"Ġred":1260,"Ġoriginal":1261,"Ġpri":1262,"52":1263,"Ġld":1264,"ight":1265,"rel":1266,"eno":1267,"tivel":1268,"saia":1269,"lao":1270,"xo":1271,"Ġtipo":1272,"Ġpolo":1273,"cadeira":1274,"ular":1275,"color":1276,"Ġsintetico":1277,"62":1278,"emento":1279,"Ġagua":1280,"ili":1281,"87":1282,"Ġper":1283,"Ġcod":1284,"si":1285,"055":1286,"dicion":1287,"ulos":1288,"neu":1289,"Ġfit":1290,"cj":1291,"Ġpcs":1292,"tos":1293,"ias":1294,"Ġos":1295,"Ġgal":1296,"Ġeletri":1297,"Ġpink":1298,"ny":1299,"Ġlinha":1300,"Ġber":1301,"1000":1302,"07":1303,"Ġ001":1304,"Ġ55":1305,"Ġsola":1306,"Ġinter":1307,"Ġcil":1308,"tion":1309,"erfil":1310,"Ġim":1311,"mol":1312,"Ġcristal":1313,"Ġtributosr":1314,"Ġmarca":1315,"dora":1316,"Ġ125":1317,"Ġpremium":1318,"vis":1319,"regata":1320,"mc":1321,"Ġii":1322,"bone":1323,"Ġsc":1324,"Ġlateral":1325,"220":1326,"Ġcores":1327,"600":1328,"Ġbar":1329,"lador":1330,"Ġmarrom":1331,"cil":1332,"inelo":1333,"Ġtop":1334,"ls":1335,"Ġmodelo":1336,"pal":1337,"pra":1338,"Ġmt":1339,"Ġlam":1340,"ct":1341,"ucao":1342,"junta":1343,"par":1344,"Ġdianteiro":1345,"94":1346,"placa":1347,"Ġmadeira":1348,"tre":1349,"Ġprin":1350,"Ġseq":1351,"Ġcamiseta":1352,"Ġ127":1353,"140":1354,"saco":1355,"Ġgola":1356,"Ġterm":1357,"Ġtor":1358,"Ġvw":1359,"Ġalta":1360,"cc":1361,"ero":1362,"luva":1363,"minal":1364,"Ġestampada":1365,"shorts":1366,"Ġcurto":1367,"mer":1368,"branco":1369,"ram":1370,"Ġclass":1371,"aria":1372,"Ġbico":1373,"61":1374,"mt":1375,"Ġcombus":1376,"Ġean":1377,"Ġfun":1378,"Ġfla":1379,"bro":1380,"cli":1381,"003":1382,"vi":1383,"Ġpan":1384,"71":1385,"Ġrose":1386,"125":1387,"tiva":1388,"Ġind":1389,"Ġdu":1390,"ds":1391,"Ġshort":1392,"Ġnatural":1393,"tida":1394,"paro":1395,"Ġjun":1396,"rela":1397,"Ġkids":1398,"Ġph":1399,"tano":1400,"chave":1401,"Ġny":1402,"Ġlongo":1403,"Ġ160":1404,"Ġ31":1405,"tros":1406,"ao":1407,"83":1408,"Ġcl":1409,"bal":1410,"Ġus":1411,"pada":1412,"pped":1413,"Ġsimp":1414,"colate":1415,"cr":1416,"Ġdir":1417,"quer":1418,"53":1419,"mada":1420,"ete":1421,"Ġtur":1422,"idades":1423,"tsh":1424,"Ġol":1425,"Ġrol":1426,"Ġtenis":1427,"ph":1428,"Ġescuro":1429,"Ġblue":1430,"Ġlan":1431,"tex":1432,"pon":1433,"az":1434,"bas":1435,"Ġdourado":1436,"Ġsint":1437,"qui":1438,"tador":1439,"82":1440,"brin":1441,"Ġ41":1442,"Ġ07":1443,"Ġmesa":1444,"93":1445,"Ġ43":1446,"Ġfu":1447,"bc":1448,"Ġdivers":1449,"quete":1450,"Ġvel":1451,"flex":1452,"Ġsandalia":1453,"rolamento":1454,"body":1455,"Ġtex":1456,"Ġcomple":1457,"002":1458,"Ġespe":1459,"92":1460,"tshirt":1461,"Ġvl":1462,"tia":1463,"den":1464,"Ġpct":1465,"pis":1466,"Ġtan":1467,"Ġserie":1468,"iat":1469,"tamanho":1470,"per":1471,"ag":1472,"ian":1473,"bolsa":1474,"fort":1475,"Ġnao":1476,"rada":1477,"Ġcam":1478,"disco":1479,"bota":1480,"Ġnr":1481,"macacao":1482,"Ġocnr":1483,"cara":1484,"mangueira":1485,"Ġfos":1486,"Ġven":1487,"Ġsuspen":1488,"Ġacril":1489,"Ġmoletom":1490,"chinelo":1491,"pan":1492,"wer":1493,"Ġbox":1494,"has":1495,"Ġ65":1496,"Ġesquer":1497,"digo":1498,"Ġesta":1499,"wa":1500,"Ġ96":1501,"sapatilha":1502,"Ġ140":1503,"tton":1504,"Ġprof":1505,"Ġeixo":1506,"Ġhd":1507,"Ġtraseiro":1508,"polo":1509,"posta":1510,"Ġcru":1511,"pes":1512,"cado":1513,"gar":1514,"Ġpon":1515,"Ġdirecao":1516,"Ġgrande":1517,"Ġreg":1518,"volucao":1519,"Ġsar":1520,"91":1521,"pete":1522,"700":1523,"ortecedor":1524,"gas":1525,"Ġfloral":1526,"bomba":1527,"Ġaca":1528,"Ġaba":1529,"cx":1530,"Ġextra":1531,"her":1532,"Ġunidades":1533,"Ġchocolate":1534,"Ġgen":1535,"Ġbras":1536,"pl":1537,"Ġmg":1538,"Ġmag":1539,"Ġju":1540,"Ġdevolucao":1541,"Ġaro":1542,"Ġtin":1543,"Ġmid":1544,"51":1545,"perfil":1546,"gging":1547,"Ġfran":1548,"Ġcombustivel":1549,"Ġbal":1550,"retentor":1551,"indro":1552,"Ġicms":1553,"Ġlit":1554,"Ġgel":1555,"Ġou":1556,"Ġ101":1557,"gel":1558,"trole":1559,"Ġdupla":1560,"Ġtot":1561,"len":1562,"jama":1563,"Ġproposta":1564,"81":1565,"imento":1566,"Ġmil":1567,"Ġpos":1568,"Ġgraf":1569,"Ġlim":1570,"Ġbel":1571,"Ġmol":1572,"Ġduplo":1573,"Ġly":1574,"ry":1575,"Ġsoft":1576,"Ġtraseira":1577,"cote":1578,"Ġdecote":1579,"valvula":1580,"teria":1581,"cada":1582,"ble":1583,"ista":1584,"Ġcafe":1585,"cro":1586,"Ġskin":1587,"elas":1588,"Ġcen":1589,"isa":1590,"Ġka":1591,"sapato":1592,"Ġsimples":1593,"rede":1594,"Ġelastico":1595,"Ġcap":1596,"Ġrolamento":1597,"Ġbc":1598,"Ġbasica":1599,"sp":1600,"calcinha":1601,"mao":1602,"jg":1603,"Ġapro":1604,"ctor":1605,"meia":1606,"800":1607,"Ġdel":1608,"niz":1609,"ario":1610,"Ġviscose":1611,"tado":1612,"ins":1613,"icone":1614,"Ġredon":1615,"Ġul":1616,"Ġ350":1617,"Ġbomba":1618,"tim":1619,"ess":1620,"Ġvalvula":1621,"bon":1622,"we":1623,"sem":1624,"Ġbiv":1625,"Ġmin":1626,"210":1627,"Ġnylon":1628,"130":1629,"Ġlight":1630,"chi":1631,"Ġcel":1632,"dar":1633,"Ġcapa":1634,"pneu":1635,"cl":1636,"tch":1637,"Ġ95":1638,"Ġms":1639,"Ġbco":1640,"ac":1641,"esivo":1642,"Ġ85":1643,"Ġfixa":1644,"Ġ790":1645,"bar":1646,"Ġves":1647,"dio":1648,"Ġesq":1649,"tada":1650,"Ġ240":1651,"Ġtec":1652,"Ġfiat":1653,"ot":1654,"Ġcb":1655,"Ġfr":1656,"Ġalca":1657,"max":1658,"comp":1659,"Ġeco":1660,"zer":1661,"Ġhidraul":1662,"Ġbov":1663,"bertura":1664,"mesa":1665,"Ġ800":1666,"Ġret":1667,"ys":1668,"Ġredondo":1669,"Ġdetal":1670,"bina":1671,"Ġcabe":1672,"izada":1673,"zado":1674,"Ġ750":1675,"180":1676,"deja":1677,"nicao":1678,"Ġmal":1679,"Ġplast":1680,"Ġcanela":1681,"ola":1682,"fibra":1683,"sal":1684,"izador":1685,"ko":1686,"Ġsuspensao":1687,"gular":1688,"Ġtubo":1689,"Ġ450":1690,"pcs":1691,"0001":1692,"Ġpequ":1693,"Ġbd":1694,"enda":1695,"Ġbojo":1696,"Ġpressao":1697,"book":1698,"Ġpad":1699,"cto":1700,"cb":1701,"ruela":1702,"Ġwa":1703,"pino":1704,"Ġpd":1705,"Ġnude":1706,"Ġsarja":1707,"rola":1708,"Ġautomo":1709,"ume":1710,"Ġ900":1711,"Ġford":1712,"diador":1713,"dis":1714,"prote":1715,"ule":1716,"papel":1717,"Ġfru":1718,"Ġ210":1719,"Ġbb":1720,"ive":1721,"gio":1722,"Ġbolso":1723,"vado":1724,"Ġbordado":1725,"Ġpet":1726,"Ġcamb":1727,"Ġtitan":1728,"terminal":1729,"Ġav":1730,"brea":1731,"160":1732,"Ġao":1733,"Ġano":1734,"Ġpen":1735,"Ġcp":1736,"350":1737,"lante":1738,"Ġstra":1739,"xim":1740,"Ġmer":1741,"porca":1742,"Ġcir":1743,"Ġdireito":1744,"Ġmoto":1745,"900":1746,"iper":1747,"lete":1748,"Ġfron":1749,"ama":1750,"onda":1751,"Ġpapel":1752,"Ġregata":1753,"cional":1754,"correia":1755,"Ġpl":1756,"yal":1757,"Ġdos":1758,"ĠĠ":1759,"Ġbri":1760,"Ġveda":1761,"toalha":1762,"rosa":1763,"tron":1764,"Ġparede":1765,"Ġgre":1766,"Ġgas":1767,"Ġeletrico":1768,"anco":1769,"mpe":1770,"Ġrosca":1771,"Ġespecial":1772,"Ġalto":1773,"Ġelastano":1774,"bil":1775,"yo":1776,"cador":1777,"una":1778,"copo":1779,"Ġplaca":1780,"Ġate":1781,"Ġsilicone":1782,"choque":1783,"pijama":1784,"Ġni":1785,"Ġ88":1786,"Ġgm":1787,"Ġstar":1788,"Ġbrin":1789,"vela":1790,"Ã¡":1791,"icote":1792,"Ġbro":1793,"esta":1794,"Ġabs":1795,"fio":1796,"Ġvo":1797,"Ġcropped":1798,"Ġsaia":1799,"ty":1800,"Ġmi":1801,"Ġcarro":1802,"Ġluz":1803,"ner":1804,"Ġperf":1805,"Ġau":1806,"itor":1807,"torio":1808,"hz":1809,"Ġultra":1810,"Ġsuporte":1811,"med":1812,"pres":1813,"Ġparaf":1814,"Ġrecorte":1815,"Ġint":1816,"tinta":1817,"Ġfarol":1818,"Ġdigi":1819,"ial":1820,"Ġflor":1821,"Ġnovo":1822,"iva":1823,"Ġdecora":1824,"barra":1825,"Ġza":1826,"Ġbrasil":1827,"mod":1828,"Ġ130":1829,"vermel":1830,"cam":1831,"fic":1832,"301":1833,"pul":1834,"Ġcd":1835,"Ġcasual":1836,"Ġskinny":1837,"Ġusb":1838,"letor":1839,"quinho":1840,"Ġcara":1841,"Ġmat":1842,"tecido":1843,"Ġliqu":1844,"Ġvestido":1845,"ger":1846,"Ġsi":1847,"Ġpers":1848,"lampada":1849,"Ġlargura":1850,"jaqueta":1851,"2020":1852,"Ġcambio":1853,"qua":1854,"Ġmicrofibra":1855,"Ġgrafite":1856,"teri":1857,"tinho":1858,"tante":1859,"Ġmidi":1860,"zz":1861,"Ġur":1862,"Ġdigital":1863,"oc":1864,"nte":1865,"Ġfas":1866,"neira":1867,"105":1868,"Ġfosco":1869,"Ġblo":1870,"Ġcotton":1871,"ks":1872,"Ġlinho":1873,"2021":1874,"Ġplastica":1875,"Ġsuperior":1876,"xa":1877,"Ġab":1878,"ns":1879,"ull":1880,"Ġru":1881,"forma":1882,"Ġgold":1883,"Ġ2000":1884,"Ġfilt":1885,"Ġcorreia":1886,"mic":1887,"Ġbermuda":1888,"motor":1889,"cen":1890,"izado":1891,"Ġ170":1892,"Ġusa":1893,"Ġpmc":1894,"erva":1895,"Ġunivers":1896,"Ġnapa":1897,"Ġradiador":1898,"tela":1899,"Ġreta":1900,"inada":1901,"Ġverniz":1902,"Ġdt":1903,"bras":1904,"colar":1905,"Ġsport":1906,"olt":1907,"fil":1908,"Ġ4500":1909,"Ġten":1910,"dicional":1911,"carre":1912,"Ġfuro":1913,"Ġko":1914,"vaso":1915,"Ġjunta":1916,"Ġcompleto":1917,"bis":1918,"rador":1919,"ice":1920,"melo":1921,"tur":1922,"Ã§Ã£o":1923,"itar":1924,"breagem":1925,"guar":1926,"brinco":1927,"Ġdetalhe":1928,"Ġmono":1929,"2022":1930,"Ġcorte":1931,"tral":1932,"Ġsortido":1933,"fr":1934,"vermelho":1935,"Ġuni":1936,"Ġtradicional":1937,"112":1938,"Ġcaps":1939,"sensor":1940,"Ġpalio":1941,"umbo":1942,"Ġicm":1943,"Ġvermelha":1944,"at":1945,"eca":1946,"lanterna":1947,"Ġfab":1948,"tana":1949,"240":1950,"Ġdiv":1951,"Ġclassic":1952,"cova":1953,"Ġbio":1954,"Ġuno":1955,"ker":1956,"bala":1957,"mini":1958,"ung":1959,"bracadeira":1960,"Ġvin":1961,"Ġsexta":1962,"Ġflu":1963,"Ġveiculo":1964,"azul":1965,"Ġgav":1966,"Ġdiversas":1967,"Ġcobre":1968,"Ġcrepe":1969,"Ġbic":1970,"Ġline":1971,"Ġsolado":1972,"Ġund":1973,"Ġmetros":1974,"Ġop":1975,"quad":1976,"caneta":1977,"Ġcano":1978,"Ġinver":1979,"Ġunid":1980,"Ġbivolt":1981,"Ġ115":1982,"Ġbasico":1983,"Ġuniversal":1984,"Ġferro":1985,"gl":1986,"Ġsm":1987,"Ġtempe":1988,"Ġinfer":1989,"015":1990,"bel":1991,"Ġbody":1992,"103":1993,"elemento":1994,"mos":1995,"Ġhe":1996,"arruela":1997,"lin":1998,"Ġdagua":1999,"Ġesquerdo":2000,"cd":2001,"Ġvar":2002,"Ġreparo":2003,"Ġcamisa":2004,"Ġsalto":2005,"graf":2006,"rez":2007,"chapa":2008,"Ġmix":2009,"Ġmacho":2010,"ixe":2011,"Ġqtd":2012,"iao":2013,"Ġup":2014,"Ġvd":2015,"nagem":2016,"Ġbucha":2017,"cra":2018,"Ġroyal":2019,"bus":2020,"107":2021,"ssi":2022,"Ġpolia":2023,"Ġ64":2024,"dado":2025,"quini":2026,"Ġfemea":2027,"Ġmor":2028,"inhao":2029,"mofa":2030,"gate":2031,"cer":2032,"Ġbaba":2033,"Ġmdf":2034,"mart":2035,"Ġdianteira":2036,"Ġcoracao":2037,"arrafa":2038,"Ġig":2039,"verde":2040,"rango":2041,"base":2042,"udo":2043,"Ġhy":2044,"Ġembreagem":2045,"789":2046,"cida":2047,"Ġinj":2048,"Ġverao":2049,"sand":2050,"cap":2051,"Ġceram":2052,"cv":2053,"Ġpel":2054,"Ġinte":2055,"ivro":2056,"Ġcompa":2057,"Ġprod":2058,"Ġ2018":2059,"Ġinferior":2060,"Ġanel":2061,"004":2062,"ray":2063,"Ġfolha":2064,"225":2065,"Ġmel":2066,"ya":2067,"Ġox":2068,"Ġdin":2069,"Ġben":2070,"Ġcama":2071,"blo":2072,"Ġmf":2073,"Ġcalcinha":2074,"Ġxad":2075,"Ġhp":2076,"Ġ1700":2077,"Ġfrente":2078,"Ġleite":2079,"Ġamarra":2080,"cs":2081,"Ġlitros":2082,"Ġdisco":2083,"endo":2084,"Ġpoli":2085,"Ġcromado":2086,"Ġpul":2087,"Ġ56":2088,"Ġ2019":2089,"Ġ99":2090,"metro":2091,"ap":2092,"Ġcli":2093,"linha":2094,"Ġalum":2095,"ulado":2096,"gador":2097,"Ġ215":2098,"Ġ199":2099,"ilux":2100,"idas":2101,"bb":2102,"113":2103,"nector":2104,"farol":2105,"Ġsapatilha":2106,"Ġdental":2107,"Ġ3000":2108,"vin":2109,"Ġmis":2110,"Ġemb":2111,"Ġsilk":2112,"onia":2113,"Ġtp":2114,"rup":2115,"Ġpadrao":2116,"Ġpamp":2117,"ju":2118,"inter":2119,"Ã§a":2120,"ime":2121,"Ġcreme":2122,"chicote":2123,"102":2124,"Ġ52":2125,"Ġconjunto":2126,"401":2127,"Ġplano":2128,"coes":2129,"Ġunico":2130,"Ġtrava":2131,"Ġiso":2132,"ize":2133,"plas":2134,"Ġmr":2135,"imenta":2136,"Ġincolor":2137,"Ġvedacao":2138,"Ġsoquete":2139,"Ġpower":2140,"parente":2141,"quina":2142,"170":2143,"trib":2144,"ianas":2145,"esto":2146,"Ġpainel":2147,"Ġcontrole":2148,"Ġ002":2149,"Ġps":2150,"Ġum":2151,"pelho":2152,"seira":2153,"Ġlava":2154,"icm":2155,"vaianas":2156,"mmx":2157,"Ġil":2158,"Ġlado":2159,"Ġpromo":2160,"Ġcoz":2161,"Ġrolo":2162,"Ġhor":2163,"Ġlin":2164,"tec":2165,"Ġsext":2166,"Ġquadrado":2167,"gao":2168,"ien":2169,"grade":2170,"Ġxadrez":2171,"cane":2172,"Ġext":2173,"Ġcv":2174,"tavel":2175,"Ġmola":2176,"tapete":2177,"Ġ700":2178,"Ġvis":2179,"lange":2180,"lax":2181,"Ġfri":2182,"upa":2183,"nt":2184,"Ġara":2185,"int":2186,"Ġesfe":2187,"Ġche":2188,"Ġsub":2189,"450":2190,"Ġvinho":2191,"cur":2192,"ijo":2193,"115":2194,"ale":2195,"Ġrev":2196,"Ġcorrente":2197,"Ġ1200":2198,"Ġ2017":2199,"malte":2200,"cad":2201,"Ġomb":2202,"Ġcpr":2203,"cool":2204,"ane":2205,"Ġbasic":2206,"cort":2207,"Ġsis":2208,"Ġcare":2209,"Ġmts":2210,"Ġstd":2211,"Ġbanho":2212,"Ġ98":2213,"ional":2214,"chila":2215,"Ġ230":2216,"Ġ97":2217,"protetor":2218,"box":2219,"lux":2220,"Ġvm":2221,"ptador":2222,"sk":2223,"inhas":2224,"mofada":2225,"Ġbp":2226,"Ġer":2227,"Ġcasa":2228,"Ġsho":2229,"ick":2230,"mola":2231,"Ġ050":2232,"ity":2233,"Ġmaca":2234,"jao":2235,"Ġnat":2236,"art":2237,"Ġfecha":2238,"bd":2239,"ĠĠĊ":2240,"olo":2241,"Ġfan":2242,"Ġmad":2243,"Ġ190":2244,"ide":2245,"nd":2246,"lote":2247,"fone":2248,"Ġleve":2249,"Ġcolorido":2250,"203":2251,"sapatenis":2252,"fl":2253,"Ġmenina":2254,"Ġcarre":2255,"ranca":2256,"Ġrap":2257,"Ġamortecedor":2258,"005":2259,"use":2260,"Ġfiltrante":2261,"Ġinje":2262,"801":2263,"hampo":2264,"far":2265,"Ġpampili":2266,"Ġlove":2267,"sil":2268,"2000":2269,"Ġrf":2270,"caca":2271,"Ġbron":2272,"Ġ810":2273,"Ġparachoque":2274,"msung":2275,"bico":2276,"Ġuso":2277,"set":2278,"Ġluxo":2279,"let":2280,"404":2281,"hampoo":2282,"com":2283,"Ġ54":2284,"Ġacrilico":2285,"fol":2286,"Ġbrilho":2287,"bola":2288,"Ġwe":2289,"Ġass":2290,"Ġsobre":2291,"ivela":2292,"bonete":2293,"leira":2294,"Ġsch":2295,"Ġretan":2296,"Ġmorango":2297,"Ġtrico":2298,"Ġtransparente":2299,"od":2300,"Ġorgan":2301,"190":2302,"Ġrs":2303,"Ġapl":2304,"Ġdescar":2305,"Ġsolda":2306,"Ġher":2307,"Ġsensor":2308,"Ġcat":2309,"Ġzin":2310,"esa":2311,"lada":2312,"Ġtub":2313,"Ġins":2314,"Ġaprox":2315,"ire":2316,"Ġretro":2317,"Ġ63":2318,"dial":2319,"Ġelemento":2320,"Ġbos":2321,"2019":2322,"Ġcof":2323,"230":2324,"ara":2325,"Ġcoco":2326,"127":2327,"mascara":2328,"Ġcorsa":2329,"moto":2330,"Ġcasal":2331,"pador":2332,"Ġneon":2333,"Ġtro":2334,"cci":2335,"Ġpedcli":2336,"Ġ175":2337,"Ġpop":2338,"mida":2339,"205":2340,"bla":2341,"Ġct":2342,"Ġforro":2343,"Ġdet":2344,"pv":2345,"uti":2346,"Ġeva":2347,"Ġcodigo":2348,"gola":2349,"Ġliquido":2350,"ell":2351,"Ġana":2352,"adesivo":2353,"Ġesto":2354,"und":2355,"ik":2356,"mts":2357,"Ġcj":2358,"Ġlocal":2359,"Ġcra":2360,"Ġcz":2361,"moldura":2362,"Ġ260":2363,"Ġ57":2364,"Ġflexivel":2365,"ii":2366,"Ġcer":2367,"Ġmanual":2368,"Ġvalidade":2369,"Ġpartida":2370,"tis":2371,"Ġfus":2372,"Ġ280":2373,"202":2374,"Ġ022":2375,"om":2376,"Ġ0001":2377,"rinho":2378,"quadro":2379,"Ġstan":2380,"end":2381,"Ġran":2382,"Ġvlicm":2383,"Ġareia":2384,"Ġmus":2385,"Ġfita":2386,"Ġcaramelo":2387,"ruptor":2388,"Ġbarras":2389,"Ġ360":2390,"Ġ58":2391,"pf":2392,"Ġsize":2393,"Ġcinto":2394,"Ġspe":2395,"erica":2396,"Ġ112":2397,"Ġpoa":2398,"Ġdr":2399,"hos":2400,"Ġshorts":2401,"Ġmedia":2402,"borracha":2403,"heta":2404,"ima":2405,"106":2406,"ulha":2407,"Ġessen":2408,"madeira":2409,"Ã©":2410,"Ġchumbo":2411,"Ġfrontal":2412,"ulas":2413,"Ġpersonal":2414,"Ġignicao":2415,"Ġtela":2416,"Ġcilindro":2417,"aa":2418,"broca":2419,"taria":2420,"Ġflores":2421,"Ġedi":2422,"Ġlilas":2423,"Ġtermica":2424,"Ġcle":2425,"012":2426,"tente":2427,"Ġlogo":2428,"Ġparafuso":2429,"Ġeu":2430,"mac":2431,"Ġsel":2432,"Ġfl":2433,"missao":2434,"Ġnatal":2435,"toes":2436,"Ġis":2437,"teiro":2438,"Ġdoce":2439,"Ġface":2440,"Ġ2012":2441,"Ġhavaianas":2442,"sos":2443,"Ġspray":2444,"Ġalfa":2445,"xial":2446,"Ġretor":2447,"Ġombro":2448,"Ġprotecao":2449,"trato":2450,"sutia":2451,"Ġcarbon":2452,"Ġlaco":2453,"ben":2454,"donda":2455,"ical":2456,"pote":2457,"2018":2458,"Ġsextavado":2459,"Ġth":2460,"Ġexp":2461,"175":2462,"cp":2463,"coxim":2464,"ise":2465,"Ġsocial":2466,"Ġperola":2467,"abracadeira":2468,"Ġdn":2469,"Ġking":2470,"Ġunidade":2471,"cio":2472,"Ġades":2473,"Ġair":2474,"ando":2475,"Ġziper":2476,"inas":2477,"entes":2478,"Ġlistrado":2479,"Ġsabor":2480,"Ġgrama":2481,"Ġcostura":2482,"Ġhilux":2483,"Ġcetim":2484,"4000":2485,"Ġpino":2486,"Ġaf":2487,"icle":2488,"Ġnova":2489,"Ġfundo":2490,"roz":2491,"rar":2492,"Ġtx":2493,"inf":2494,"pto":2495,"prod":2496,"Ġgira":2497,"play":2498,"Ġconj":2499,"108":2500,"135":2501,"Ġdesen":2502,"Ġprofiss":2503,"feite":2504,"Ġcola":2505,"Ġbril":2506,"Ġvia":2507,"145":2508,"Ġcombinada":2509,"montina":2510,"cinza":2511,"pivo":2512,"Ġlts":2513,"Ġbone":2514,"rea":2515,"Ġbis":2516,"lim":2517,"Ġ225":2518,"Ġfios":2519,"Ġmu":2520,"Ġfenda":2521,"Ġlamina":2522,"fre":2523,"lana":2524,"Ġfel":2525,"//":2526,"tone":2527,"Ġ010":2528,"grenagem":2529,"Ġsom":2530,"cilindro":2531,"alo":2532,"Ġinverno":2533,"trada":2534,"Ġlatex":2535,"sex":2536,"Ġsamsung":2537,"Ġsemi":2538,"Ġjogo":2539,"tema":2540,"Ġregu":2541,"bobina":2542,"Ġnor":2543,"Ġ67":2544,"trans":2545,"3000":2546,"fus":2547,"erg":2548,"Ġlg":2549,"Ġinv":2550,"Ġcompos":2551,"Ġvias":2552,"Ġada":2553,"Ġcs":2554,"Ġrefor":2555,"dr":2556,"Ġcarne":2557,"Ġliq":2558,"006":2559,"Ġdata":2560,"ture":2561,"cinto":2562,"Ġsx":2563,"Ġcora":2564,"ult":2565,"Ġsusp":2566,"Ġ47":2567,"Ġaci":2568,"Ġcoral":2569,"Ġthe":2570,"ep":2571,"tacao":2572,"Ġreto":2573,"gue":2574,"Ġ003":2575,"lama":2576,"Ġtw":2577,"Ġmp":2578,"Ġhel":2579,"Ġcintura":2580,"phone":2581,"Ġsw":2582,"ab":2583,"vidro":2584,"Ġcg":2585,"Ġfino":2586,"dorante":2587,"Ġcubo":2588,"eixo":2589,"Ġdol":2590,"Ġprofissional":2591,"Ġmun":2592,"Ġcorpo":2593,"280":2594,"Ġmenino":2595,"oculos":2596,"cortina":2597,"Ġaux":2598,"veja":2599,"Ġcorre":2600,"Ġimpa":2601,"resso":2602,"chao":2603,"018":2604,"Ġpastilha":2605,"hl":2606,"itter":2607,"2023":2608,"Ġfoto":2609,"parel":2610,"Ġ6000":2611,"Ġmos":2612,"mpa":2613,"Ġ119":2614,"Ġamarela":2615,"cab":2616,"Ġpassa":2617,"cond":2618,"Ġamerica":2619,"Ġmetali":2620,"Ġprime":2621,"mochila":2622,"gado":2623,"Ġpreco":2624,"Ġrn":2625,"bamento":2626,"Ġlac":2627,"Ġgaveta":2628,"116":2629,"Ġsegu":2630,"Ġ135":2631,"bandeja":2632,"Ġkind":2633,"Ġqual":2634,"Ġlubri":2635,"Ġ320":2636,"Ġturbo":2637,"wn":2638,"icate":2639,"Ġrena":2640,"Ġtotal":2641,"212":2642,"chu":2643,"Ã³":2644,"016":2645,"114":2646,"guia":2647,"Ġ040":2648,"tras":2649,"Ġgar":2650,"tamp":2651,"Ġfd":2652,"feren":2653,"104":2654,"Ġcentral":2655,"Ġuv":2656,"Ġala":2657,"Ġbordo":2658,"Ġretangular":2659,"Ġpun":2660,"Ġphil":2661,"eti":2662,"Ġcabine":2663,"Ġof":2664,"Ġtule":2665,"Ġcolors":2666,"mole":2667,"cama":2668,"vd":2669,"Ġbt":2670,"reg":2671,"013":2672,"Ġcapu":2673,"relogio":2674,"tive":2675,"zada":2676,"Ġhonda":2677,"Ġeletron":2678,"Ġamarracao":2679,"Ġaber":2680,"Ġtigre":2681,"Ġsua":2682,"macaquinho":2683,"Ġredonda":2684,"Ġtramontina":2685,"garrafa":2686,"tt":2687,"Ġebook":2688,"Ġir":2689,"heiro":2690,"met":2691,"Ġ2020":2692,"piso":2693,"118":2694,"Ġcf":2695,"Ġace":2696,"matico":2697,"micro":2698,"zo":2699,"celana":2700,"iew":2701,"260":2702,"mem":2703,"mmer":2704,"sol":2705,"Ġ53":2706,"Ġcomfort":2707,"Ġveiculos":2708,"reparo":2709,"Ġraste":2710,"fun":2711,"ean":2712,"bic":2713,"dente":2714,"marinho":2715,"Ġkindle":2716,"rs":2717,"Ġ66":2718,"dan":2719,"amortecedor":2720,"Ġhidraulico":2721,"dica":2722,"Ġsun":2723,"creme":2724,"gol":2725,"017":2726,"Ġ023":2727,"014":2728,"Ġ78":2729,"lis":2730,"Ġlimao":2731,"Ġmaster":2732,"lique":2733,"Ġcarbono":2734,"1200":2735,"Ġcapo":2736,"Ġqueen":2737,"Ġrolos":2738,"zul":2739,"Ġfres":2740,"Ġfibra":2741,"Ġ380":2742,"deral":2743,"Ġrp":2744,"malha":2745,"Ġlegging":2746,"Ġlen":2747,"Ġtre":2748,"ki":2749,"lub":2750,"visor":2751,"hi":2752,"Ġ114":2753,"Ġfull":2754,"Ġsolar":2755,"Ġindus":2756,"Ġhidraulica":2757,"Ġfaixa":2758,"Ġpele":2759,"Ġmet":2760,"Ġaj":2761,"escova":2762,"pk":2763,"Ġfar":2764,"Ġ0000":2765,"Ġprinces":2766,"Ġretentor":2767,"Ġone":2768,"Ġdiam":2769,"Ġdec":2770,"uca":2771,"Ġ105":2772,"bateria":2773,"veis":2774,"320":2775,"Ġck":2776,"velo":2777,"ang":2778,"304":2779,"Ġbandeja":2780,"Ġdobra":2781,"Ġeletrica":2782,"750":2783,"Ġdiversos":2784,"Ġenca":2785,"Ġond":2786,"Ġmultiuso":2787,"biquini":2788,"rim":2789,"Ġ2013":2790,"pink":2791,"Ġcirc":2792,"yota":2793,"livro":2794,"soura":2795,"Ã§o":2796,"Ġboxer":2797,"ent":2798,"Ġfree":2799,"Ġpequeno":2800,"Ġpoliamida":2801,"Ġceramica":2802,"caneca":2803,"Ġbronze":2804,"Ġunis":2805,"lente":2806,"veiro":2807,"cueca":2808,"Ġ113":2809,"tilador":2810,"Ġfash":2811,"Ġjac":2812,"ile":2813,"185":2814,"Ġata":2815,"Ġnas":2816,"Ġnume":2817,"Ġfolhas":2818,"Ġbotoes":2819,"Ġneo":2820,"tagem":2821,"Ġvalv":2822,"Ġlum":2823,"Ġtinta":2824,"Ġprint":2825,"fas":2826,"Ġhi":2827,"ni":2828,"Ġbota":2829,"Ġpote":2830,"124":2831,"Ġlona":2832,"Ġsmart":2833,"Ġfesta":2834,"Ġsued":2835,"Ġmoda":2836,"Ġroxo":2837,"Ġ94":2838,"Ġ2016":2839,"ficante":2840,"Ġliv":2841,"305":2842,"165":2843,"bf":2844,"vanca":2845,"Ġid":2846,"208":2847,"Ġpn":2848,"Ġcopo":2849,"iela":2850,"109":2851,"mate":2852,"206":2853,"ley":2854,"117":2855,"Ġchapa":2856,"df":2857,"Ġwor":2858,"parelho":2859,"tamanco":2860,"Ġcabecote":2861,"Ġneu":2862,"Ġuniv":2863,"ficador":2864,"Ġ2010":2865,"Ġtransp":2866,"Ġhaste":2867,"gico":2868,"Ġconfort":2869,"fu":2870,"Ġonu":2871,"Ġbolsa":2872,"wh":2873,"dea":2874,"Ġlat":2875,"Ġgrade":2876,"Ġ92":2877,"lanca":2878,"Ġae":2879,"Ġstre":2880,"Ġcozinha":2881,"Ġ84":2882,"tencia":2883,"cafe":2884,"dd":2885,"polia":2886,"Ġ145":2887,"ralda":2888,"bana":2889,"vest":2890,"espa":2891,"inos":2892,"rasco":2893,"gne":2894,"cmx":2895,"Ġseguranca":2896,"Ġgf":2897,"Ġ304":2898,"Ġmangueira":2899,"trico":2900,"Ġhig":2901,"gal":2902,"iana":2903,"Ġdry":2904,"204":2905,"380":2906,"mul":2907,"conector":2908,"rolo":2909,"Ġns":2910,"sador":2911,"Ġgalax":2912,"Ġreal":2913,"Ġcig":2914,"Ġ49":2915,"Ġ76":2916,"low":2917,"Ġbovino":2918,"Ġamendo":2919,"Ġsapato":2920,"Ġtc":2921,"pasta":2922,"Ġgramatura":2923,"Ġom":2924,"Ġtermo":2925,"Ġprima":2926,"ressor":2927,"019":2928,"155":2929,"Ġtal":2930,"Ġcaca":2931,"Ġresina":2932,"nexao":2933,"Ġjg":2934,"Ġbotao":2935,"form":2936,"venil":2937,"Ġsli":2938,"Ġfis":2939,"Ġlista":2940,"Ġdan":2941,"Ġbs":2942,"ill":2943,"Ġseg":2944,"Ġtran":2945,"050":2946,"ome":2947,"oria":2948,"iesta":2949,"cf":2950,"Ġgir":2951,"legging":2952,"Ġgamer":2953,"Ġportas":2954,"Ġguia":2955,"Ġintel":2956,"eiro":2957,"126":2958,"Ġ1500":2959,"tern":2960,"Ġip":2961,"puma":2962,"dem":2963,"hd":2964,"onamento":2965,"elho":2966,"Ġcastan":2967,"off":2968,"Ġsti":2969,"Ġ2011":2970,"Ġzir":2971,"cropped":2972,"nu":2973,"Ġdar":2974,"Ġrio":2975,"Ġiii":2976,"fls":2977,"cobertura":2978,"Ġlanterna":2979,"fim":2980,"vanda":2981,"ret":2982,"terno":2983,"quet":2984,"Ġand":2985,"Ġvolvo":2986,"aco":2987,"riso":2988,"Ġaces":2989,"lamina":2990,"cania":2991,"Ġestrela":2992,"unda":2993,"Ġfsc":2994,"bom":2995,"Ġcond":2996,"Ġcelular":2997,"ou":2998,"Ġson":2999,"Ġadesivo":3000,"Ġlistras":3001,"Ġbabado":3002,"Ġcostas":3003,"timento":3004,"Ġvul":3005,"Ġmais":3006,"Ġlistrada":3007,"icula":3008,"188":3009,"Ġmatte":3010,"Ġss":3011,"Ġ116":3012,"ford":3013,"Ġinterno":3014,"utien":3015,"icleta":3016,"Ġvr":3017,"Ġcit":3018,"tical":3019,"Ġbola":3020,"Ġ025":3021,"Ġcomando":3022,"Ġzero":3023,"Ġbea":3024,"bisc":3025,"botina":3026,"Ġcolcci":3027,"Ġpneu":3028,"ens":3029,"fem":3030,"Ġsb":3031,"sado":3032,"fecha":3033,"Ġtanque":3034,"Ġfox":3035,"207":3036,"Ġmate":3037,"Ġ10000":3038,"adaptador":3039,"Ġdura":3040,"ducao":3041,"Ġfashion":3042,"oss":3043,"trial":3044,"Ġbosch":3045,"tc":3046,"Ġcic":3047,"Ġindigo":3048,"119":3049,"roda":3050,"idor":3051,"Ġfixacao":3052,"215":3053,"uno":3054,"Ġbaixo":3055,"303":3056,"Ġabate":3057,"gran":3058,"Ġhb":3059,"Ġaero":3060,"esel":3061,"128":3062,"buck":3063,"Ġagri":3064,"Ġtoyota":3065,"Ġcole":3066,"prato":3067,"Ġ117":3068,"pulseira":3069,"tora":3070,"Ġouto":3071,"Ġcofins":3072,"esmalte":3073,"Ġtira":3074,"Ġcc":3075,"Ġaproxi":3076,"Ġpalha":3077,"Ġmassa":3078,"Ġhot":3079,"Ġ68":3080,"Ġ2008":3081,"Ġ2015":3082,"balagem":3083,"dc":3084,"Ġalterna":3085,"etal":3086,"boleta":3087,"Ġbrilh":3088,"Ġsaida":3089,"Ġ005":3090,"Ġvaria":3091,"sabonete":3092,"111":3093,"Ġsue":3094,"cabe":3095,"Ġ004":3096,"Ġreserva":3097,"Ġpalm":3098,"Ġdoll":3099,"ness":3100,"Ġvas":3101,"Ġalt":3102,"Ġ2014":3103,"vinho":3104,"007":3105,"Ġencaixe":3106,"Ġ275":3107,"Ġjan":3108,"calcados":3109,"Ġ69":3110,"icor":3111,"tiv":3112,"Ġcondicion":3113,"Ġblin":3114,"Ġoutono":3115,"Ġdra":3116,"Ġesca":3117,"uch":3118,"306":3119,"mario":3120,"vera":3121,"Ġcapuz":3122,"pil":3123,"Ġlavanda":3124,"Ġimper":3125,"403":3126,"Ġmilitar":3127,"Ġsd":3128,"Ġespa":3129,"modulo":3130,"Ġrus":3131,"coline":3132,"pux":3133,"Ġfra":3134,"360":3135,"Ġgtin":3136,"iscoito":3137,"Ġgalaxy":3138,"produtos":3139,"iado":3140,"leite":3141,"flo":3142,"Ġ138":3143,"Ġretorna":3144,"massa":3145,"Ġbraco":3146,"gral":3147,"00000":3148,"Ġ270":3149,"Ġtv":3150,"Ġtrad":3151,"Ġcere":3152,"Ġjuvenil":3153,"Ġretornavel":3154,"Ġcri":3155,"wm":3156,"Ġ118":3157,"pot":3158,"turno":3159,"Ġci":3160,"Ġ325":3161,"209":3162,"rarte":3163,"cul":3164,"peu":3165,"Ġeletro":3166,"Ġterra":3167,"Ġfederal":3168,"Ġsand":3169,"Ġfixo":3170,"Ġgros":3171,"Ġflorarte":3172,"Ġbag":3173,"2017":3174,"onteira":3175,"Ġplan":3176,"Ġchassi":3177,"Ġindustrial":3178,"oa":3179,"tb":3180,"tx":3181,"Ġpromocao":3182,"cina":3183,"008":3184,"222":3185,"camisola":3186,"Ġcabelo":3187,"Ġfire":3188,"Ġlotes":3189,"Ġcons":3190,"Ġenerg":3191,"ticula":3192,"mil":3193,"isk":3194,"Ġ72":3195,"Ġterminal":3196,"Ġnike":3197,"tus":3198,"Ġvelo":3199,"ips":3200,"Ġglitter":3201,"Ġ550":3202,"Ġliga":3203,"cris":3204,"ÃŃ":3205,"Ġbon":3206,"302":3207,"Ġdireita":3208,"ld":3209,"gada":3210,"icos":3211,"quiti":3212,"Ġbg":3213,"Ġ59":3214,"Ġroupa":3215,"cula":3216,"carne":3217,"Ġeg":3218,"tucho":3219,"Ġrecortes":3220,"Ġaproximado":3221,"Ġjard":3222,"Ġfabri":3223,"toria":3224,"ass":3225,"Ġchu":3226,"Ġaplica":3227,"tato":3228,"136":3229,"Ġscania":3230,"esp":3231,"Ġpequena":3232,"ler":3233,"Ġdc":3234,"casaco":3235,"Ġlistados":3236,"Ġnote":3237,"Ġste":3238,"quard":3239,"Ġunissex":3240,"Ġclub":3241,"Ġcargo":3242,"ilo":3243,"Ġimporta":3244,"Ġajus":3245,"cle":3246,"308":3247,"torneira":3248,"315":3249,"rete":3250,"iral":3251,"Ġ86":3252,"lha":3253,"Ġplu":3254,"Ġdiesel":3255,"Ġchoque":3256,"parador":3257,"Ġax":3258,"ign":3259,"gger":3260,"Ġlubrificante":3261,"Ġeli":3262,"Ġdenim":3263,"Ġtricot":3264,"Ġbom":3265,"Ġhidro":3266,"mera":3267,"caria":3268,"Ġbolo":3269,"307":3270,"mx":3271,"ister":3272,"Ġpala":3273,"macao":3274,"terial":3275,"ifa":3276,"Ġ93":3277,"Ġlampada":3278,"011":3279,"Ġcompleta":3280,"gon":3281,"rato":3282,"Ġrapido":3283,"6000":3284,"hp":3285,"Ġeuro":3286,"Ġconf":3287,"mix":3288,"trava":3289,"Ġ2021":3290,"poio":3291,"Ġfrutas":3292,"Ġclo":3293,"inger":3294,"Ġdas":3295,"ney":3296,"Ġ2009":3297,"Ġcabeca":3298,"gos":3299,"Ġponta":3300,"af":3301,"Ġsur":3302,"Ġborboleta":3303,"vt":3304,"vada":3305,"poliester":3306,"bloco":3307,"espelho":3308,"Ġart":3309,"teleira":3310,"Ġamp":3311,"405":3312,"Ġfacial":3313,"grampo":3314,"Ġgalv":3315,"fan":3316,"soquete":3317,"ther":3318,"Ġgor":3319,"quim":3320,"Ġ5000":3321,"iog":3322,"Ġcareca":3323,"balao":3324,"tula":3325,"Ġtemp":3326,"dutor":3327,"cker":3328,"inete":3329,"vinil":3330,"ium":3331,"Ġxg":3332,"Ġ77":3333,"ef":3334,"mr":3335,"Ġstandar":3336,"Ġprimavera":3337,"Ġdiferen":3338,"Ġpedra":3339,"Ġdal":3340,"Ġbx":3341,"Ġforne":3342,"ilhos":3343,"Ġmao":3344,"vs":3345,"rap":3346,"mf":3347,"Ġpb":3348,"Ġport":3349,"Ġflare":3350,"lts":3351,"Ġmaqu":3352,"134":3353,"Ġsaco":3354,"Ġexterno":3355,"cubo":3356,"Ġseda":3357,"zol":3358,"Ġpiso":3359,"Ġbateria":3360,"Ġforma":3361,"son":3362,"2024":3363,"Ġ008":3364,"325":3365,"reta":3366,"deso":3367,"derno":3368,"men":3369,"fri":3370,"Ġfix":3371,"Ġ62":3372,"138":3373,"Ġcarga":3374,"laranja":3375,"Ġbiz":3376,"corrente":3377,"heira":3378,"Ġbrilhante":3379,"mor":3380,"tl":3381,"Ġmdp":3382,"olla":3383,"Ġ87":3384,"trona":3385,"sacola":3386,"istro":3387,"129":3388,"Ġita":3389,"Ġbiela":3390,"algodao":3391,"soutien":3392,"clado":3393,"fonte":3394,"faca":3395,"Ġspa":3396,"Ġvela":3397,"Ġmine":3398,"Ġfiesta":3399,"port":3400,"Ġby":3401,"tribu":3402,"Ġpraia":3403,"lona":3404,"ure":3405,"Ġperfil":3406,"Ġfina":3407,"Ġ82":3408,"Ġimpacto":3409,"009":3410,"mati":3411,"cete":3412,"guarnicao":3413,"Ġpero":3414,"mang":3415,"144":3416,"idos":3417,"Ġserrada":3418,"Ġlr":3419,"148":3420,"Ġhidratante":3421,"Ġlimpador":3422,"Ġfc":3423,"botao":3424,"Ġsao":3425,"Ġgalvan":3426,"baby":3427,"Ġall":3428,"Ġmecan":3429,"bio":3430,"Ġverm":3431,"Ġrefil":3432,"Ġmetalizado":3433,"Ġnumero":3434,"Ġpeca":3435,"Ġgelo":3436,"Ġrt":3437,"bata":3438,"Ġoval":3439,"imal":3440,"Ġcase":3441,"Ġesquerda":3442,"fb":3443,"Ġtsh":3444,"Ġjequiti":3445,"wp":3446,"Ġshirt":3447,"lumin":3448,"Ġtransmissao":3449,"Ġrasteira":3450,"hn":3451,"pack":3452,"Ġrobus":3453,"123":3454,"Ġ185":3455,"andalias":3456,"mov":3457,"Ġ006":3458,"zina":3459,"Ġit":3460,"ish":3461,"brisa":3462,"Ġdecorativo":3463,"nio":3464,"tto":3465,"Ġmara":3466,"Ġonix":3467,"Ġdentada":3468,"Ġacabamento":3469,"tp":3470,"Ġ205":3471,"198":3472,"Ġ330":3473,"Ġtl":3474,"quedo":3475,"Ġfuros":3476,"Ġpacote":3477,"Ġsab":3478,"Ġpape":3479,"Ġtinto":3480,"Ġ007":3481,"interruptor":3482,"kv":3483,"tifica":3484,"Ġangel":3485,"Ġnobuck":3486,"270":3487,"Ġplay":3488,"Ġnutri":3489,"Ġesfera":3490,"Ġlaser":3491,"Ġcanelado":3492,"Ġsta":3493,"Ġblus":3494,"Ġkidy":3495,"Ġintegral":3496,"eletro":3497,"pincel":3498,"itivo":3499,"maio":3500,"Ġale":3501,"hado":3502,"aro":3503,"310":3504,"shampoo":3505,"Ġvon":3506,"Ġfornecedor":3507,"Ġzz":3508,"Ġuva":3509,"290":3510,"gs":3511,"unico":3512,"Ġpoly":3513,"Ġstrass":3514,"Ġcorpreto":3515,"Ġjacquard":3516,"Ġnc":3517,"245":3518,"bua":3519,"Ġcanelada":3520,"Ġts":3521,"ider":3522,"upo":3523,"Ġjogger":3524,"Ġacessor":3525,"sab":3526,"moc":3527,"410":3528,"Ġcurva":3529,"iliar":3530,"imo":3531,"Ġboneca":3532,"Ġneutro":3533,"gela":3534,"Ġlux":3535,"Ġinterna":3536,"seiro":3537,"Ġquadrada":3538,"Ġsubli":3539,"agua":3540,"haste":3541,"275":3542,"almofada":3543,"Ġ128":3544,"queira":3545,"term":3546,"601":3547,"bco":3548,"Ġembu":3549,"Ġpistao":3550,"lixa":3551,"inhos":3552,"Ġsolteiro":3553,"elast":3554,"Ġstandard":3555,"Ġporcelana":3556,"Ġqtdeml":3557,"Ġpeq":3558,"raft":3559,"Ġaut":3560,"Ġ195":3561,"maquina":3562,"Ġveludo":3563,"dador":3564,"ala":3565,"Ġbig":3566,"Ġlav":3567,"pd":3568,"peza":3569,"care":3570,"Ġespor":3571,"Ġblindado":3572,"Ġmagne":3573,"Ġ219":3574,"309":3575,"Ġfila":3576,"gia":3577,"Ġds":3578,"Ġlata":3579,"key":3580,"multi":3581,"Ġrl":3582,"Ġcolo":3583,"Ġtn":3584,"Ġtoalha":3585,"Ġportatil":3586,"sun":3587,"yl":3588,"Ġfs":3589,"Ġcaval":3590,"blusao":3591,"Ġchar":3592,"340":3593,"Ġdre":3594,"Ġtac":3595,"Ġrobust":3596,"Ġexterna":3597,"Ġgd":3598,"Ġdy":3599,"rex":3600,"Ġunc":3601,"Ġfh":3602,"palheta":3603,"Ġinjetor":3604,"pastilha":3605,"146":3606,"Ġdescartavel":3607,"fechadura":3608,"fon":3609,"Ġmascara":3610,"izacao":3611,"Ġalfaia":3612,"Ġfg":3613,"Ġtru":3614,"Ġcarter":3615,"Ġprinci":3616,"295":3617,"pper":3618,"estle":3619,"Ġft":3620,"Ġmilho":3621,"Ġfitness":3622,"701":3623,"engrenagem":3624,"Ġ080":3625,"quesa":3626,"ingente":3627,"Ġbicolor":3628,"Ġalternador":3629,"Ġnos":3630,"Ġpapelao":3631,"ist":3632,"Ġmac":3633,"blema":3634,"Ġtemperado":3635,"Ġsuede":3636,"Ġciv":3637,"Ġlixo":3638,"Ġdourada":3639,"Ġfrango":3640,"desodorante":3641,"Ġaxial":3642,"Ġtiras":3643,"braco":3644,"322":3645,"Ġclasse":3646,"Ġaa":3647,"Ġtm":3648,"Ġ2022":3649,"Ġmoletinho":3650,"etiqueta":3651,"Ġondulado":3652,"Ġgri":3653,"Ġ015":3654,"Ġvinil":3655,"Ġtshirt":3656,"Ġdor":3657,"pm":3658,"san":3659,"Ġpole":3660,"Ġlong":3661,"Ġsistema":3662,"db":3663,"Ġ217":3664,"Ġmega":3665,"Ġtrop":3666,"fc":3667,"Ġ79":3668,"Ġdesenho":3669,"Ġsort":3670,"195":3671,"ari":3672,"Ġ165":3673,"Ġanos":3674,"Ġwo":3675,"ressao":3676,"Ġhex":3677,"Ġlocalizada":3678,"pn":3679,"esc":3680,"Ġrg":3681,"mpagne":3682,"Ġsr":3683,"urca":3684,"Ġcruz":3685,"Ġ650":3686,"Ġbam":3687,"fra":3688,"Ġauxiliar":3689,"147":3690,"Ġsache":3691,"plu":3692,"rena":3693,"cod":3694,"Ġmancal":3695,"corte":3696,"iada":3697,"Ġporca":3698,"tinha":3699,"158":3700,"izante":3701,"Ġastra":3702,"inte":3703,"Ġmeses":3704,"213":3705,"ink":3706,"Ġ340":3707,"Ġpeso":3708,"Ġ7908":3709,"216":3710,"fusor":3711,"Ġgi":3712,"manta":3713,"Ġforte":3714,"Ġflange":3715,"Ġcolonia":3716,"Ġhome":3717,"Ġrolamentos":3718,"Ġane":3719,"perf":3720,"cobra":3721,"Ġdistribu":3722,"pira":3723,"Ġallen":3724,"tir":3725,"Ġ020":3726,"Ġ89":3727,"izadora":3728,"Ġsortida":3729,"Ġger":3730,"Ġnit":3731,"Ġhigh":3732,"aparelho":3733,"Ġavul":3734,"Ġcarrocaria":3735,"nh":3736,"Ġnpt":3737,"ixas":3738,"Ġsoja":3739,"Ġcoxim":3740,"urado":3741,"Ġconfor":3742,"330":3743,"Ġras":3744,"Ġpass":3745,"cta":3746,"vy":3747,"149":3748,"Ġbm":3749,"Ġtb":3750,"Ġclean":3751,"Ġalfaiataria":3752,"Ġpente":3753,"Ġtempera":3754,"Ġproduto":3755,"Ġxl":3756,"Ġsanta":3757,"Ġlimpeza":3758,"Ġgreen":3759,"Ġ024":3760,"Ġ51":3761,"land":3762,"sub":3763,"gens":3764,"ax":3765,"Ġfrio":3766,"121":3767,"rasteira":3768,"Ġ1600":3769,"Ġestr":3770,"lm":3771,"ua":3772,"Ġcamel":3773,"caderno":3774,"yle":3775,"tensao":3776,"km":3777,"quot":3778,"cimento":3779,"Ġfen":3780,"Ġunicor":3781,"Ġklin":3782,"Ġton":3783,"Ġabertura":3784,"tola":3785,"408":3786,"Ġpron":3787,"cristal":3788,"pri":3789,"Ġrep":3790,"Ġentre":3791,"Ġsn":3792,"Ġ91":3793,"risma":3794,"rona":3795,"Ġff":3796,"Ġband":3797,"Ġef":3798,"Ġrd":3799,"Ġsae":3800,"Ġlc":3801,"Ġrele":3802,"Ġze":3803,"Ġcastanho":3804,"Ġfresh":3805,"Ġsvo":3806,"Ġfaca":3807,"Ġusado":3808,"Ġcompativel":3809,"Ġsim":3810,"1276":3811,"Ġalmofada":3812,"Ġfps":3813,"Ġ035":3814,"406":3815,"Ġ060":3816,"Ġsha":3817,"edor":3818,"255":3819,"Ġdeso":3820,"tidas":3821,"presilha":3822,"Ġpunho":3823,"Ġsuedine":3824,"Ġeas":3825,"Ġdecor":3826,"dom":3827,"Ġoccu":3828,"Ġpiquet":3829,"vm":3830,"Ġ6500":3831,"Ġ83":3832,"137":3833,"Ġfls":3834,"Ġout":3835,"0003":3836,"265":3837,"448":3838,"deo":3839,"Ġespelho":3840,"Ġiphone":3841,"Ġbloco":3842,"estojo":3843,"906":3844,"Ġhomoc":3845,"Ġmenta":3846,"Ġpinhao":3847,"colete":3848,"enfeite":3849,"Ġteto":3850,"luminaria":3851,"fm":3852,"zio":3853,"Ġgs":3854,"oth":3855,"Ġmaxi":3856,"211":3857,"1406":3858,"gro":3859,"143":3860,"285":3861,"Ġvolume":3862,"Ġhoriz":3863,"vio":3864,"Ġvira":3865,"Ġnestle":3866,"sola":3867,"Ġcup":3868,"Ġdon":3869,"229":3870,"Ġital":3871,"Ġmaria":3872,"Ġhar":3873,"Ġbord":3874,"Ġstrada":3875,"Ġzircon":3876,"ucia":3877,"Ġinten":3878,"Ġdecorativa":3879,"ppy":3880,"Ġvulcan":3881,"reb":3882,"420":3883,"vit":3884,"Ġbat":3885,"pao":3886,"def":3887,"Ġmaquina":3888,"carpin":3889,"Ġchampagne":3890,"cinta":3891,"Ġregula":3892,"Ġ111":3893,"Ġdog":3894,"trica":3895,"turi":3896,"Ġcapsulas":3897,"Ġdark":3898,"235":3899,"taco":3900,"uri":3901,"Ġmarfim":3902,"Ġ2005":3903,"Ġquart":3904,"Ġescova":3905,"905":3906,"blazer":3907,"ere":3908,"tti":3909,"plast":3910,"Ġ401":3911,"Ġlv":3912,"Ġatacado":3913,"cy":3914,"365":3915,"rutura":3916,"Ġspr":3917,"Ġgla":3918,"Ġpares":3919,"Ġpedal":3920,"Ġjuv":3921,"Ġlycra":3922,"fla":3923,"Ġ218":3924,"156":3925,"Ġtrip":3926,"tanga":3927,"Ġmestre":3928,"curva":3929,"lava":3930,"Ġarti":3931,"Ġpivo":3932,"0005":3933,"ov":3934,"condicion":3935,"fru":3936,"Ġcomum":3937,"Ġlook":3938,"Ġsep":3939,"juntor":3940,"Ġanimal":3941,"Ġsilver":3942,"inga":3943,"chor":3944,"zante":3945,"Ġbsp":3946,"122":3947,"402":3948,"Ġwal":3949,"Ġbolsos":3950,"Ġeti":3951,"Ġcong":3952,"Ġpolido":3953,"ud":3954,"Ġveg":3955,"Ġfabrica":3956,"Ġ1100":3957,"Ġdisney":3958,"Ġduo":3959,"Ġestabil":3960,"Ġmaterial":3961,"Ġtech":3962,"Ġonca":3963,"Ġguar":3964,"Ġ310":3965,"dedor":3966,"urt":3967,"ress":3968,"Ġbella":3969,"Ġaqua":3970,"Ġcopa":3971,"esm":3972,"Ġmode":3973,"904":3974,"mbi":3975,"650":3976,"Ġmy":3977,"Ġmwm":3978,"rana":3979,"Ġtodos":3980,"Ġtubular":3981,"Ġfacil":3982,"Ãª":3983,"temp":3984,"batom":3985,"traves":3986,"itos":3987,"Ġpia":3988,"268":3989,"tn":3990,"ostra":3991,"Ġ156":3992,"cidade":3993,"607":3994,"Ġcolorida":3995,"Ġadesiva":3996,"316":3997,"Ġ420":3998,"Ġesm":3999,"ladora":4000,"tage":4001,"608":4002,"Ġfolhe":4003,"wee":4004,"hy":4005,"Ġ4000":4006,"Ġ7899":4007,"Ġilum":4008,"Ġpj":4009,"Ġnbr":4010,"226":4011,"Ġgua":4012,"sst":4013,"pelicula":4014,"Ġpg":4015,"Ġapoio":4016,"conexao":4017,"Ġls":4018,"Ġluva":4019,"025":4020,"ctra":4021,"nes":4022,"rano":4023,"Ġ2007":4024,"jeans":4025,"Ġmoldura":4026,"Ġalavanca":4027,"Ġcaes":4028,"ixeira":4029,"Ġ265":4030,"Ġalg":4031,"serra":4032,"fit":4033,"Ġtricoline":4034,"Ġoring":4035,"fs":4036,"fw":4037,"Ġvida":4038,"ranha":4039,"Ġibc":4040,"Ġcilind":4041,"Ġsuave":4042,"Ġaneis":4043,"nos":4044,"Ġregular":4045,"395":4046,"gin":4047,"ond":4048,"bos":4049,"Ġarco":4050,"red":4051,"355":4052,"Ġleito":4053,"white":4054,"Ġvonder":4055,"Ġ2500":4056,"dual":4057,"flange":4058,"net":4059,"Ġmulher":4060,"Ġroman":4061,"mouse":4062,"Ġamar":4063,"Ġlua":4064,"Ġcromada":4065,"Ġpica":4066,"Ġcore":4067,"Ġnro":4068,"133":4069,"vestimento":4070,"fante":4071,"605":4072,"705":4073,"Ġquente":4074,"219":4075,"505":4076,"Ġjardim":4077,"bt":4078,"fix":4079,"Ġnap":4080,"706":4081,"Ġamor":4082,"Ġneve":4083,"Ġvit":4084,"Ġcontra":4085,"Ġ1800":4086,"tarda":4087,"Ġckj":4088,"matica":4089,"Ġ124":4090,"telo":4091,"Ġbata":4092,"cedes":4093,"Ġfort":4094,"view":4095,"couro":4096,"Ġks":4097,"248":4098,"Ġgato":4099,"Ġgeome":4100,"Ġdef":4101,"805":4102,"Ġflat":4103,"lapis":4104,"led":4105,"708":4106,"igen":4107,"amarelo":4108,"tamento":4109,"gerador":4110,"Ġiv":4111,"0002":4112,"407":4113,"Ġpm":4114,"cotton":4115,"Ġcross":4116,"Ġxt":4117,"0004":4118,"trado":4119,"139":4120,"chos":4121,"cante":4122,"puxador":4123,"Ġ216":4124,"Ġjus":4125,"Ġsap":4126,"faixa":4127,"Ġutil":4128,"Ġlife":4129,"Ġcentro":4130,"menta":4131,"Ġ290":4132,"Ġcrom":4133,"elastico":4134,"igan":4135,"234":4136,"poltrona":4137,"capacete":4138,"218":4139,"ht":4140,"zan":4141,"vore":4142,"Ġchi":4143,"Ġabaca":4144,"sel":4145,"dex":4146,"cg":4147,"del":4148,"olina":4149,"312":4150,"emblema":4151,"1306":4152,"Ġcand":4153,"colo":4154,"Ġ235":4155,"xx":4156,"Ġshampoo":4157,"alicate":4158,"Ġcamp":4159,"Ġturquesa":4160,"taforma":4161,"ush":4162,"409":4163,"Ġchamp":4164,"lencol":4165,"Ġcamurca":4166,"Ġponto":4167,"ria":4168,"Ġ211":4169,"366":4170,"op":4171,"Ġmiss":4172,"mara":4173,"Ġcorolla":4174,"228":4175,"Ġgeral":4176,"gor":4177,"aba":4178,"Ġ137":4179,"Ġsele":4180,"Ġlatao":4181,"Ġseco":4182,"aplique":4183,"vw":4184,"Ġpisca":4185,"Ġfume":4186,"uge":4187,"Ġlarga":4188,"Ġsul":4189,"dore":4190,"Ġ030":4191,"Ġtranspas":4192,"Ġhav":4193,"Ġacessorios":4194,"Ġbf":4195,"Ġ74":4196,"Ġserra":4197,"lb":4198,"issa":4199,"Ġbanana":4200,"Ġ7891276":4201,"hel":4202,"Ġpimenta":4203,"Ġcone":4204,"ema":4205,"Ġbobina":4206,"ventilador":4207,"moletom":4208,"Ġsy":4209,"Ġ075":4210,"709":4211,"Ġcampo":4212,"Ġrenault":4213,"Ġretrato":4214,"606":4215,"bela":4216,"Ġagricola":4217,"Ġ440":4218,"Ġargola":4219,"236":4220,"Ġrock":4221,"cuo":4222,"au":4223,"xl":4224,"Ġteen":4225,"Ġseca":4226,"bide":4227,"pedido":4228,"Ġmercedes":4229,"Ġself":4230,"Ġdual":4231,"toneira":4232,"704":4233,"Ġunicornio":4234,"359":4235,"corre":4236,"pad":4237,"Ġrota":4238,"Ġ109":4239,"Ġ2006":4240,"Ġdescon":4241,"Ġquim":4242,"uty":4243,"214":4244,"Ġaven":4245,"Ġparis":4246,"Ġhidr":4247,"217":4248,"uni":4249,"Ġke":4250,"tomada":4251,"batente":4252,"1326":4253,"707":4254,"Ġtomada":4255,"397":4256,"Ġescolar":4257,"221":4258,"Ġgrava":4259,"Ġsiena":4260,"Ġcondicionado":4261,"ec":4262,"Ġpta":4263,"power":4264,"pilha":4265,"calco":4266,"Ġsortidas":4267,"Ġmetro":4268,"345":4269,"ws":4270,"Ġxgg":4271,"cite":4272,"908":4273,"Ġfrances":4274,"douro":4275,"imetro":4276,"Ġ245":4277,"dobra":4278,"808":4279,"Ġform":4280,"Ġsold":4281,"creto":4282,"Ġtouch":4283,"Ġosso":4284,"Ġprincesa":4285,"Ġ134":4286,"ree":4287,"reo":4288,"Ġnivel":4289,"Ġstri":4290,"beb":4291,"Ġbanheiro":4292,"blue":4293,"806":4294,"aca":4295,"cic":4296,"nie":4297,"Ġep":4298,"Ġzb":4299,"dra":4300,"Ġ222":4301,"ponta":4302,"Ġdri":4303,"vox":4304,"Ġsintetica":4305,"Ġescape":4306,"Ġvan":4307,"new":4308,"279":4309,"iante":4310,"Ġrede":4311,"Ġengate":4312,"999":4313,"ah":4314,"0100":4315,"laser":4316,"mann":4317,"Ġ295":4318,"Ġsummer":4319,"Ġjaqueta":4320,"kat":4321,"Ġestadual":4322,"zido":4323,"Ġamort":4324,"ressora":4325,"chas":4326,"itario":4327,"Ġdisplay":4328,"eleta":4329,"Ġnum":4330,"Ġrc":4331,"1100":4332,"604":4333,"way":4334,"909":4335,"242":4336,"ibra":4337,"vido":4338,"Ġmaq":4339,"soft":4340,"ceira":4341,"Ġedicao":4342,"tta":4343,"Ġecon":4344,"tena":4345,"Ġbiquini":4346,"win":4347,"xr":4348,"vao":4349,"item":4350,"tasia":4351,"Ġprotetor":4352,"Ġranger":4353,"Ġtemperatura":4354,"Ġcobertura":4355,"Ġvic":4356,"trol":4357,"Ġdent":4358,"molho":4359,"Ġcoletor":4360,"nf":4361,"vr":4362,"Ġdp":4363,"Ġapp":4364,"cera":4365,"ficial":4366,"Ġgan":4367,"Ġ61":4368,"Ġrig":4369,"ĠÃ":4370,"queiro":4371,"Ġela":4372,"Ġ009":4373,"2100":4374,"Ġ126":4375,"cartucho":4376,"Ġmineral":4377,"line":4378,"less":4379,"Ġctrib":4380,"Ġmari":4381,"Ġcremos":4382,"Ġfechado":4383,"tooth":4384,"Ġesf":4385,"169":4386,"Ġchic":4387,"440":4388,"flor":4389,"Ġbem":4390,"Ġparabrisa":4391,"colher":4392,"Ġeasy":4393,"317":4394,"Ġvaso":4395,"ijao":4396,"pta":4397,"Ġgb":4398,"Ġserv":4399,"sunga":4400,"cus":4401,"reto":4402,"Ġlixa":4403,"pai":4404,"Ġartes":4405,"bes":4406,"prata":4407,"wo":4408,"Ġ090":4409,"lash":4410,"traca":4411,"Ġ203":4412,"238":4413,"297":4414,"Ġribana":4415,"Ġhigien":4416,"edal":4417,"Ġroma":4418,"oso":4419,"354":4420,"Ġpreview":4421,"Ġlab":4422,"Ġ155":4423,"ineira":4424,"Ġblush":4425,"045":4426,"Ġfivela":4427,"Ġ045":4428,"807":4429,"idra":4430,"Ġtriang":4431,"Ġmickey":4432,"Ġnotebook":4433,"Ġarte":4434,"Ġchoc":4435,"Ġcorrer":4436,"Ġamendoa":4437,"Ġccli":4438,"Ġespuma":4439,"controle":4440,"288":4441,"Ġmetalico":4442,"lacao":4443,"Ġretra":4444,"bege":4445,"lant":4446,"Ġacqua":4447,"refil":4448,"Ġrelo":4449,"Ġdesconto":4450,"ilar":4451,"Ġgiro":4452,"Ġpap":4453,"Ġ206":4454,"Ġchinelo":4455,"Ġrosto":4456,"Ġbaun":4457,"278":4458,"verniz":4459,"bolo":4460,"Ġtextil":4461,"gm":4462,"dela":4463,"Ġchur":4464,"Ġzo":4465,"Ġurban":4466,"287":4467,"Ġretrovisor":4468,"ez":4469,"Ġbros":4470,"Ġnp":4471,"sala":4472,"Ġentrada":4473,"corda":4474,"biscoito":4475,"Ġconector":4476,"803":4477,"Ġelet":4478,"yage":4479,"Ġtropical":4480,"dinho":4481,"tech":4482,"Ġparalama":4483,"chapeu":4484,"254":4485,"247":4486,"hal":4487,"Ġtres":4488,"224":4489,"703":4490,"Ġtermico":4491,"550":4492,"rep":4493,"alcool":4494,"Ġ065":4495,"lass":4496,"erico":4497,"Ġ207":4498,"Ġcarb":4499,"Ġsupre":4500,"Ġjohn":4501,"Ġbluetooth":4502,"Ġcn":4503,"tensor":4504,"dilar":4505,"chuteira":4506,"Ġboy":4507,"ae":4508,"Ġder":4509,"kw":4510,"reira":4511,"237":4512,"756":4513,"299":4514,"ken":4515,"ork":4516,"Ġcamu":4517,"159":4518,"versor":4519,"Ġuma":4520,"Ġwhisk":4521,"Ġfal":4522,"tencao":4523,"Ġchata":4524,"teclado":4525,"Ġ2200":4526,"227":4527,"244":4528,"Ġcolecao":4529,"Ġ73":4530,"702":4531,"super":4532,"Ġprincipal":4533,"smart":4534,"Ġlivro":4535,"Ġrece":4536,"Ġbaixa":4537,"Ġambar":4538,"palio":4539,"Ġpren":4540,"609":4541,"calÃ§a":4542,"pera":4543,"Ġsala":4544,"calcado":4545,"Ġvalid":4546,"Ġcompri":4547,"semente":4548,"Ġhexag":4549,"aze":4550,"tter":4551,"Ġstone":4552,"344":4553,"Ġadidas":4554,"Ġfly":4555,"alca":4556,"its":4557,"Ġ850":4558,"urador":4559,"277":4560,"Ġleg":4561,"izz":4562,"lista":4563,"Ġec":4564,"urao":4565,"153":4566,"calip":4567,"353":4568,"Ġvoltagem":4569,"Ġdentes":4570,"costo":4571,"uba":4572,"Ġ208":4573,"Ġipan":4574,"renda":4575,"Ġice":4576,"Ġpf":4577,"Ġmem":4578,"804":4579,"167":4580,"vete":4581,"amp":4582,"ction":4583,"elos":4584,"sis":4585,"poli":4586,"Ġviva":4587,"ll":4588,"pano":4589,"late":4590,"Ġbau":4591,"Ġmetalica":4592,"Ġconforto":4593,"cru":4594,"ponteira":4595,"Ġ136":4596,"Ġsof":4597,"246":4598,"hor":4599,"ymp":4600,"rais":4601,"tox":4602,"Ġlil":4603,"1500":4604,"Ġwi":4605,"carrinho":4606,"telha":4607,"Ġmovel":4608,"154":4609,"Ġpq":4610,"Ġpig":4611,"Ġsandalias":4612,"Ġgarrafa":4613,"tamina":4614,"bao":4615,"Ġhdmi":4616,"my":4617,"Ġ212":4618,"Ġddr":4619,"Ġbrinde":4620,"Ġdiver":4621,"bum":4622,"Ġ71":4623,"Ġ998":4624,"602":4625,"157":4626,"vet":4627,"Ġpelucia":4628,"Ġvs":4629,"Ġremoto":4630,"Ġki":4631,"Ġover":4632,"quel":4633,"Ġsutia":4634,"Ġyama":4635,"hs":4636,"lp":4637,"Ġmoveis":4638,"Ġconfe":4639,"294":4640,"Ġpintura":4641,"Ġgranel":4642,"Ġimportado":4643,"020":4644,"Ã´":4645,"Ġroup":4646,"Ġcorda":4647,"lip":4648,"elerador":4649,"603":4650,"zador":4651,"inox":4652,"Ġdiaman":4653,"Ġesferas":4654,"fasico":4655,"Ġia":4656,"tabua":4657,"Ġinc":4658,"mea":4659,"Ġcarcaca":4660,"veta":4661,"xeta":4662,"alho":4663,"Ġ480":4664,"509":4665,"Ġrodas":4666,"132":4667,"Ġ4501":4668,"Ġsalmao":4669,"Ġaberto":4670,"Ġcremoso":4671,"gica":4672,"lixeira":4673,"266":4674,"Ġmeio":4675,"carregador":4676,"Ġeletronico":4677,"Ġbambu":4678,"vilha":4679,"Ġ375":4680,"uli":4681,"Ġ104":4682,"Ġ108":4683,"Ġsata":4684,"Ġbarb":4685,"carretel":4686,"md":4687,"plus":4688,"lamp":4689,"Ġris":4690,"Ġautomatico":4691,"agulha":4692,"fox":4693,"cano":4694,"rele":4695,"Ġazl":4696,"352":4697,"Ġacrilica":4698,"fralda":4699,"Ġced":4700,"racite":4701,"Ġ410":4702,"Ġsaveiro":4703,"000000":4704,"ution":4705,"Ġcool":4706,"Ġrex":4707,"Ġesti":4708,"Ġkn":4709,"356":4710,"Ġpulseira":4711,"efic":4712,"ji":4713,"td":4714,"Ġasa":4715,"Ġsg":4716,"choc":4717,"Ġmoder":4718,"Ġky":4719,"182":4720,"hey":4721,"Ġpresente":4722,"bron":4723,"Ġsed":4724,"239":4725,"Ġferra":4726,"Ġhu":4727,"mega":4728,"902":4729,"178":4730,"Ġmult":4731,"Ġbanco":4732,"Ġpalheta":4733,"Ġbordada":4734,"Ġlanca":4735,"titu":4736,"Ġpack":4737,"166":4738,"Ġ2004":4739,"Ġgota":4740,"Ġcis":4741,"809":4742,"Ġlencol":4743,"idi":4744,"Ġloren":4745,"249":4746,"286":4747,"Ġregina":4748,"ek":4749,"rico":4750,"Ġtomate":4751,"Ġcaminhao":4752,"Ġcana":4753,"masc":4754,"pia":4755,"via":4756,"tial":4757,"engate":4758,"503":4759,"gadas":4760,"269":4761,"Ġtable":4762,"Ġouvido":4763,"Ġbul":4764,"Ġblu":4765,"Ġlem":4766,"Ġagulha":4767,"Ġ188":4768,"Ġelast":4769,"Ġsoldavel":4770,"Ġamo":4771,"506":4772,"Ġrun":4773,"Ġvertical":4774,"Ġstr":4775,"Ġtom":4776,"cart":4777,"Ġkodilar":4778,"taca":4779,"1030":4780,"223":4781,"Ġnacional":4782,"disjuntor":4783,"eli":4784,"Ġradial":4785,"267":4786,"inetica":4787,"cpr":4788,"358":4789,"Ġcelta":4790,"Ġphilips":4791,"Ġvz":4792,"Ġdou":4793,"258":4794,"Ġmestico":4795,"Ġinterruptor":4796,"Ġnrped":4797,"tesoura":4798,"Ġkraft":4799,"Ġoculos":4800,"284":4801,"Ġflow":4802,"Ġlitro":4803,"Ġast":4804,"Ġcachor":4805,"Ġesco":4806,"Ġdecoracao":4807,"Ġferram":4808,"Ġlinear":4809,"clor":4810,"Ġesmalte":4811,"903":4812,"Ġbot":4813,"Ġ2400":4814,"balcao":4815,"Ġcacau":4816,"undai":4817,"Ġretratil":4818,"lit":4819,"rc":4820,"sonda":4821,"Ġpeito":4822,"Ġgolf":4823,"hes":4824,"zon":4825,"Ġbus":4826,"illa":4827,"Ġhal":4828,"polar":4829,"Ġdig":4830,"Ġ144":4831,"stru":4832,"hb":4833,"Ġvita":4834,"cessa":4835,"duto":4836,"mad":4837,"Ġcordao":4838,"Ġ012":4839,"tanado":4840,"Ġgt":4841,"Ġ102":4842,"186":4843,"1001":4844,"Ġ014":4845,"Ġclara":4846,"Ġtextura":4847,"Ġacadem":4848,"Ġautomotivo":4849,"152":4850,"Ġresfr":4851,"suco":4852,"Ġclassica":4853,"Ġcandy":4854,"usa":4855,"Ġ017":4856,"Ġespiral":4857,"compressor":4858,"Ġqualidade":4859,"Ġdz":4860,"encia":4861,"187":4862,"357":4863,"Ġamericano":4864,"bm":4865,"nakat":4866,"385":4867,"296":4868,"garfo":4869,"pg":4870,"ĠaÃ§o":4871,"Ġnt":4872,"276":4873,"Ġquadro":4874,"Ġcereja":4875,"Ġrelogio":4876,"Ġmit":4877,"Ġ266":4878,"vador":4879,"Ġminnie":4880,"cis":4881,"vem":4882,"timo":4883,"valv":4884,"calipto":4885,"Ġkar":4886,"Ġwar":4887,"349":4888,"Ġ1400":4889,"Ġgalvanizado":4890,"retro":4891,"armario":4892,"rica":4893,"guete":4894,"Ġsob":4895,"colchao":4896,"Ġipanema":4897,"ak":4898,"fd":4899,"pun":4900,"mmins":4901,"guarda":4902,"Ġstreet":4903,"314":4904,"corta":4905,"pw":4906,"scarpin":4907,"Ġ355":4908,"ose":4909,"Ġima":4910,"Ġlimp":4911,"Ġ129":4912,"iver":4913,"Ġresf":4914,"Ġabacaxi":4915,"Ġ070":4916,"Ġadaptador":4917,"168":4918,"199":4919,"Ġvacuo":4920,"pistao":4921,"nas":4922,"Ġlupo":4923,"tampo":4924,"907":4925,"Ġquar":4926,"folha":4927,"Ġsv":4928,"cora":4929,"Ġcoroa":4930,"trator":4931,"Ġant":4932,"399":4933,"Ġenfeite":4934,"mancal":4935,"Ġsky":4936,"Ġglo":4937,"Ġrm":4938,"Ġ158":4939,"Ġzara":4940,"Ġvintage":4941,"Ġgorg":4942,"aces":4943,"Ġmx":4944,"Ġexc":4945,"Ġviol":4946,"etti":4947,"dourado":4948,"Ġ106":4949,"Ġsout":4950,"264":4951,"carteira":4952,"Ġliber":4953,"Ġevol":4954,"Ġgela":4955,"504":4956,"inado":4957,"Ġspeed":4958,"jard":4959,"Ġev":4960,"189":4961,"ib":4962,"sl":4963,"376":4964,"Ġbrinco":4965,"ccao":4966,"Ġfp":4967,"0006":4968,"Ġprot":4969,"Ġaplique":4970,"wb":4971,"Ġmva":4972,"164":4973,"Ã¡s":4974,"ikus":4975,"Ġcircular":4976,"coco":4977,"cron":4978,"Ġ107":4979,"346":4980,"Ġacr":4981,"lycra":4982,"457":4983,"refri":4984,"Ġtermos":4985,"alt":4986,"802":4987,"Ġalon":4988,"233":4989,"347":4990,"forro":4991,"Ġype":4992,"Ġbike":4993,"Ġesmal":4994,"Ġrms":4995,"197":4996,"396":4997,"Ġsensi":4998,"Ġrgb":4999,"348":5000,"Ġnormal":5001,"Ġdallas":5002,"Ġfx":5003,"alto":5004,"Ġtrator":5005,"Ġarruela":5006,"Ġcompressor":5007,"Ġcoca":5008,"Ġrx":5009,"Ġmangas":5010,"rend":5011,"Ġyo":5012,"Ġhomem":5013,"Ġcut":5014,"Ġ430":5015,"joelho":5016,"Ġacelerador":5017,"ympikus":5018,"Ġet":5019,"Ġtt":5020,"osso":5021,"193":5022,"Ġtriton":5023,"Ġmec":5024,"Ġmbb":5025,"Ġbk":5026,"Ġboca":5027,"Ġ018":5028,"Ġurso":5029,"Ġpolegadas":5030,"Ġlente":5031,"bec":5032,"Ġreservatorio":5033,"maq":5034,"nado":5035,"176":5036,"378":5037,"Ġestre":5038,"terior":5039,"iaba":5040,"Ġembalagem":5041,"131":5042,"registro":5043,"Ġzirconia":5044,"flu":5045,"Ġtil":5046,"aninha":5047,"364":5048,"Ġ2001":5049,"Ġengrenagem":5050,"Ġvazado":5051,"Ġcadeira":5052,"Ġestamp":5053,"pet":5054,"Ġhappy":5055,"Ġdf":5056,"Ġfm":5057,"Ġsau":5058,"196":5059,"Ġcardan":5060,"Ġtar":5061,"Ġtamanhog":5062,"Ġvulcanizada":5063,"uss":5064,"caps":5065,"ivea":5066,"sego":5067,"Ġ011":5068,"valho":5069,"Ġflame":5070,"elastano":5071,"abs":5072,"zinho":5073,"macaneta":5074,"142":5075,"dobradica":5076,"era":5077,"gri":5078,"tanque":5079,"pilar":5080,"outros":5081,"Ġbaunilha":5082,"Ġconcen":5083,"marrom":5084,"Ġgramas":5085,"Ġcoluna":5086,"Ġviagem":5087,"ticulacao":5088,"nz":5089,"mala":5090,"Ġems":5091,"Ġ2002":5092,"cesto":5093,"Ġfolheado":5094,"Ġesgo":5095,"Ġhol":5096,"Ġ1263":5097,"Ġpednr":5098,"Ġ2003":5099,"feito":5100,"Ġcompl":5101,"Ġinjeta":5102,"Ġgig":5103,"Ġcirur":5104,"Ġcivic":5105,"saida":5106,"baco":5107,"179":5108,"Ġ016":5109,"Ġhorizon":5110,"Ġcamuf":5111,"pb":5112,"367":5113,"Ġhering":5114,"Ġedition":5115,"Ġcomposto":5116,"Ġmna":5117,"embalagem":5118,"Ġ043":5119,"Ġuniao":5120,"tens":5121,"259":5122,"394":5123,"398":5124,"inea":5125,"Ġmang":5126,"Ġpotencia":5127,"blia":5128,"Ġmultilaser":5129,"Ġhyundai":5130,"Ġelite":5131,"Ġray":5132,"Ġvolks":5133,"Ġvarias":5134,"Ġpersonalizado":5135,"pio":5136,"Ġame":5137,"Ġvt":5138,"Ġ103":5139,"Ġfluor":5140,"Ġimpermea":5141,"ky":5142,"Ġcamera":5143,"Ġ013":5144,"283":5145,"rb":5146,"Ġlb":5147,"0101":5148,"deiro":5149,"Ġestam":5150,"151":5151,"Ġiris":5152,"nap":5153,"Ġ215000":5154,"Ġgrosso":5155,"Ġmecanico":5156,"tacourt":5157,"Ġhexagonal":5158,"Ġ213":5159,"Ġbalan":5160,"Ġtensor":5161,"cache":5162,"Ġsf":5163,"Ġ038":5164,"tendo":5165,"Ġcosta":5166,"grafite":5167,"Ġeletronica":5168,"Ġio":5169,"roupa":5170,"gab":5171,"Ġpolie":5172,"298":5173,"Ġcorporal":5174,"xg":5175,"contra":5176,"Ġsabonete":5177,"Ġorto":5178,"Ġmalwee":5179,"ila":5180,"Ġfilho":5181,"Ġconcreto":5182,"mano":5183,"ingerie":5184,"Ġdv":5185,"Ġavela":5186,"Ġbur":5187,"Ġjul":5188,"sofa":5189,"brinquedo":5190,"Ġbrown":5191,"veda":5192,"Ġmoleca":5193,"uniao":5194,"502":5195,"Ġletra":5196,"333":5197,"Ġtexturi":5198,"Ġcigar":5199,"Ġchuva":5200,"508":5201,"Ġ098":5202,"184":5203,"Ġpom":5204,"volta":5205,"Ġventilador":5206,"Ġcliente":5207,"Ġfle":5208,"Ġtanga":5209,"hu":5210,"sb":5211,"253":5212,"177":5213,"Ġcxcarretel":5214,"Ġelec":5215,"ardana":5216,"Ġcummins":5217,"Ġessential":5218,"espatula":5219,"Ġlouro":5220,"tileno":5221,"387":5222,"Ġenc":5223,"Ġberco":5224,"prateleira":5225,"Ġilhos":5226,"Ġcook":5227,"Ġjr":5228,"Ġleao":5229,"difusor":5230,"Ġgedore":5231,"Ġdesodorante":5232,"clo":5233,"cigar":5234,"162":5235,"pom":5236,"Ġsec":5237,"Ġmisto":5238,"div":5239,"dinha":5240,"Ġpic":5241,"organ":5242,"cone":5243,"Ġaltura":5244,"Ġsabo":5245,"232":5246,"Ġbabados":5247,"av":5248,"real":5249,"Ġatanado":5250,"Ġequ":5251,"Ġbolinha":5252,"cata":5253,"Ġvento":5254,"Ġpress":5255,"256":5256,"194":5257,"Ġcabos":5258,"Ġqueijo":5259,"Ġoxford":5260,"passa":5261,"Ġchev":5262,"Ġesgoto":5263,"regu":5264,"Ġ510":5265,"449":5266,"igenio":5267,"Ġpao":5268,"imen":5269,"carcaca":5270,"indo":5271,"Ġ285":5272,"Ġvir":5273,"4040":5274,"Ġ1300":5275,"Ġtamanhom":5276,"Ġpontas":5277,"ziper":5278,"Ġmilha":5279,"doce":5280,"384":5281,"388":5282,"emb":5283,"163":5284,"Ġmedida":5285,"Ġresis":5286,"pendente":5287,"Ġmacacao":5288,"lac":5289,"essen":5290,"Ġsolido":5291,"Ġgasolina":5292,"bx":5293,"Ġrefri":5294,"cessaire":5295,"Ġunha":5296,"ivos":5297,"257":5298,"Ġlist":5299,"Ġjet":5300,"balde":5301,"Ġhomocinetica":5302,"ate":5303,"Ġpur":5304,"Ġvip":5305,"978":5306,"pers":5307,"Ġnes":5308,"sap":5309,"Ġalimenta":5310,"resis":5311,"174":5312,"263":5313,"Ġencosto":5314,"paralama":5315,"frente":5316,"upe":5317,"Ġsuvinil":5318,"Ġprato":5319,"ferro":5320,"Ġcapri":5321,"latex":5322,"Ġreducao":5323,"Ġremov":5324,"buia":5325,"Ġdispon":5326,"Ġlp":5327,"455":5328,"4500":5329,"342":5330,"447":5331,"Ġpalito":5332,"ata":5333,"fos":5334,"day":5335,"Ġconge":5336,"456":5337,"Ġforca":5338,"Ġrast":5339,"998":5340,"Ġestrutura":5341,"trum":5342,"Ġeucalipto":5343,"Ġmostarda":5344,"075":5345,"este":5346,"Ġcxs":5347,"Ġnegra":5348,"Ġpiscina":5349,"Ġare":5350,"Ġvig":5351,"asa":5352,"Ġtoque":5353,"Ġgirl":5354,"defletor":5355,"out":5356,"Ġcache":5357,"Ġ123":5358,"10000":5359,"Ġacopla":5360,"Ġmodulo":5361,"Ġwave":5362,"Ġpersonalizada":5363,"laco":5364,"tol":5365,"Ġramado":5366,"Ġtripla":5367,"Ġforrado":5368,"Ġusaflex":5369,"Ġdiamante":5370,"Ġesportivo":5371,"jas":5372,"extensao":5373,"Ġgalval":5374,"weet":5375,"Ġautomovel":5376,"Ġicmsst":5377,"auto":5378,"Ġlingerie":5379,"Ġcaqui":5380,"Ġpux":5381,"Ġfotovolta":5382,"bicicleta":5383,"Ġwifi":5384,"calo":5385,"Ġecos":5386,"Ġgates":5387,"Ġcanto":5388,"Ġedit":5389,"Ġmundo":5390,"Ġfur":5391,"Ġprog":5392,"331":5393,"Ġgloss":5394,"Ġfute":5395,"Ġembutir":5396,"Ġbca":5397,"Ġtd":5398,"Ġdian":5399,"Ġadvan":5400,"Ġeletr":5401,"Ġweg":5402,"velope":5403,"Ġdegrade":5404,"Ġgro":5405,"Ġpregas":5406,"fado":5407,"Ġcasaco":5408,"Ġcoracoes":5409,"022":5410,"Ġgli":5411,"pala":5412,"Ġarroz":5413,"Ġpinus":5414,"Ġessencial":5415,"kt":5416,"ismo":5417,"Ġgp":5418,"ono":5419,"Ġprew":5420,"ĠÃ¸":5421,"Ġgalvalume":5422,"Ġmno":5423,"Ġemborracha":5424,"Ġdesli":5425,"Ġacab":5426,"Ġrubi":5427,"Ġoccui":5428,"5000":5429,"blus":5430,"ee":5431,"Ġting":5432,"Ġrefle":5433,"triz":5434,"964":5435,"Ġgour":5436,"Ġway":5437,"Ġbatom":5438,"Ġrib":5439,"fura":5440,"var":5441,"Ġdeere":5442,"2025":5443,"quinha":5444,"Ġcoru":5445,"Ġdif":5446,"Ġbob":5447,"Ġseu":5448,"itaria":5449,"Ġslip":5450,"501":5451,"Ġprisma":5452,"Ġcolar":5453,"nc":5454,"pir":5455,"edia":5456,"bat":5457,"Ġalicate":5458,"Ġtrab":5459,"Ġstyle":5460,"Ġgatos":5461,"Ġimpermeavel":5462,"friso":5463,"kid":5464,"tovelo":5465,"Ġmae":5466,"Ġradio":5467,"quidea":5468,"panela":5469,"Ġacademia":5470,"hf":5471,"ese":5472,"Ġcada":5473,"desinf":5474,"bg":5475,"243":5476,"453":5477,"tidade":5478,"Ġelabo":5479,"fg":5480,"iga":5481,"np":5482,"Ġ315":5483,"Ġcaixas":5484,"Ġ204":5485,"chassi":5486,"351":5487,"Ġvelu":5488,"Ġcigarrete":5489,"sul":5490,"Ġges":5491,"furo":5492,"Ġcity":5493,"Ġpatch":5494,"Ġing":5495,"Ġconser":5496,"boneca":5497,"farinha":5498,"Ġfotovoltaico":5499,"gavel":5500,"895":5501,"siena":5502,"visco":5503,"Ġinvis":5504,"181":5505,"Ġfamil":5506,"Ġprewiew":5507,"eva":5508,"Ġpelo":5509,"sey":5510,"dir":5511,"368":5512,"Ġintermed":5513,"rebite":5514,"Ġhorizontal":5515,"tit":5516,"161":5517,"Ġram":5518,"Ġquan":5519,"Ġsexy":5520,"Ġpijama":5521,"Ġolympikus":5522,"num":5523,"386":5524,"379":5525,"Ġbandeira":5526,"bilidade":5527,"Ġsortidos":5528,"camara":5529,"Ġapa":5530,"Ġrea":5531,"Ġrend":5532,"369":5533,"374":5534,"Ġbande":5535,"Ġpuma":5536,"Ġlaminado":5537,"Ġwil":5538,"reserva":5539,"cks":5540,"Ġblusao":5541,"Ġelem":5542,"ouro":5543,"507":5544,"Ġ167":5545,"marca":5546,"try":5547,"Ġfolhagem":5548,"util":5549,"Ġ1010":5550,"183":5551,"Ġ000000":5552,"Ġpeuge":5553,"446":5554,"izza":5555,"Ġreforcado":5556,"Ġfinal":5557,"Ġ021":5558,"Ġ152":5559,"141":5560,"Ġcartela":5561,"Ġ256":5562,"oleira":5563,"Ġplataforma":5564,"relli":5565,"treme":5566,"Ġkombi":5567,"Ġworker":5568,"040":5569,"arta":5570,"Ġmak":5571,"Ġrad":5572,"754":5573,"Ġcast":5574,"positor":5575,"Ġsapata":5576,"Ġpronta":5577,"cco":5578,"kinha":5579,"pren":5580,"sw":5581,"tilit":5582,"459":5583,"irinha":5584,"377":5585,"Ġelaboracao":5586,"ffe":5587,"jet":5588,"entos":5589,"Ġpock":5590,"Ġdesign":5591,"Ġgrau":5592,"Ġty":5593,"dero":5594,"Ġhis":5595,"856":5596,"Ġvelho":5597,"Ġsextavada":5598,"espon":5599,"Ġmala":5600,"755":5601,"Ġfura":5602,"Ġdedo":5603,"Ġ460":5604,"Ġalcool":5605,"Ġnac":5606,"ticos":5607,"trin":5608,"Ġplush":5609,"iveco":5610,"Ġ370":5611,"iagem":5612,"wagen":5613,"Ġaberta":5614,"Ġacetina":5615,"Ġcia":5616,"Ġ540":5617,"Ġmaior":5618,"bacia":5619,"card":5620,"Ġantigo":5621,"Ġoliva":5622,"rozen":5623,"har":5624,"Ġreb":5625,"mour":5626,"Ġester":5627,"Ġ147":5628,"dire":5629,"Ġtriangulo":5630,"iamento":5631,"Ġtelha":5632,"Ġjuntas":5633,"060":5634,"coifa":5635,"Ġnature":5636,"8500":5637,"parachoque":5638,"viga":5639,"gus":5640,"sas":5641,"Ġpil":5642,"Ġpuro":5643,"Ġeps":5644,"saconj":5645,"inacao":5646,"kota":5647,"eb":5648,"yer":5649,"Ġroupas":5650,"Ġgourmet":5651,"fira":5652,"Ġpira":5653,"Ġ316":5654,"231":5655,"262":5656,"Ġgavetas":5657,"ade":5658,"ei":5659,"chard":5660,"469":5661,"496":5662,"brequim":5663,"pistola":5664,"display":5665,"esponja":5666,"bora":5667,"Ġwire":5668,"Ġbrim":5669,"720":5670,"aleta":5671,"icho":5672,"896":5673,"Ġambi":5674,"tuador":5675,"Ġpeugeot":5676,"Ġ301":5677,"241":5678,"Ġcart":5679,"black":5680,"condicionador":5681,"erv":5682,"hada":5683,"173":5684,"Ġtoner":5685,"itavel":5686,"xt":5687,"ash":5688,"Ġ81":5689,"468":5690,"Ġavulso":5691,"Ġvegetal":5692,"tima":5693,"hao":5694,"Ġrecarre":5695,"lasse":5696,"lima":5697,"Ġviscolycra":5698,"030":5699,"pente":5700,"teado":5701,"itch":5702,"Ġtabaco":5703,"visa":5704,"assento":5705,"limp":5706,"Ġren":5707,"Ġ1045":5708,"Ġmeu":5709,"Ġprateleira":5710,"Ġescri":5711,"plug":5712,"Ġsant":5713,"Ġkwp":5714,"0009":5715,"Ġleds":5716,"bosch":5717,"Ġretido":5718,"Ġbalao":5719,"899":5720,"berm":5721,"Ġsinal":5722,"pedal":5723,"Ġacionamento":5724,"uretano":5725,"ster":5726,"tier":5727,"Ġnadador":5728,"Ġkyly":5729,"cca":5730,"Ġcav":5731,"Ġcachos":5732,"icador":5733,"Ġtraves":5734,"iros":5735,"chocolate":5736,"Ġcream":5737,"Ġorigem":5738,"Ġantique":5739,"Ġfusion":5740,"virt":5741,"Ġtpu":5742,"Ġcadar":5743,"Ġhs":5744,"Ġcontendo":5745,"gancho":5746,"Ġpantacourt":5747,"Ġfruta":5748,"Ġaxor":5749,"redom":5750,"Ġlm":5751,"all":5752,"Ġestri":5753,"Ġsincron":5754,"Ġcolle":5755,"ianca":5756,"080":5757,"armacao":5758,"vacao":5759,"Ġleit":5760,"766":5761,"Ġgenerico":5762,"311":5763,"ling":5764,"tle":5765,"utador":5766,"Ġcoifa":5767,"Ġcalc":5768,"498":5769,"Ġenergia":5770,"Ġajustavel":5771,"Ġdiferencial":5772,"Ġcorpretotamanho":5773,"jardineira":5774,"Ġretidost":5775,"wg":5776,"cass":5777,"381":5778,"Ġvectra":5779,"Ġmcz":5780,"Ġdelta":5781,"pirador":5782,"cing":5783,"Ġfir":5784,"Ġ2100":5785,"Ġniss":5786,"1020":5787,"urora":5788,"propil":5789,"sortido":5790,"cuba":5791,"Ġclassico":5792,"Ġeconom":5793,"bk":5794,"274":5795,"Ġimbuia":5796,"cerveja":5797,"Ġunit":5798,"terg":5799,"Ġadmissao":5800,"2016":5801,"Ġcilios":5802,"Ġruby":5803,"Ġvioleta":5804,"Ġmapa":5805,"queijo":5806,"som":5807,"Ġdetalhes":5808,"alavanca":5809,"Ġartificial":5810,"Ġave":5811,"Ġ501":5812,"conti":5813,"341":5814,"281":5815,"Ġcompressao":5816,"validade":5817,"Ġybr":5818,"mescla":5819,"enoide":5820,"izzano":5821,"cup":5822,"entas":5823,"854":5824,"Ġfund":5825,"Ġregulador":5826,"Ġgrossa":5827,"Ġaplicacao":5828,"Ġyamaha":5829,"uta":5830,"ugu":5831,"Ġsco":5832,"Ġnser":5833,"Ġ520":5834,"torn":5835,"192":5836,"Ġtee":5837,"Ġ019":5838,"Ġdiametro":5839,"Ġvariante":5840,"Ġquarto":5841,"Ġgorgurao":5842,"Ġdeca":5843,"Ġ202":5844,"amendo":5845,"Ġblazer":5846,"Ġtactel":5847,"dn":5848,"fivela":5849,"Ġ630":5850,"0007":5851,"Ġnavy":5852,"ssol":5853,"anth":5854,"Ġslt":5855,"ardanapo":5856,"Ġsweet":5857,"esfe":5858,"Ġfazer":5859,"adora":5860,"lateral":5861,"calota":5862,"vc":5863,"unid":5864,"Ġpessego":5865,"Ġpulso":5866,"Ġcarreta":5867,"Ġspecial":5868,"Ġintermedi":5869,"fron":5870,"Ġeste":5871,"273":5872,"grelha":5873,"wl":5874,"cobre":5875,"Ġress":5876,"Ġmom":5877,"897":5878,"858":5879,"zzo":5880,"tores":5881,"erra":5882,"Ġ305":5883,"343":5884,"Ġvideo":5885,"Ġcabedal":5886,"Ġbufante":5887,"Ġlivre":5888,"regulador":5889,"aven":5890,"bp":5891,"tv":5892,"Ġ133":5893,"Ġvies":5894,"unidade":5895,"Ġretil":5896,"Ġtele":5897,"heres":5898,"nico":5899,"Ġcomer":5900,"iola":5901,"vac":5902,"383":5903,"Ġfusivel":5904,"Ġsurf":5905,"Ġelectro":5906,"Ġmista":5907,"Ġnivea":5908,"13789":5909,"conta":5910,"1400":5911,"Ġday":5912,"Ġral":5913,"363":5914,"Ġendu":5915,"prot":5916,"mdf":5917,"cordao":5918,"filme":5919,"if":5920,"tele":5921,"idal":5922,"656":5923,"supl":5924,"Ġbianco":5925,"Ġblister":5926,"Ġassento":5927,"regua":5928,"tira":5929,"Ġparal":5930,"calc":5931,"calha":5932,"995":5933,"Ġtaca":5934,"Ġenergy":5935,"gt":5936,"anal":5937,"Ġnk":5938,"mat":5939,"Ġjas":5940,"0008":5941,"272":5942,"Ġchicote":5943,"Ġcastor":5944,"Ġclear":5945,"funcional":5946,"Ġfras":5947,"Ġob":5948,"Ġ620":5949,"Ġparati":5950,"cmc":5951,"7500":5952,"verizador":5953,"Ġestilo":5954,"Ġvelutex":5955,"ui":5956,"deado":5957,"1600":5958,"2500":5959,"tamponamento":5960,"selo":5961,"Ġvivo":5962,"Ġ660":5963,"edr":5964,"Ġcorri":5965,"1800":5966,"Ġcarrinho":5967,"face":5968,"brax":5969,"Ġacu":5970,"pinca":5971,"Ġslide":5972,"reservatorio":5973,"Ġcy":5974,"dade":5975,"cion":5976,"251":5977,"371":5978,"Ġpint":5979,"Ġliquida":5980,"Ġcompacto":5981,"Ġpoliuretano":5982,"Ġpran":5983,"Ġ395":5984,"brac":5985,"373":5986,"Ġcomprimento":5987,"Ġcpo":5988,"Ġdino":5989,"Ġ223":5990,"Ġteste":5991,"Ġcinta":5992,"467":5993,"Ġclochard":5994,"blu":5995,"Ġpk":5996,"Ġnv":5997,"sauro":5998,"Ġ041":5999,"ics":6000,"Ġjic":6001,"Ġsach":6002,"tilho":6003,"Ġsolo":6004,"Ġeditavel":6005,"Ġvelcro":6006,"Ġgigante":6007,"anti":6008,"Ġtf":6009,"Ġcont":6010,"Ġtracao":6011,"261":6012,"Ġnebl":6013,"Ġaceta":6014,"3210":6015,"Ġshine":6016,"430":6017,"coturno":6018,"Ġvista":6019,"Ġ475":6020,"Ġken":6021,"terra":6022,"balanca":6023,"172":6024,"Ġcarta":6025,"Ġ146":6026,"768":6027,"colonia":6028,"mhz":6029,"lab":6030,"lat":6031,"bag":6032,"Ġlow":6033,"Ġdesf":6034,"corpo":6035,"preta":6036,"toner":6037,"Ġzaeli":6038,"perfume":6039,"Ġdro":6040,"Ġjd":6041,"Ġboot":6042,"Ġwide":6043,"191":6044,"Ġpot":6045,"wear":6046,"Ġcitro":6047,"Ġmaquiagem":6048,"propileno":6049,"Ġgarra":6050,"454":6051,"Ġhair":6052,"Ġcrem":6053,"vassoura":6054,"clip":6055,"Ġbiscoito":6056,"Ġconexao":6057,"1300":6058,"talona":6059,"Ġsecre":6060,"361":6061,"859":6062,"refletor":6063,"028":6064,"375":6065,"lg":6066,"Ġponteira":6067,"Ġgde":6068,"Ġ044":6069,"liber":6070,"486":6071,"Ġplana":6072,"plan":6073,"Ġole":6074,"Ġtampo":6075,"20000":6076,"impressora":6077,"Ġprati":6078,"cuja":6079,"troleo":6080,"hidro":6081,"liv":6082,"come":6083,"Ġfrozen":6084,"ene":6085,"pero":6086,"458":6087,"Ġbeira":6088,"658":6089,"474":6090,"bieleta":6091,"Ġgrs":6092,"ibus":6093,"ttan":6094,"Ġunhas":6095,"252":6096,"Ġbatente":6097,"Ġ148":6098,"Ġcomprim":6099,"Ġparte":6100,"arden":6101,"Ġdistribuido":6102,"dores":6103,"777":6104,"stela":6105,"Ġcomposicao":6106,"Ġguarda":6107,"Ġvolkswagen":6108,"dre":6109,"tea":6110,"rok":6111,"382":6112,"292":6113,"Ġgalao":6114,"monitor":6115,"Ġfilme":6116,"Ġniquel":6117,"Ġlorenz":6118,"hm":6119,"Ġpingente":6120,"tee":6121,"Ġ214":6122,"Ġdakota":6123,"capamento":6124,"Ġerva":6125,"Ġsobrepor":6126,"jr":6127,"pingente":6128,"Ġhr":6129,"Ġtoy":6130,"bebe":6131,"Ġimedia":6132,"Ġmundial":6133,"Ġquantidade":6134,"610":6135,"ning":6136,"271":6137,"Ġmontagem":6138,"barb":6139,"362":6140,"itex":6141,"Ġbrs":6142,"positivo":6143,"Ġresp":6144,"Ġgolden":6145,"chaveiro":6146,"strada":6147,"Ġhero":6148,"cantoneira":6149,"Ġmonica":6150,"grafia":6151,"Ġveloc":6152,"cigarrete":6153,"cassim":6154,"zel":6155,"488":6156,"Ġpastel":6157,"acabamento":6158,"Ġchurrasco":6159,"Ġastm":6160,"Ġelectrolux":6161,"rote":6162,"espe":6163,"Ġcontato":6164,"555":6165,"Ġelastica":6166,"Ġbalde":6167,"Ġadap":6168,"Ġbeauty":6169,"Ġcadarco":6170,"rm":6171,"Ġfriso":6172,"Ġ390":6173,"Ġversa":6174,"resina":6175,"Ġartic":6176,"Ġcartao":6177,"Ġleo":6178,"Ġlima":6179,"colcha":6180,"Ġpastilhas":6181,"Ġretilinea":6182,"171":6183,"grama":6184,"tint":6185,"Ġskf":6186,"Ġpesca":6187,"relha":6188,"Ġfusca":6189,"cabeceira":6190,"390":6191,"Ġever":6192,"Ġsodio":6193,"480":6194,"lic":6195,"hora":6196,"itador":6197,"478":6198,"espacador":6199,"Ġciclista":6200,"culo":6201,"zen":6202,"Ã¢":6203,"Ġpick":6204,"tane":6205,"Ġfrasco":6206,"mag":6207,"Ġmalas":6208,"898":6209,"prof":6210,"Ġ178":6211,"eg":6212,"jarra":6213,"Ġevo":6214,"upeta":6215,"itona":6216,"Ġpinos":6217,"subis":6218,"Ġmtb":6219,"Ġbarbie":6220,"Ġtilibra":6221,"460":6222,"7000":6223,"Ġcad":6224,"Ġcorta":6225,"icas":6226,"nada":6227,"Ġ149":6228,"466":6229,"onada":6230,"Ġperfu":6231,"axios":6232,"idificador":6233,"Ġesteril":6234,"rus":6235,"sten":6236,"Ġ244":6237,"Ġgv":6238,"Ġtnt":6239,"Ġmouse":6240,"Ġpeixe":6241,"cessador":6242,"Ġlaterais":6243,"tru":6244,"Ġstor":6245,"anha":6246,"Ġvc":6247,"Ġrel":6248,"Ġcapilar":6249,"mando":6250,"2012":6251,"479":6252,"Ġiveco":6253,"olho":6254,"porcelana":6255,"Ġmagic":6256,"Ġcarregador":6257,"gaxeta":6258,"vers":6259,"Ġlurex":6260,"prene":6261,"vista":6262,"ccino":6263,"Ġvld":6264,"Ġgrey":6265,"ave":6266,"light":6267,"0010":6268,"camera":6269,"arroz":6270,"Ġoral":6271,"Ġalcas":6272,"ortavel":6273,"Ġtensao":6274,"cooler":6275,"mim":6276,"Ġalcinha":6277,"Ġcarvalho":6278,"Ġampla":6279,"Ġsuplex":6280,"Ġstretch":6281,"Ġregulagem":6282,"Ġrecarregavel":6283,"Ġaranha":6284,"tambor":6285,"Ġ8000":6286,"1700":6287,"Ġcarteira":6288,"Ġseries":6289,"organizador":6290,"Ġclor":6291,"sof":6292,"tria":6293,"posicao":6294,"venture":6295,"pvc":6296,"Ġpolietileno":6297,"Ġcontin":6298,"Ġ255":6299,"391":6300,"Ġpart":6301,"Ġoffwhite":6302,"Ġfogo":6303,"Ġvalvulas":6304,"Ġexclus":6305,"sar":6306,"Ġisa":6307,"como":6308,"iador":6309,"tilizante":6310,"porio":6311,"Ġbeach":6312,"Ġajuste":6313,"batata":6314,"Ġ132":6315,"boia":6316,"sora":6317,"fap":6318,"393":6319,"Ġnobre":6320,"oneiro":6321,"trw":6322,"mila":6323,"iaomi":6324,"Ġgeometrico":6325,"Ġaqu":6326,"Ġlite":6327,"Ġcost":6328,"nela":6329,"Ġloc":6330,"2011":6331,"peneira":6332,"Ġduas":6333,"Ġball":6334,"Ġformato":6335,"Ġespel":6336,"board":6337,"fabr":6338,"corpreto":6339,"Ġelegan":6340,"Ġfile":6341,"Ġatlas":6342,"Ġisolante":6343,"Ġintelbras":6344,"Ġcachorro":6345,"620":6346,"cat":6347,"capo":6348,"arm":6349,"Ġide":6350,"ump":6351,"Ġserrado":6352,"Ġcalcados":6353,"jeira":6354,"Ġmiz":6355,"282":6356,"Ġtie":6357,"654":6358,"Ġ3600":6359,"Ġlub":6360,"Ġcaneta":6361,"Ġbarba":6362,"Ġvlr":6363,"Ġgarfo":6364,"Ġvariadas":6365,"eco":6366,"Ġaurora":6367,"esq":6368,"ester":6369,"Ġcarol":6370,"lastic":6371,"natura":6372,"Ġrefe":6373,"carrao":6374,"767":6375,"rev":6376,"touca":6377,"boi":6378,"Ġhc":6379,"Ġmake":6380,"poca":6381,"nova":6382,"452":6383,"mentos":6384,"00001":6385,"coluna":6386,"Ġfosca":6387,"darte":6388,"Ġdb":6389,"Ġapos":6390,"cota":6391,"ily":6392,"Ġrag":6393,"Ġtrif":6394,"corsa":6395,"Ġ198":6396,"477":6397,"Ġorganico":6398,"Ġirwin":6399,"Ġstihl":6400,"Ġcrian":6401,"culante":6402,"Ġnitril":6403,"liberte":6404,"0012":6405,"Ġedu":6406,"Ġovo":6407,"dence":6408,"Ġinstrum":6409,"retrovisor":6410,"gf":6411,"gp":6412,"rose":6413,"Ġ226":6414,"Ġcobal":6415,"Ġcoturno":6416,"Ġ580":6417,"Ġcondor":6418,"Ġnoite":6419,"parati":6420,"Ġlant":6421,"Ġaudi":6422,"Ġressf":6423,"pris":6424,"Ġlic":6425,"Ġluna":6426,"Ġvp":6427,"Ġgc":6428,"eng":6429,"Ġ8101":6430,"Ġaze":6431,"894":6432,"291":6433,"Ġmotorola":6434,"Ġjanela":6435,"acessor":6436,"essencia":6437,"kc":6438,"mente":6439,"Ġinst":6440,"last":6441,"Ġmatern":6442,"332":6443,"Ġcorazul":6444,"Ġneblina":6445,"520":6446,"901":6447,"jan":6448,"alg":6449,"Ġcopos":6450,"igree":6451,"ulador":6452,"392":6453,"2001":6454,"986":6455,"Ġcera":6456,"genta":6457,"Ġgrego":6458,"Ġplug":6459,"Ġconfortavel":6460,"lc":6461,"Ġalo":6462,"Ġaparelho":6463,"Ġcatraca":6464,"Ġlapis":6465,"torno":6466,"857":6467,"988":6468,"nn":6469,"casa":6470,"Ġpat":6471,"now":6472,"Ġamostra":6473,"Ġenvio":6474,"494":6475,"Ġimpresso":6476,"Ġpespon":6477,"mond":6478,"pray":6479,"Ġdinos":6480,"313":6481,"Ġ1113":6482,"Ġseta":6483,"Ġ335":6484,"boque":6485,"termo":6486,"Ġfac":6487,"Ġdestro":6488,"464":6489,"Ġmontana":6490,"sue":6491,"Ġdell":6492,"Ġdivis":6493,"anthracite":6494,"710":6495,"Ġdm":6496,"revestimento":6497,"Ġea":6498,"Ġkel":6499,"fato":6500,"996":6501,"958":6502,"colh":6503,"Ġrecic":6504,"Ġbrinquedo":6505,"Ġpolipropileno":6506,"Ġanabela":6507,"Ġretorno":6508,"king":6509,"lla":6510,"Ġcou":6511,"Ġcarvao":6512,"Ġjoy":6513,"Ġjogging":6514,"Ġsendo":6515,"Ġmusgo":6516,"limpador":6517,"Ġservico":6518,"Ġacetinado":6519,"Ġabo":6520,"door":6521,"sabao":6522,"Ġeng":6523,"2010":6524,"Ġestoque":6525,"Ġreforcada":6526,"subishi":6527,"Ġoil":6528,"Ġ517":6529,"Ġpincel":6530,"Ġtrilho":6531,"Ġespon":6532,"Ġbicicleta":6533,"hidra":6534,"vca":6535,"unha":6536,"Ġ7000":6537,"Ġ950":6538,"Ġbeb":6539,"Ġyok":6540,"geno":6541,"barro":6542,"Ġestriado":6543,"Ġfamilia":6544,"inino":6545,"Ġpret":6546,"Ġrj":6547,"Ġsoci":6548,"Ġset":6549,"pue":6550,"Ġperfe":6551,"fusivel":6552,"323":6553,"Ġcres":6554,"Ġmk":6555,"Ġ122":6556,"ican":6557,"Ġenv":6558,"Ġll":6559,"Ġ470":6560,"urte":6561,"briela":6562,"Ġgiratoria":6563,"Ġgancho":6564,"avental":6565,"Ġpano":6566,"Ġ680":6567,"Ġconta":6568,"pedra":6569,"Ġ79080":6570,"Ġdistribuidores":6571,"uc":6572,"Ġbba":6573,"assa":6574,"Ġnar":6575,"ribana":6576,"Ġalho":6577,"Ġmarin":6578,"Ġmelan":6579,"Ġcromo":6580,"Ġestojo":6581,"Ġmatelasse":6582,"ques":6583,"itu":6584,"Ġ1250":6585,"Ġchip":6586,"444":6587,"Ġzen":6588,"ilarina":6589,"Ġevolution":6590,"Ġpizza":6591,"bac":6592,"293":6593,"372":6594,"biblia":6595,"Ġpantalona":6596,"Ġclio":6597,"dent":6598,"citor":6599,"Ġpilha":6600,"unica":6601,"Ġ036":6602,"Ġdom":6603,"Ġsadia":6604,"Ġ0010":6605,"Ġtrama":6606,"Ġtoys":6607,"759":6608,"Ġgab":6609,"Ġcacamba":6610,"cortador":6611,"fiat":6612,"rodo":6613,"rotor":6614,"Ġlig":6615,"ellow":6616,"randela":6617,"turador":6618,"ades":6619,"Ġamarok":6620,"Ġtriplo":6621,"ghz":6622,"uva":6623,"Ġrelax":6624,"ith":6625,"chin":6626,"cher":6627,"Ġdot":6628,"more":6629,"Ġnome":6630,"prox":6631,"Ġguip":6632,"Ġ2700":6633,"tivos":6634,"335":6635,"sd":6636,"xy":6637,"Ġconden":6638,"Ġcolgate":6639,"Ġanatom":6640,"etiq":6641,"Ġportugu":6642,"Ġgliter":6643,"Ġtrabalha":6644,"Ġcus":6645,"recida":6646,"Ġlol":6647,"Ġnb":6648,"home":6649,"Ġpedigree":6650,"Ġmanu":6651,"2013":6652,"anema":6653,"Ġdobravel":6654,"pola":6655,"grs":6656,"Ġsuperf":6657,"ipanema":6658,"769":6659,"Ġgram":6660,"cuito":6661,"Ġsens":6662,"Ġpanela":6663,"aleco":6664,"skf":6665,"Ġmaracuja":6666,"Ġquimica":6667,"iano":6668,"mbo":6669,"rack":6670,"2400":6671,"Ġarvore":6672,"2015":6673,"669":6674,"Ġrosas":6675,"Ġespeci":6676,"Ġdye":6677,"artaxial":6678,"rsc":6679,"cabide":6680,"Ġfim":6681,"Ġsea":6682,"758":6683,"Ġexpan":6684,"659":6685,"487":6686,"784":6687,"Ġparcial":6688,"Ġmonza":6689,"Ġmenor":6690,"Ġcueca":6691,"Ġregistro":6692,"021":6693,"vante":6694,"anilha":6695,"eld":6696,"Ġadventure":6697,"carro":6698,"tsu":6699,"Ġ193":6700,"484":6701,"vejado":6702,"Ġrelevo":6703,"Ġwhiskas":6704,"din":6705,"Ġmarsala":6706,"Ġprova":6707,"Ġmondial":6708,"banda":6709,"molive":6710,"caramelo":6711,"Ġmolho":6712,"fixa":6713,"Ġbn":6714,"Ġbest":6715,"Ġ031":6716,"Ġinic":6717,"Ġdoc":6718,"Ġpetroleo":6719,"Ġlaminada":6720,"Ġinjecao":6721,"rd":6722,"ille":6723,"neus":6724,"veira":6725,"Ġocre":6726,"Ġgame":6727,"Ġtitanium":6728,"rt":6729,"Ġindi":6730,"mec":6731,"sorv":6732,"skin":6733,"Ġtwister":6734,"fundo":6735,"cz":6736,"2200":6737,"perola":6738,"Ġhepr":6739,"cruz":6740,"gabinete":6741,"porcelanato":6742,"comando":6743,"Ġxica":6744,"ciona":6745,"Ġmarine":6746,"Ġnegro":6747,"Ġsuv":6748,"punho":6749,"Ġtg":6750,"Ġofer":6751,"Ġ028":6752,"bot":6753,"1101":6754,"poxi":6755,"ducha":6756,"Ġvoyage":6757,"inaria":6758,"rolet":6759,"Ġnh":6760,"ssd":6761,"Ġaroma":6762,"Ġdescarga":6763,"090":6764,"radiador":6765,"Ġtq":6766,"Ġpapa":6767,"Ġxr":6768,"Ġmanta":6769,"757":6770,"969":6771,"onato":6772,"Ġmoleton":6773,"Ġelgin":6774,"Ġecosport":6775,"Ġmakita":6776,"Ġwireless":6777,"zi":6778,"Ġfive":6779,"isca":6780,"els":6781,"Ġhum":6782,"naga":6783,"1301":6784,"Ġpintado":6785,"Ġvolta":6786,"cesta":6787,"tiara":6788,"Ġdobradica":6789,"Ġrigido":6790,"coletor":6791,"ance":6792,"Ġcomo":6793,"meira":6794,"1005":6795,"ssis":6796,"roup":6797,"Ġlf":6798,"Ġgts":6799,"Ġglam":6800,"ense":6801,"Ġlog":6802,"Ġcher":6803,"Ġantider":6804,"Ġestabilizadora":6805,"026":6806,"mio":6807,"vl":6808,"Ġtratamento":6809,"Ġrainha":6810,"997":6811,"959":6812,"888":6813,"branca":6814,"Ġdrw":6815,"uf":6816,"Ġ312":6817,"Ġpais":6818,"1120":6819,"Ġ254":6820,"Ġanvisa":6821,"minas":6822,"Ġorquidea":6823,"Ġchato":6824,"Ġasso":6825,"Ġvene":6826,"Ġrandon":6827,"Ġdcre":6828,"Ġsix":6829,"Ġ224":6830,"dada":6831,"Ġrot":6832,"iden":6833,"Ġwhey":6834,"Ġvapor":6835,"Ġprotein":6836,"Ġzincado":6837,"ticas":6838,"Ġocped":6839,"Ġpotes":6840,"Ġforce":6841,"ient":6842,"farma":6843,"onders":6844,"mentacao":6845,"630":6846,"dana":6847,"star":6848,"Ġpilo":6849,"cato":6850,"Ġ221":6851,"isi":6852,"Ġrb":6853,"Ġyou":6854,"Ġautom":6855,"ety":6856,"travessa":6857,"070":6858,"acu":6859,"cake":6860,"Ġcamo":6861,"Ġdias":6862,"Ġsereia":6863,"Ġmlb":6864,"Ġorg":6865,"Ġcollor":6866,"imentos":6867,"Ġacucar":6868,"tino":6869,"cotovelo":6870,"ark":6871,"1002":6872,"Ġ168":6873,"Ġcroco":6874,"stem":6875,"Ġestab":6876,"silicone":6877,"Ġneoprene":6878,"eletrodo":6879,"024":6880,"043":6881,"band":6882,"tm":6883,"tatica":6884,"Ġak":6885,"Ġcobra":6886,"logo":6887,"bate":6888,"Ġdove":6889,"Ġlot":6890,"664":6891,"Ġyonders":6892,"bial":6893,"mcg":6894,"Ġautomotiva":6895,"Ġperfume":6896,"Ġdisponi":6897,"035":6898,"dri":6899,"gy":6900,"coral":6901,"emenda":6902,"Ġespi":6903,"Ġkrona":6904,"inador":6905,"lock":6906,"Ġrisco":6907,"Ġseara":6908,"Ġbrisa":6909,"473":6910,"Ġlargo":6911,"Ġsanf":6912,"Ġolho":6913,"semen":6914,"tipo":6915,"Ġ039":6916,"bob":6917,"Ġhf":6918,"Ġ157":6919,"554":6920,"seringa":6921,"Ġconcentrado":6922,"Ġcorrida":6923,"vita":6924,"Ġinfa":6925,"ulada":6926,"Ġang":6927,"788":6928,"rosca":6929,"Ġresol":6930,"Ġprimer":6931,"Ġecolo":6932,"limpa":6933,"Ġcomercial":6934,"1010":6935,"318":6936,"cook":6937,"mais":6938,"Ġ034":6939,"Ġ1020":6940,"Ġdocol":6941,"Ġmarron":6942,"Ġconce":6943,"497":6944,"Ã§as":6945,"Ġvolante":6946,"Ġdreno":6947,"370":6948,"jos":6949,"sus":6950,"zinha":6951,"Ġgarden":6952,"Ġcala":6953,"Ġpac":6954,"Ġcorbranco":6955,"Ġanalo":6956,"Ġflower":6957,"fogao":6958,"grafica":6959,"Ġcondicionador":6960,"Ġferramentas":6961,"coa":6962,"cole":6963,"ental":6964,"Ġ026":6965,"gares":6966,"cias":6967,"necessaire":6968,"Ġpedras":6969,"fecho":6970,"Ġgratis":6971,"Ġgoiaba":6972,"genero":6973,"Ġprotetora":6974,"tamanhom":6975,"sistema":6976,"Ġelo":6977,"Ġrevestimento":6978,"Ġcortina":6979,"rest":6980,"Ġmodelos":6981,"Ġ7898":6982,"Ġjantar":6983,"self":6984,"ple":6985,"spray":6986,"Ġ345":6987,"Ġnin":6988,"bador":6989,"Ġwes":6990,"Ġcontrol":6991,"tual":6992,"Ġonibus":6993,"Ġlargx":6994,"Ġfantasia":6995,"Ġmaternidade":6996,"425":6997,"Ġado":6998,"Ġabas":6999,"idia":7000,"Ġaction":7001,"genda":7002,"Ġsantana":7003,"Ġurs":7004,"Ġhead":7005,"Ġdeslizante":7006,"023":7007,"Ġ139":7008,"Ġbj":7009,"Ġvizzano":7010,"Ġ033":7011,"Ġjtas":7012,"Ġ258500":7013,"994":7014,"head":7015,"Ġ230000":7016,"sm":7017,"Ġpico":7018,"Ġ228":7019,"Ġ229":7020,"Ġlx":7021,"Ġ365":7022,"Ġconico":7023,"Ġarticula":7024,"Ġpolida":7025,"bril":7026,"764":7027,"Ġbarro":7028,"Ġbriz":7029,"Ġingles":7030,"Ġnissan":7031,"tergente":7032,"fia":7033,"Ġflash":7034,"articulacao":7035,"uru":7036,"1501":7037,"Ġipro":7038,"Ġtim":7039,"Ġfria":7040,"glish":7041,"Ġzinco":7042,"pran":7043,"Ġflam":7044,"elope":7045,"Ġsolenoide":7046,"Ġetiqueta":7047,"Ġmitsubishi":7048,"Ġelegance":7049,"Ġmizuno":7050,"065":7051,"cri":7052,"fx":7053,"fes":7054,"the":7055,"Ġ269":7056,"riga":7057,"Ġ635":7058,"Ġbomb":7059,"2002":7060,"2008":7061,"Ġlugares":7062,"Ġbancada":7063,"iogurte":7064,"Ġavulsa":7065,"Ġlorenzetti":7066,"339":7067,"vim":7068,"Ġbip":7069,"paco":7070,"dizio":7071,"Ġspider":7072,"Ġtitanio":7073,"memoria":7074,"azeitona":7075,"Ġremovivel":7076,"hc":7077,"nip":7078,"rx":7079,"vie":7080,"Ġpit":7081,"coleira":7082,"sada":7083,"Ġrech":7084,"Ġhalo":7085,"Ġmarcha":7086,"Ġsoc":7087,"Ġarre":7088,"Ġsubs":7089,"Ġ430000":7090,"Ġposicao":7091,"protecao":7092,"Ġacima":7093,"Ġacetato":7094,"Ġdisponibilidade":7095,"ater":7096,"zu":7097,"Ġreche":7098,"Ġxiaomi":7099,"Ġtrat":7100,"lanc":7101,"oxigenio":7102,"amostra":7103,"iorino":7104,"Ġventi":7105,"Ġsports":7106,"////":7107,"Ġdonana":7108,"Ġfutebol":7109,"Ġpimp":7110,"Ġsle":7111,"Ġslo":7112,"lavel":7113,"tio":7114,"Ġmano":7115,"Ġinfin":7116,"Ġpalmolive":7117,"press":7118,"cachepot":7119,"fras":7120,"ioneiro":7121,"Ġabracadeira":7122,"Ġ042":7123,"667":7124,"Ġlimpa":7125,"Ġsobremesa":7126,"Ġzinc":7127,"Ġphilco":7128,"prano":7129,"case":7130,"Ġkiss":7131,"guica":7132,"Ġanima":7133,"Ġtab":7134,"gena":7135,"Ġciclis":7136,"Ġmochila":7137,"Ġboia":7138,"Ġyellow":7139,"Ġbrother":7140,"rapante":7141,"matizador":7142,"Ġapple":7143,"Ġdouble":7144,"510":7145,"nia":7146,"sho":7147,"Ġaer":7148,"encio":7149,"edredom":7150,"feu":7151,"Ġtrifasico":7152,"diant":7153,"Ġtapete":7154,"666":7155,"tamanhog":7156,"Ġvisor":7157,"Ġpiloto":7158,"Ġcul":7159,"Ġlcd":7160,"Ġ601":7161,"Ġ720":7162,"Ġmot":7163,"786":7164,"eleia":7165,"Ġgrand":7166,"Ġamericana":7167,"travesseiro":7168,"kids":7169,"Ġbv":7170,"Ġfin":7171,"Ġnxr":7172,"emporio":7173,"Ġrodo":7174,"gadeira":7175,"carta":7176,"Ġchino":7177,"493":7178,"utti":7179,"Ġaromas":7180,"Ġvelocidade":7181,"Ġquartzo":7182,"Ġsedan":7183,"vedacao":7184,"Ġacao":7185,"Ġ530":7186,"Ġrossi":7187,"Ġ925":7188,"1008":7189,"Ġtrio":7190,"2005":7191,"Ġprodutos":7192,"Ġfechadura":7193,"Ġmn":7194,"Ġai":7195,"envelope":7196,"lum":7197,"fabri":7198,"coroa":7199,"Ġgraos":7200,"Ġvibra":7201,"flexivel":7202,"Ġperolas":7203,"Ġrayon":7204,"Ġyoki":7205,"eze":7206,"jaleco":7207,"zm":7208,"hav":7209,"ase":7210,"Ġng":7211,"657":7212,"Ġflocos":7213,"crepe":7214,"Ġesportiva":7215,"Ġentrega":7216,"Ġvirabrequim":7217,"Ġcamuflado":7218,"Ġexpansao":7219,"apl":7220,"dt":7221,"spa":7222,"Ġgtx":7223,"Ġlama":7224,"Ġlaise":7225,"Ġrr":7226,"Ġbotina":7227,"forme":7228,"Ġmodeladora":7229,"319":7230,"990":7231,"eo":7232,"frasco":7233,"Ġsnd":7234,"alum":7235,"macho":7236,"2026":7237,"Ġ100000":7238,"tampao":7239,"Ġtamanhop":7240,"print":7241,"Ġbiju":7242,"Ġblend":7243,"Ġlacta":7244,"Ġrexona":7245,"Ġoferta":7246,"324":7247,"kar":7248,"reiro":7249,"moben":7250,"892":7251,"774":7252,"capacitor":7253,"radora":7254,"Ġedp":7255,"Ġbalcao":7256,"Ġleitura":7257,"mn":7258,"qt":7259,"tais":7260,"Ġfes":7261,"Ġsofa":7262,"Ġfaz":7263,"Ġenglish":7264,"Ġchaves":7265,"Ġcalo":7266,"Ġcanudo":7267,"Ġyork":7268,"Ġpasta":7269,"Ġvaza":7270,"Ġgalinha":7271,"Ġpelicula":7272,"Ġdinossauro":7273,"8000":7274,"dz":7275,"linho":7276,"metal":7277,"Ġcava":7278,"Ġ12000":7279,"cir":7280,"Ġmolas":7281,"Ġvert":7282,"velu":7283,"ortela":7284,"Ġzig":7285,"Ġchao":7286,"Ġvitamina":7287,"Ġbujao":7288,"Ġceramico":7289,"ignon":7290,"grip":7291,"uma":7292,"Ġsig":7293,"Ġbum":7294,"Ġpaete":7295,"inais":7296,"Ġabsol":7297,"Ġintegra":7298,"viscose":7299,"Ġinvisivel":7300,"aparador":7301,"vz":7302,"zes":7303,"Ġ236":7304,"Ġ525":7305,"Ġrolete":7306,"Ġmagenta":7307,"ticador":7308,"pass":7309,"Ġfocus":7310,"Ġacrilex":7311,"file":7312,"Ġglu":7313,"Ġtds":7314,"Ġcamba":7315,"pop":7316,"Ġpeda":7317,"tric":7318,"plafon":7319,"Ġpasso":7320,"pisca":7321,"cross":7322,"Ġorganizador":7323,"reais":7324,"Ġregulavel":7325,"Ġchevrolet":7326,"Ġparalelo":7327,"bul":7328,"fen":7329,"gma":7330,"Ġdus":7331,"Ġdim":7332,"Ġjor":7333,"Ġ1050":7334,"Ġmarte":7335,"Ġsatin":7336,"rencia":7337,"trilho":7338,"Ġcolher":7339,"Ġskate":7340,"tella":7341,"Ġquero":7342,"enoura":7343,"palm":7344,"Ġbenefic":7345,"fantasia":7346,"Ġmagnetico":7347,"cardigan":7348,"oes":7349,"Ġ610":7350,"Ġ209":7351,"Ġwin":7352,"Ġtodas":7353,"idado":7354,"renden":7355,"larme":7356,"Ġcurvo":7357,"668":7358,"Ġgraus":7359,"3001":7360,"Ġtorneira":7361,"ach":7362,"Ġmv":7363,"Ġ318":7364,"espuma":7365,"Ġcortin":7366,"ipi":7367,"jetor":7368,"Ġbloque":7369,"Ġusada":7370,"Ġcerveja":7371,"nude":7372,"beta":7373,"cana":7374,"Ġcoun":7375,"Ġved":7376,"sav":7377,"vareta":7378,"Ġlogan":7379,"443":7380,"mingo":7381,"Ġflora":7382,"Ġautomr":7383,"merilha":7384,"Ġtruck":7385,"412":7386,"amento":7387,"dro":7388,"mtex":7389,"Ġretencao":7390,"mae":7391,"idao":7392,"Ġamorte":7393,"Ġtag":7394,"Ġumbro":7395,"Ġsublimado":7396,"Ġhigienico":7397,"Ġciclismo":7398,"660":7399,"ecas":7400,"Ġfris":7401,"Ġ288":7402,"Ġunf":7403,"Ġcaneca":7404,"smartphone":7405,"Ġtexturizado":7406,"Ġalimentacao":7407,"aj":7408,"fel":7409,"rl":7410,"rios":7411,"Ġlou":7412,"Ġ159":7413,"451":7414,"Ġanal":7415,"Ġadm":7416,"853":7417,"oney":7418,"Ġprateado":7419,"Ġnuvem":7420,"Ġbali":7421,"aleia":7422,"Ġinvic":7423,"cabecote":7424,"pimenta":7425,"Ġcest":7426,"Ġaque":7427,"Ġsna":7428,"mah":7429,"Ġ710":7430,"483":7431,"prego":7432,"Ġintermediario":7433,"arandela":7434,"jta":7435,"rf":7436,"sandalias":7437,"Ġlta":7438,"Ġredutor":7439,"idual":7440,"resco":7441,"Ġindiv":7442,"Ġflowers":7443,"ace":7444,"Ġpai":7445,"vara":7446,"Ġconcha":7447,"berry":7448,"tufa":7449,"462":7450,"Ġgray":7451,"Ġmaxim":7452,"Ġtubos":7453,"Ġfast":7454,"Ġcapodarte":7455,"Ġcilindrica":7456,"Ġdiamantada":7457,"osa":7458,"Ġjlastic":7459,"Ġdob":7460,"Ġarr":7461,"geiro":7462,"Ġbela":7463,"442":7464,"652":7465,"2004":7466,"Ġmont":7467,"arame":7468,"Ġaeros":7469,"Ġrustico":7470,"Ġdream":7471,"Ġari":7472,"Ġgn":7473,"Ġlady":7474,"bama":7475,"Ġ154":7476,"893":7477,"Ġzf":7478,"Ġactive":7479,"expositor":7480,"Ġzirc":7481,"Ġplaneta":7482,"bronzina":7483,"Ġraglan":7484,"cente":7485,"iner":7486,"Ġfiv":7487,"sacos":7488,"macarrao":7489,"Ġbook":7490,"1900":7491,"Ġadt":7492,"481":7493,"Ġovos":7494,"desod":7495,"Ġmolekinha":7496,"Ġsenhora":7497,"Ġfranzido":7498,"ficio":7499,"ges":7500,"ptor":7501,"rere":7502,"Ġfati":7503,"manga":7504,"Ġpesada":7505,"gideira":7506,"Ġbarbe":7507,"viva":7508,"Ġesmaltado":7509,"Ġestampas":7510,"540":7511,"fal":7512,"Ġ029":7513,"Ġmorena":7514,"Ġanivers":7515,"441":7516,"787":7517,"Ġgotas":7518,"Ġltda":7519,"Ġpenal":7520,"pulverizador":7521,"Ġfantas":7522,"Ġdrive":7523,"Ġwestern":7524,"iri":7525,"Ġino":7526,"Ġjbs":7527,"Ġtambor":7528,"Ġbasculante":7529,"Ġcalco":7530,"Ġath":7531,"Ġtod":7532,"tania":7533,"sapatos":7534,"Ġjato":7535,"Ġpercal":7536,"Ġcolete":7537,"Ġ032":7538,"range":7539,"Ġescapamento":7540,"bov":7541,"tua":7542,"Ġ1900":7543,"Ġtape":7544,"Ġtranspower":7545,"Ġacai":7546,"grafico":7547,"Ġartesanal":7548,"ovo":7549,"xe":7550,"zy":7551,"coracao":7552,"Ġ227":7553,"anhe":7554,"Ġomega":7555,"Ġ1072":7556,"Ġtrape":7557,"Ġcard":7558,"Ġprt":7559,"formador":7560,"Ġspace":7561,"Ġsociety":7562,"Ġmelancia":7563,"Ġantiderrapante":7564,"411":7565,"sn":7566,"royal":7567,"Ġbir":7568,"Ġln":7569,"Ġ322":7570,"Ġvde":7571,"arco":7572,"Ġ425":7573,"Ġmacaneta":7574,"Ġteclado":7575,"Ġ308":7576,"Ġpolos":7577,"cartela":7578,"967":7579,"isolador":7580,"Ġagro":7581,"siva":7582,"Ġcaminho":7583,"cacarola":7584,"Ġpimpolho":7585,"Ġpush":7586,"cop":7587,"erto":7588,"argola":7589,"saveiro":7590,"Ġ027":7591,"Ġht":7592,"cheira":7593,"Ġbrand":7594,"queeze":7595,"Ġtos":7596,"Ġ169":7597,"556":7598,"Ġfecho":7599,"Ġgranito":7600,"gano":7601,"Ġpesado":7602,"Ġsapatenis":7603,"femea":7604,"tificado":7605,"rever":7606,"tag":7607,"Ġah":7608,"Ġefeito":7609,"Ġ237":7610,"det":7611,"icia":7612,"liqu":7613,"753":7614,"cartao":7615,"Ġmontado":7616,"Ġdiamond":7617,"Ġlinea":7618,"Ġoptico":7619,"ulipa":7620,"Ġescovado":7621,"zn":7622,"titan":7623,"Ġesme":7624,"Ġsobran":7625,"Ġback":7626,"fech":7627,"ffon":7628,"Ġpinca":7629,"ciado":7630,"jero":7631,"celular":7632,"Ġperman":7633,"sementes":7634,"fari":7635,"Ġzebra":7636,"Ġlancamento":7637,"lbs":7638,"teter":7639,"Ġ238":7640,"Ġ121":7641,"Ġfactor":7642,"653":7643,"762":7644,"sapata":7645,"Ġgeo":7646,"capinha":7647,"Ġterracota":7648,"Ġsupreme":7649,"rp":7650,"Ġmh":7651,"estampa":7652,"558":7653,"rugem":7654,"Ġcruzeta":7655,"Ġfendi":7656,"Ġdl":7657,"rot":7658,"Ġcob":7659,"Ġnano":7660,"Ġnight":7661,"Ġpapete":7662,"usse":7663,"Ġrotor":7664,"luz":7665,"1250":7666,"Ġlea":7667,"Ġamaz":7668,"979":7669,"garina":7670,"Ġwalk":7671,"kl":7672,"spot":7673,"Ġcps":7674,"Ġpeta":7675,"Ġ234":7676,"ons":7677,"Ġ411":7678,"veteiro":7679,"peito":7680,"Ġanjo":7681,"versal":7682,"tuario":7683,"461":7684,"antha":7685,"tempero":7686,"combo":7687,"036":7688,"acr":7689,"jc":7690,"corante":7691,"bojo":7692,"Ġteles":7693,"ticolor":7694,"Ġinflavel":7695,"tsal":7696,"bujao":7697,"Ġ381":7698,"431":7699,"694":7700,"Ġdiag":7701,"09100":7702,"Ġcruzada":7703,"Ġhyper":7704,"Ġamarrar":7705,"Ġfarm":7706,"Ġtranspassado":7707,"Ġcedro":7708,"resistencia":7709,"mante":7710,"Ġesg":7711,"Ġ5500":7712,"Ġcorru":7713,"Ġsoprano":7714,"Ġtrabal":7715,"Ġ196":7716,"Ġcapacidade":7717,"Ġpalmilha":7718,"merilhadeira":7719,"cps":7720,"Ġlive":7721,"ella":7722,"Ġ912":7723,"note":7724,"3900":7725,"Ġjade":7726,"Ġroll":7727,"Ġhydra":7728,"Ġmelissa":7729,"Ġsoutde":7730,"Ġbalance":7731,"Ġaveia":7732,"mus":7733,"Ġfb":7734,"Ġ2201":7735,"Ġ2101":7736,"isol":7737,"pado":7738,"Ġlaste":7739,"Ġdifusor":7740,"Ġbolas":7741,"Ġ000001":7742,"Ġamanco":7743,"Ġchoco":7744,"Ġsanto":7745,"ystal":7746,"dispositivo":7747,"Ġabstrato":7748,"Ġarara":7749,"328":7750,"dvd":7751,"mun":7752,"milho":7753,"redutor":7754,"ted":7755,"cober":7756,"Ġcoqueiro":7757,"magne":7758,"Ġsubl":7759,"Ġhatch":7760,"Ġveicu":7761,"Ġmetalizada":7762,"esferas":7763,"ibro":7764,"jur":7765,"Ġbsc":7766,"escada":7767,"maii":7768,"Ġpato":7769,"779":7770,"Ġtudo":7771,"Ġquadri":7772,"Ġespess":7773,"gila":7774,"Ġfco":7775,"Ġ344":7776,"Ġcort":7777,"Ġdois":7778,"Ġalgo":7779,"751":7780,"Ġtrigo":7781,"tricoline":7782,"Ġcali":7783,"Ġcapinha":7784,"manopla":7785,"ting":7786,"havaianas":7787,"Ġrcc":7788,"urada":7789,"camisete":7790,"2003":7791,"482":7792,"957":7793,"marcador":7794,"Ġtuba":7795,"Ġcalcado":7796,"Ġhidratacao":7797,"Ġoutros":7798,"ferencia":7799,"Ġcitroen":7800,"Ġbrizantha":7801,"Ġcortininha":7802,"nus":7803,"Ġdk":7804,"Ġlos":7805,"Ġ435":7806,"univ":7807,"icarb":7808,"quebra":7809,"Ġbailarina":7810,"Ġori":7811,"Ġorma":7812,"Ġshell":7813,"968":7814,"Ġdente":7815,"Ġcrv":7816,"Ġsorvete":7817,"banqueta":7818,"Ġfutsal":7819,"lenco":7820,"Ġgiratorio":7821,"Ġacet":7822,"Ġcirculo":7823,"antena":7824,"Ġgon":7825,"Ġmaci":7826,"chic":7827,"Ġalcal":7828,"Ġboi":7829,"lips":7830,"Ġtic":7831,"mance":7832,"956":7833,"Ġ78960":7834,"Ġlactea":7835,"Ġnossa":7836,"Ġpronto":7837,"Ġ098700":7838,"barbante":7839,"xica":7840,"ye":7841,"Ġsto":7842,"Ġdoces":7843,"1004":7844,"Ġcartucho":7845,"Ġlegu":7846,"557":7847,"maleta":7848,"nrped":7849,"Ġfechada":7850,"iii":7851,"Ġmagnetica":7852,"hr":7853,"Ġtpa":7854,"Ġrei":7855,"1620":7856,"Ġgaro":7857,"954":7858,"Ġgrao":7859,"Ġtranslu":7860,"Ġvazada":7861,"Ġ2102":7862,"Ġfrontier":7863,"Ġpneumatico":7864,"530":7865,"Ġfn":7866,"Ġee":7867,"ilia":7868,"851":7869,"852":7870,"0106":7871,"Ġcombustr":7872,"Ġmuito":7873,"Ġrotativo":7874,"1378929":7875,"Ġcountry":7876,"Ġlastex":7877,"flon":7878,"plo":7879,"pinhao":7880,"Ġsos":7881,"Ġfralda":7882,"4039":7883,"Ġconc":7884,"Ġtodo":7885,"Ġtoma":7886,"itec":7887,"Ġborr":7888,"972":7889,"679":7890,"brinq":7891,"Ġmila":7892,"Ġorganizadora":7893,"selfcolor":7894,"sf":7895,"sha":7896,"Ġvid":7897,"Ġesteira":7898,"Ġ570":7899,"Ġink":7900,"lite":7901,"651":7902,"Ġbolinhas":7903,"584":7904,"mont":7905,"Ġgerador":7906,"mpom":7907,"plastico":7908,"Ġespessura":7909,"mine":7910,"dog":7911,"Ġcaia":7912,"gote":7913,"bado":7914,"idrato":7915,"1003":7916,"Ġ166":7917,"Ġextreme":7918,"Ġliz":7919,"Ġquant":7920,"Ġcria":7921,"Ġwood":7922,"Ġbusto":7923,"027":7924,"Ġmira":7925,"Ġbw":7926,"elem":7927,"ilu":7928,"etante":7929,"chip":7930,"Ġtek":7931,"Ġargo":7932,"559":7933,"Ġexe":7934,"Ġmedley":7935,"Ġ0500":7936,"Ġcrf":7937,"Ġporto":7938,"Ġiden":7939,"Ġamendoim":7940,"agenda":7941,"zin":7942,"Ġscar":7943,"Ġbre":7944,"Ġegg":7945,"Ġtrend":7946,"Ġlamb":7947,"Ġcontro":7948,"Ġnov":7949,"Ġsplit":7950,"Ġoffice":7951,"ineta":7952,"Ġ323":7953,"Ġ415":7954,"boa":7955,"mosa":7956,"guer":7957,"Ġbalanca":7958,"Ġforum":7959,"pct":7960,"Ġpure":7961,"cruzeta":7962,"Ġsobrancel":7963,"338":7964,"zida":7965,"Ġpant":7966,"Ġade":7967,"any":7968,"Ġpaco":7969,"Ġhl":7970,"Ġ9000":7971,"Ġmade":7972,"Ġmov":7973,"iveis":7974,"terias":7975,"Ġprincess":7976,"Ġadvanced":7977,"dim":7978,"Ġviv":7979,"Ġhortela":7980,"mex":7981,"graxa":7982,"684":7983,"Ġmaleta":7984,"feminino":7985,"Ġtermostatica":7986,"fabric":7987,"Ġico":7988,"camb":7989,"Ġ412":7990,"Ġredu":7991,"Ġoh":7992,"Ġcaju":7993,"Ġsav":7994,"752":7995,"voyage":7996,"Ġforrada":7997,"887":7998,"cest":7999,"cesso":8000,"Ġescort":8001,"794":8002,"vase":8003,"rella":8004,"Ġchiffon":8005,"Ġemborrachado":8006,"Ġvelocimetro":8007,"gh":8008,"los":8009,"Ġabri":8010,"Ġcaveira":8011,"Ġmarmore":8012,"891":8013,"Ġencan":8014,"Ġ45003":8015,"Ġescura":8016,"Ġfabricacao":8017,"of":8018,"Ġagra":8019,"rolete":8020,"Ġesfer":8021,"imono":8022,"Ġconven":8023,"3500":8024,"Ġact":8025,"rasqueira":8026,"Ġviga":8027,"Ġpascoa":8028,"thi":8029,"Ġflamingo":8030,"Ġisopor":8031,"Ġlavatorio":8032,"Ġinsta":8033,"benefic":8034,"Ġluminaria":8035,"Ġpassar":8036,"furadeira":8037,"encioso":8038,"rendene":8039,"034":8040,"Ġther":8041,"Ġrepa":8042,"Ġcao":8043,"Ġescol":8044,"Ġkw":8045,"mocassim":8046,"2014":8047,"Ġvolts":8048,"Ġstart":8049,"Ġchef":8050,"Ġhello":8051,"sueter":8052,"air":8053,"dal":8054,"igo":8055,"Ġvk":8056,"Ġtranca":8057,"Ġ801":8058,"Ġarg":8059,"talha":8060,"471":8061,"Ġtransversal":8062,"Ġimpressao":8063,"Ġesporte":8064,"boneco":8065,"estofado":8066,"ute":8067,"Ġderi":8068,"Ġlia":8069,"Ġ324":8070,"arte":8071,"ich":8072,"1006":8073,"Ġnoel":8074,"781":8075,"Ġimpbc":8076,"Ġjack":8077,"Ġdelica":8078,"Ġimperial":8079,"Ġcavalera":8080,"Ġfrancesa":8081,"Ġpuxador":8082,"Ġepson":8083,"Ġnseries":8084,"Ġesmeralda":8085,"038":8086,"gers":8087,"mule":8088,"Ġmj":8089,"oni":8090,"char":8091,"Ġemenda":8092,"Ġalma":8093,"Ġrain":8094,"Ġmeias":8095,"Ġbee":8096,"Ġzip":8097,"Ġextensao":8098,"force":8099,"trong":8100,"Ġbandei":8101,"Ġanimais":8102,"415":8103,"nb":8104,"Ġavelu":8105,"Ġbut":8106,"Ġeb":8107,"guardanapo":8108,"tudo":8109,"Ġimport":8110,"bordado":8111,"Ġquadra":8112,"Ġlittle":8113,"Ġshow":8114,"areia":8115,"pj":8116,"vira":8117,"Ġsds":8118,"ergen":8119,"Ġ317":8120,"Ġvv":8121,"Ġcater":8122,"Ġpau":8123,"bow":8124,"Ġrod":8125,"3072":8126,"1113":8127,"traseiro":8128,"peti":8129,"Ġbopp":8130,"Ġazaleia":8131,"volante":8132,"552":8133,"Ġqua":8134,"761":8135,"celta":8136,"Ġducato":8137,"Ġrollon":8138,"galine":8139,"Ġconsul":8140,"Ġimportada":8141,"Ġbmw":8142,"natural":8143,"Ġpermanente":8144,"rk":8145,"Ġacido":8146,"Ġ0200":8147,"locao":8148,"chem":8149,"1007":8150,"3600":8151,"Ġpasse":8152,"Ġturbina":8153,"Ġpromocional":8154,"Ġaniversario":8155,"470":8156,"anda":8157,"Ġcoxa":8158,"esca":8159,"Ġtutti":8160,"Ġroxa":8161,"Ġcorrosa":8162,"Ġsafari":8163,"Ġarmario":8164,"Ġenx":8165,"Ġexg":8166,"Ġ192":8167,"952":8168,"anato":8169,"771":8170,"Ġasus":8171,"Ġcrystal":8172,"Ġsandero":8173,"Ġrendado":8174,"Ġturma":8175,"Ġvision":8176,"kins":8177,"zal":8178,"Ġstop":8179,"Ġcour":8180,"pap":8181,"Ġxs":8182,"1201":8183,"vedador":8184,"2300":8185,"Ġ194":8186,"Ġmodal":8187,"Ġgrampo":8188,"Ġprd":8189,"mascul":8190,"banco":8191,"Ġabnt":8192,"Ġfluxo":8193,"Ġromance":8194,"prisma":8195,"Ġpura":8196,"cox":8197,"Ġevan":8198,"Ġdese":8199,"tivas":8200,"ondas":8201,"Ġhw":8202,"Ġ1080":8203,"Ġtour":8204,"6500":8205,"forno":8206,"Ġporc":8207,"molde":8208,"Ġtexto":8209,"freio":8210,"Ġswitch":8211,"Ġcavalo":8212,"intetico":8213,"Ġbatman":8214,"fronha":8215,"625":8216,"fci":8217,"work":8218,"Ġcza":8219,"Ġpva":8220,"Ġlun":8221,"Ġopala":8222,"Ġ590":8223,"Ġhard":8224,"ivete":8225,"Ġ0100":8226,"fee":8227,"Ġchan":8228,"Ġlubrax":8229,"Ġtrancada":8230,"Ġameixa":8231,"Ġambiente":8232,"ght":8233,"pac":8234,"Ġkm":8235,"Ġmacia":8236,"Ġmargar":8237,"liq":8238,"processador":8239,"783":8240,"serie":8241,"Ġtorre":8242,"Ġfechamento":8243,"Ġinstan":8244,"Ġraspa":8245,"dp":8246,"mita":8247,"sr":8248,"zil":8249,"Ġvb":8250,"Ġjol":8251,"Ġalim":8252,"lilas":8253,"Ġbei":8254,"castan":8255,"Ġcolon":8256,"686":8257,"Ġautomatica":8258,"Ġdens":8259,"Ġdecorado":8260,"break":8261,"Ġautor":8262,"Ġferragem":8263,"Ġeduca":8264,"Ġcustom":8265,"Ġresolucao":8266,"Ġfedr":8267,"Ġ037":8268,"Ġ088":8269,"urus":8270,"mist":8271,"Ġsacola":8272,"Ġ3500":8273,"rolesferas":8274,"Ġimei":8275,"zzi":8276,"422":8277,"adeira":8278,"Ġsic":8279,"Ġdeo":8280,"estri":8281,"Ġjumbo":8282,"vaca":8283,"Ġring":8284,"neo":8285,"Ġvaltra":8286,"carga":8287,"ducco":8288,"Ġedt":8289,"Ġbello":8290,"Ġpersona":8291,"Ġblock":8292,"Ġmaquineta":8293,"eziana":8294,"Ġbica":8295,"Ġtun":8296,"Ġopera":8297,"Ġ560":8298,"Ġpaul":8299,"Ġargan":8300,"Ġbala":8301,"alhao":8302,"Ġbub":8303,"bile":8304,"Ġsist":8305,"Ġguarana":8306,"Ġmemoria":8307,"950":8308,"Ġclar":8309,"Ġdg":8310,"rec":8311,"Ġsj":8312,"comb":8313,"esus":8314,"Ġnl":8315,"Ġ046":8316,"Ġrole":8317,"Ġ1022":8318,"Ġconv":8319,"Ġ307":8320,"Ġpetit":8321,"Ġseparador":8322,"trifu":8323,"Ġtime":8324,"bolinha":8325,"Ġjoelho":8326,"sual":8327,"Ġmormaii":8328,"Ġembutido":8329,"Ġmoderno":8330,"Ġinicial":8331,"570":8332,"850":8333,"sy":8334,"uari":8335,"cadeado":8336,"taru":8337,"ides":8338,"Ġarran":8339,"Ġmandio":8340,"geo":8341,"iton":8342,"661":8343,"Ġamazon":8344,"984":8345,"Ġpistola":8346,"boneteira":8347,"semi":8348,"chiaria":8349,"Ġbritania":8350,"Ġfundido":8351,"comedouro":8352,"Ġindividual":8353,"Ġmonte":8354,"Ġ239":8355,"ercing":8356,"Ġ490":8357,"Ġrecon":8358,"Ġhen":8359,"Ġholo":8360,"Ġ153":8361,"Ġmarvel":8362,"Ġlipreto":8363,"Ġ176":8364,"782":8365,"Ġspin":8366,"Ġcolchao":8367,"Ġ0900":8368,"Ġhelico":8369,"icarbonato":8370,"pina":8371,"Ġ473":8372,"usos":8373,"Ġkol":8374,"5500":8375,"itano":8376,"Ġpista":8377,"csia":8378,"Ġarabes":8379,"formula":8380,"tificacao":8381,"Ġvirgem":8382,"gno":8383,"hns":8384,"kes":8385,"Ġmili":8386,"Ġok":8387,"1220":8388,"cms":8389,"ander":8390,"promo":8391,"463":8392,"953":8393,"4300":8394,"Ġpipoca":8395,"Ġredmi":8396,"Ġnitrilica":8397,"Ġpante":8398,"trio":8399,"472":8400,"grax":8401,"Ġskn":8402,"nylon":8403,"Ġolhal":8404,"Ġtransporte":8405,"acopla":8406,"Ġ267":8407,"Ġhem":8408,"Ġ952":8409,"umb":8410,"Ġsuccao":8411,"Ġmodular":8412,"Ġcolg":8413,"Ġtamanhogg":8414,"jeto":8415,"Ġedge":8416,"Ġqtdm":8417,"pirul":8418,"Ġpickup":8419,"Ġbq":8420,"Ġbull":8421,"Ġjer":8422,"queijao":8423,"Ġencolh":8424,"Ġforno":8425,"izados":8426,"Ġprat":8427,"Ġgood":8428,"ette":8429,"Ġmicrofone":8430,"Ġferrugem":8431,"ficacao":8432,"Ġprensa":8433,"Ġkenner":8434,"comoda":8435,"hone":8436,"nis":8437,"Ġ515":8438,"selador":8439,"Ġnapoli":8440,"Ġ164":8441,"Ġplasutil":8442,"2006":8443,"mbur":8444,"Ġpartes":8445,"Ġpants":8446,"Ġpequen":8447,"Ġfase":8448,"Ġclip":8449,"forminha":8450,"zza":8451,"roid":8452,"Ġdegra":8453,"mmy":8454,"Ġku":8455,"peca":8456,"nat":8457,"Ġsagra":8458,"Ġ010000":8459,"Ġadv":8460,"Ġ50000":8461,"687":8462,"0105":8463,"long":8464,"Ġbisnaga":8465,"Ġanalogico":8466,"notebook":8467,"eu":8468,"ece":8469,"nit":8470,"spe":8471,"tadeira":8472,"Ġaisi":8473,"Ġepoxi":8474,"Ġevase":8475,"Ġdemo":8476,"Ġcoelho":8477,"chur":8478,"cionamento":8479,"Ġteci":8480,"Ġ162":8481,"491":8482,"psi":8483,"Ġpent":8484,"326":8485,"ear":8486,"gx":8487,"pru":8488,"radio":8489,"Ġativa":8490,"lagem":8491,"Ġcortical":8492,"chimento":8493,"Ġembr":8494,"Ġarma":8495,"Ġ184":8496,"Ġ186":8497,"fac":8498,"Ġenf":8499,"corr":8500,"492":8501,"881":8502,"porc":8503,"Ġtork":8504,"Ġmalbec":8505,"Ġpendente":8506,"Ġvisc":8507,"Ġchiclete":8508,"Ġcongelado":8509,"Ġideal":8510,"580":8511,"tz":8512,"inz":8513,"ely":8514,"Ġ055":8515,"Ġcaix":8516,"Ġescap":8517,"Ġhus":8518,"Ġcondic":8519,"Ġ00001":8520,"itech":8521,"verm":8522,"4001":8523,"creen":8524,"trena":8525,"Ġadesivos":8526,"Ġphillips":8527,"Ġhistoria":8528,"cn":8529,"fy":8530,"neta":8531,"wi":8532,"Ġcenoura":8533,"rib":8534,"Ġdoblo":8535,"Ġ405":8536,"Ġcolcha":8537,"ciais":8538,"Ġtamanhos":8539,"Ġpuidos":8540,"ficado":8541,"Ġolhos":8542,"helice":8543,"Ġguipir":8544,"lr":8545,"caval":8546,"Ġcaip":8547,"buche":8548,"Ġtabua":8549,"987":8550,"Ġcereais":8551,"etker":8552,"Ġinjetora":8553,"Ġrefrige":8554,"amendoim":8555,"336":8556,"334":8557,"dge":8558,"0015":8559,"Ġafa":8560,"dola":8561,"Ġtuss":8562,"Ġ048":8563,"boy":8564,"Ġlotus":8565,"lie":8566,"Ġanton":8567,"Ġchin":8568,"Ġplastilit":8569,"ingle":8570,"Ġzi":8571,"Ġ366":8572,"Ġplacas":8573,"Ġroscada":8574,"Ġ7909":8575,"Ġcitrus":8576,"Ġdrape":8577,"Ġrotativa":8578,"Ġinstrumentos":8579,"ets":8580,"oring":8581,"gota":8582,"Ġaliv":8583,"Ġsafira":8584,"Ġstu":8585,"Ġinfo":8586,"2101":8587,"prov":8588,"Ġtaupe":8589,"clean":8590,"Ġaquarela":8591,"Ġchampanhe":8592,"corredor":8593,"Ġsantista":8594,"Ġpasseio":8595,"acido":8596,"apoio":8597,"refor":8598,"Ġgio":8599,"lot":8600,"Ġidea":8601,"Ġtel":8602,"Ġsemente":8603,"Ġ179":8604,"Ġfloater":8605,"venda":8606,"estrutura":8607,"Ġpresilha":8608,"Ġcuba":8609,"paleta":8610,"Ġcruze":8611,"centro":8612,"Ġfluido":8613,"bella":8614,"Ġbronzina":8615,"Ġweek":8616,"Ġrasteiro":8617,"skinny":8618,"Ġlegumes":8619,"sv":8620,"Ġdum":8621,"Ġ311":8622,"Ġ313":8623,"Ġrodio":8624,"Ġlamp":8625,"Ġalianca":8626,"Ġlev":8627,"Ġliane":8628,"Ġmontada":8629,"Ġsanitaria":8630,"matizante":8631,"Ġgalvanizada":8632,"lavadora":8633,"Ġbauducco":8634,"Ġconserva":8635,"roupeiro":8636,"lv":8637,"rama":8638,"Ġtha":8639,"Ġtulipa":8640,"Ġmaos":8641,"951":8642,"961":8643,"std":8644,"Ġbieleta":8645,"Ġsenado":8646,"Ġbovrep":8647,"medidor":8648,"Ġvariados":8649,"Ġreceitu":8650,"cq":8651,"crim":8652,"xp":8653,"onu":8654,"back":8655,"Ġwd":8656,"Ġnav":8657,"life":8658,"2007":8659,"ados":8660,"mbs":8661,"Ġamamentacao":8662,"puff":8663,"clips":8664,"quipa":8665,"ologia":8666,"Ġciganinha":8667,"Ġligacao":8668,"frigideira":8669,"prendedor":8670,"niple":8671,"Ġbumbum":8672,"Ġexecu":8673,"329":8674,"aus":8675,"fur":8676,"Ãº":8677,"catraca":8678,"Ġsmo":8679,"Ġflip":8680,"Ġreten":8681,"leo":8682,"chupeta":8683,"peira":8684,"Ġsaca":8685,"Ġsoul":8686,"1009":8687,"tancia":8688,"Ġord":8689,"Ġgala":8690,"Ġclin":8691,"tamanhogg":8692,"Ġwega":8693,"Ġrenata":8694,"pillar":8695,"Ġsteel":8696,"Ġflyer":8697,"Ġpocket":8698,"bebedouro":8699,"Ġarticulado":8700,"frasl":8701,"beneficiamento":8702,"512":8703,"Ġfram":8704,"Ġreti":8705,"Ġcorr":8706,"ciante":8707,"meio":8708,"Ġbocal":8709,"Ġcontem":8710,"Ġlegi":8711,"martelo":8712,"caminhao":8713,"Ġmusical":8714,"Ġhib":8715,"Ġpneumatica":8716,"Ġwhisky":8717,"Ġliberty":8718,"Ġaparecida":8719,"Ġcarolina":8720,"Ġdvd":8721,"Ġcostela":8722,"Ġvest":8723,"Ġglass":8724,"rantia":8725,"Ġhg":8726,"Ġconica":8727,"Ġfak":8728,"Ġmontaria":8729,"Ġceu":8730,"Ġatlan":8731,"Ġssd":8732,"cabeca":8733,"divis":8734,"Ġrebite":8735,"Ġtravesseiro":8736,"413":8737,"cicleta":8738,"rr":8739,"Ġcpl":8740,"Ġbh":8741,"pacote":8742,"Ġrevest":8743,"ulsor":8744,"Ġpatr":8745,"imbo":8746,"luvas":8747,"conden":8748,"Ġ507":8749,"Ġcalvin":8750,"Ġvao":8751,"Ġquebra":8752,"Ġlocaliz":8753,"Ġdrink":8754,"Ġstilo":8755,"Ġperoba":8756,"Ġcambara":8757,"masculino":8758,"Ġmsc":8759,"tala":8760,"Ġfig":8761,"Ġflan":8762,"Ġorange":8763,"Ġpajero":8764,"Ġinsp":8765,"Ġjesus":8766,"Ġcondr":8767,"sobre":8768,"Ġliss":8769,"Ġantis":8770,"551":8771,"dium":8772,"Ġvei":8773,"Ġfreijo":8774,"671":8775,"Ġvital":8776,"Ġtube":8777,"Ġjapon":8778,"Ġblackout":8779,"glitter":8780,"Ġcrav":8781,"Ġveneza":8782,"980":8783,"ub":8784,"whey":8785,"Ġatuador":8786,"Ġfon":8787,"Ġgrendene":8788,"Ġ476":8789,"bomb":8790,"Ġrotacao":8791,"gadeiro":8792,"ressa":8793,"Ġproced":8794,"2600":8795,"cell":8796,"Ġmaxx":8797,"Ġ1998":8798,"Ġzincada":8799,"free":8800,"Ġprincesas":8801,"Ġdesfiada":8802,"041":8803,"cit":8804,"honda":8805,"kwp":8806,"sch":8807,"oro":8808,"Ġvitor":8809,"Ġnx":8810,"Ġroad":8811,"Ġkyo":8812,"Ġmati":8813,"Ġtamp":8814,"10001":8815,"Ġgabriela":8816,"Ġqd":8817,"Ġtay":8818,"663":8819,"982":8820,"Ġbold":8821,"Ġgrupo":8822,"fertilizante":8823,"Ġmilk":8824,"produto":8825,"Ġwars":8826,"Ġcoruja":8827,"424":8828,"711":8829,"iba":8830,"uts":8831,"Ġalarme":8832,"ast":8833,"randa":8834,"Ġ5242":8835,"Ġ625":8836,"Ġtempo":8837,"umes":8838,"Ġ143":8839,"itao":8840,"Ġpratos":8841,"Ġplatin":8842,"Ġfogao":8843,"Ġjunco":8844,"Ġrapida":8845,"Ġimpala":8846,"Ġworld":8847,"Ġresistente":8848,"Ġesponja":8849,"abrac":8850,"py":8851,"ubo":8852,"Ġcimento":8853,"Ġfone":8854,"Ġlj":8855,"tigela":8856,"padas":8857,"1050":8858,"Ġpatri":8859,"Ġ142":8860,"Ġacer":8861,"Ġsuino":8862,"cast":8863,"Ġelefante":8864,"Ġpratica":8865,"0108":8866,"Ġdecorada":8867,"Ġbroch":8868,"boxer":8869,"Ġsombra":8870,"Ġacion":8871,"Ġintenso":8872,"103026":8873,"cookies":8874,"485":8875,"560":8876,"515":8877,"dÃ£o":8878,"mir":8879,"nal":8880,"nica":8881,"Ġaaa":8882,"Ġdeus":8883,"arl":8884,"Ġhm":8885,"vadeira":8886,"mox":8887,"Ġnau":8888,"Ġletter":8889,"Ġamd":8890,"trix":8891,"casual":8892,"Ġcanhao":8893,"Ġmonitor":8894,"0102":8895,"Ġberm":8896,"Ġvent":8897,"Ġwafer":8898,"itarra":8899,"Ġtwist":8900,"Ġtreino":8901,"Ġbulbo":8902,"Ġevangel":8903,"Ġmandioca":8904,"414":8905,"banho":8906,"piro":8907,"Ġbid":8908,"estante":8909,"Ġlacre":8910,"Ġria":8911,"chio":8912,"Ġbruto":8913,"Ġbeg":8914,"2009":8915,"Ġcmt":8916,"Ġviber":8917,"Ġviena":8918,"Ġpalmeira":8919,"586":8920,"Ġtorn":8921,"Ġsprinter":8922,"Ġbatata":8923,"Ġhavana":8924,"Ġreceituario":8925,"044":8926,"dina":8927,"gn":8928,"vid":8929,"rodizio":8930,"unto":8931,"Ġpatim":8932,"vectra":8933,"Ġmasca":8934,"ige":8935,"Ġletras":8936,"Ġcxa":8937,"Ġcroche":8938,"Ġaudio":8939,"Ġtalheres":8940,"Ġmia":8941,"ticida":8942,"Ġnivela":8943,"Ġoficio":8944,"leito":8945,"Ġhea":8946,"Ġchil":8947,"Ġcompr":8948,"Ġgam":8949,"Ġvermelhas":8950,"duzido":8951,"Ġimpressora":8952,"Ġvaca":8953,"Ġbarcel":8954,"Ġautomove":8955,"Ġarame":8956,"Ġretang":8957,"Ġcravo":8958,"Ġfloresta":8959,"nor":8960,"vnz":8961,"Ġort":8962,"tass":8963,"Ġmarch":8964,"Ġchro":8965,"Ġcastelo":8966,"Ġduplex":8967,"Ġprotex":8968,"Ġperna":8969,"Ġvoce":8970,"Ġfelpu":8971,"Ġresinado":8972,"Ġpassante":8973,"prisioneiro":8974,"820":8975,"ob":8976,"ved":8977,"Ġdeep":8978,"ulete":8979,"pecas":8980,"Ġ505":8981,"763":8982,"Ġsusten":8983,"Ġducha":8984,"Ġcbx":8985,"Ġfluo":8986,"Ġcompose":8987,"Ġgiga":8988,"Ġholland":8989,"Ġcomprimidos":8990,"Ġhalogena":8991,"029":8992,"gli":8993,"guru":8994,"lx":8995,"Ġping":8996,"Ġtho":8997,"Ġmacio":8998,"Ġfaber":8999,"Ġfalante":9000,"Ġcebola":9001,"974":9002,"thy":9003,"refresco":9004,"Ġblind":9005,"Ġmagico":9006,"Ġbovina":9007,"mpeador":9008,"Ġfeliz":9009,"Ġreforco":9010,"Ġlenco":9011,"Ġintelig":9012,"primer":9013,"ciclo":9014,"Ġaerosol":9015,"anzol":9016,"dak":9017,"arvore":9018,"Ġ414":9019,"Ġ455":9020,"Ġreboque":9021,"Ġina":9022,"Ġmaes":9023,"Ġlug":9024,"Ġmulticolor":9025,"stella":9026,"film":9027,"Ġcoffee":9028,"Ġgirassol":9029,"Ġmecanica":9030,"Ġestrelas":9031,"Ġcollection":9032,"Ġescolha":9033,"6100":9034,"fin":9035,"oral":9036,"Ġdun":9037,"enx":9038,"dez":9039,"icer":9040,"Ġjns":9041,"1112":9042,"Ġibama":9043,"mora":9044,"Ġmass":9045,"Ġconstru":9046,"Ġ187":9047,"voy":9048,"diante":9049,"Ġcint":9050,"00000000":9051,"Ġkglote":9052,"Ġ2260":9053,"Ġhour":9054,"Ġ78999":9055,"Ġvarao":9056,"Ġbipolar":9057,"ext":9058,"transformador":9059,"Ġfarma":9060,"eletroduto":9061,"Ġcivil":9062,"426":9063,"kp":9064,"Ġpinho":9065,"Ġpmg":9066,"Ġpsi":9067,"Ġvn":9068,"Ġvio":9069,"esmerilhadeira":9070,"Ġod":9071,"Ġpata":9072,"gaveta":9073,"imano":9074,"trofeu":9075,"Ġveir":9076,"master":9077,"bordo":9078,"Ġosci":9079,"Ġpanda":9080,"tamanhop":9081,"Ġponzan":9082,"Ġ338":9083,"Ġ701":9084,"Ġjbl":9085,"Ġmarmor":9086,"Ġterere":9087,"faz":9088,"Ġ177":9089,"886":9090,"Ġgode":9091,"Ġpuff":9092,"Ġagile":9093,"Ġtanino":9094,"nspa":9095,"Ġ1999":9096,"Ġpunto":9097,"Ġtranspasse":9098,"Ġsaude":9099,"acessorio":9100,"810":9101,"Ġilha":9102,"Ġpris":9103,"0020":9104,"Ġfro":9105,"album":9106,"Ġ328":9107,"Ġ079":9108,"Ġalc":9109,"Ġlocao":9110,"seve":9111,"chassis":9112,"Ġocp":9113,"Ġracao":9114,"Ġ200000":9115,"Ġfame":9116,"gria":9117,"Ġcxc":9118,"plataforma":9119,"962":9120,"Ġperkins":9121,"modelo":9122,"Ġvrm":9123,"Ġcouche":9124,"Ġcolonial":9125,"lina":9126,"Ġ314":9127,"Ġ413":9128,"Ġ085":9129,"Ġlabial":9130,"Ġmogno":9131,"Ġiq":9132,"Ġfag":9133,"Ġpow":9134,"Ġamig":9135,"desc":9136,"884":9137,"0103":9138,"Ġroscado":9139,"Ġsanitario":9140,"Ġperfor":9141,"Ġmistura":9142,"Ġmadri":9143,"Ġevapo":9144,"cultura":9145,"colecao":9146,"Ġconvencional":9147,"cular":9148,"glo":9149,"Ġpho":9150,"detergente":9151,"Ġlap":9152,"verado":9153,"Ġ00000":9154,"Ġ189":9155,"Ġbastao":9156,"Ġvalmet":9157,"Ġortop":9158,"4600":9159,"Ġpintada":9160,"Ġjohns":9161,"Ġonda":9162,"amort":9163,"Ġveicul":9164,"Ġagul":9165,"Ġinteiro":9166,"Ġkings":9167,"janela":9168,"Ġ517000":9169,"Ġportugues":9170,"cateter":9171,"Ġcortador":9172,"contro":9173,"umar":9174,"Ġbate":9175,"Ġrato":9176,"Ġsecador":9177,"geador":9178,"991":9179,"Ġ247":9180,"heita":9181,"tins":9182,"Ġcosme":9183,"Ġprotect":9184,"Ġ79097":9185,"Ġcamara":9186,"Ġstanley":9187,"Ġbisc":9188,"Ġnorton":9189,"Ġfiscal":9190,"rapia":9191,"Ġpentear":9192,"Ġacoplamento":9193,"321":9194,"435":9195,"dk":9196,"Ġdetox":9197,"Ġoft":9198,"Ġjj":9199,"mistura":9200,"Ġwhe":9201,"Ġsty":9202,"Ġfaces":9203,"Ġbeijo":9204,"jou":9205,"Ġenvel":9206,"ionese":9207,"0104":9208,"brosa":9209,"Ġbroca":9210,"central":9211,"Ġlavar":9212,"Ġxtz":9213,"Ġartesanato":9214,"Ġcooler":9215,"Ġglobo":9216,"Ġcrianca":9217,"910":9218,"912":9219,"fj":9220,"hid":9221,"ipa":9222,"pur":9223,"sin":9224,"capu":9225,"Ġselo":9226,"Ġ326":9227,"astra":9228,"ulder":9229,"rificador":9230,"Ġ047":9231,"Ġpred":9232,"Ġprem":9233,"Ġ895":9234,"Ġkle":9235,"Ġjf":9236,"Ġalp":9237,"Ġazm":9238,"Ġwk":9239,"Ġrack":9240,"liga":9241,"Ġinfan":9242,"Ġnot":9243,"Ġcurvim":9244,"Ġ1101":9245,"Ġbanda":9246,"Ġfiltr":9247,"Ġisolado":9248,"Ġsispass":9249,"Ġharmon":9250,"Ġcirurgico":9251,"Ġprancha":9252,"gelo":9253,"Ġcalha":9254,"tapa":9255,"tirante":9256,"Ġ339":9257,"Ġtk":9258,"Ġ512":9259,"Ġ955":9260,"Ġmam":9261,"Ġpets":9262,"ĠpeÃ§as":9263,"Ġ246":9264,"ionador":9265,"canaleta":9266,"683":9267,"791":9268,"Ġ2750":9269,"busto":9270,"Ġtroca":9271,"microfone":9272,"Ġdragao":9273,"Ġspaal":9274,"Ġmarilan":9275,"048":9276,"417":9277,"877":9278,"geleia":9279,"kb":9280,"samsung":9281,"Ġesfol":9282,"Ġhx":9283,"Ġ978":9284,"Ġ151":9285,"Ġcarros":9286,"Ġmanda":9287,"Ġtricolor":9288,"Ġveja":9289,"Ġgatinho":9290,"Ġspan":9291,"Ġtrin":9292,"thracite":9293,"Ġfuji":9294,"Ġmint":9295,"computador":9296,"Ġcirurgica":9297,"Ġplt":9298,"orias":9299,"Ġbil":9300,"unc":9301,"Ġoco":9302,"icms":9303,"osh":9304,"Ġlaminas":9305,"jamento":9306,"Ġpead":9307,"3700":9308,"Ġ352":9309,"Ġmedidor":9310,"ket":9311,"Ġvitam":9312,"longa":9313,"ctus":9314,"Ġtanger":9315,"Ġminas":9316,"Ġlingua":9317,"poliamida":9318,"Ġsegunda":9319,"flora":9320,"Ġcupcake":9321,"Ġsystem":9322,"Ġrisque":9323,"acucar":9324,"Ġtrabalho":9325,"mj":9326,"Ġ336":9327,"make":9328,"Ġmachao":9329,"vex":9330,"Ġmmalha":9331,"Ġelevador":9332,"Ġskull":9333,"chete":9334,"Ġantiade":9335,"Ġrub":9336,"nutri":9337,"Ġespatula":9338,"Ġperolado":9339,"Ġselecao":9340,"Ġcobalt":9341,"Ġecologico":9342,"670":9343,"cura":9344,"vp":9345,"vento":9346,"Ġaus":9347,"Ġblon":9348,"isador":9349,"Ġvga":9350,"rius":9351,"Ġtomara":9352,"fao":9353,"feijao":9354,"993":9355,"682":9356,"Ġsalon":9357,"Ġmtx":9358,"Ġnybc":9359,"Ġbcst":9360,"Ġervas":9361,"Ġsonho":9362,"Ġcongelada":9363,"428":9364,"615":9365,"619":9366,"ue":9367,"Ġdh":9368,"reno":9369,"reducao":9370,"Ġ277":9371,"enca":9372,"Ġnfe":9373,"rie":9374,"Ġprecis":9375,"Ġ690":9376,"get":9377,"2750":9378,"Ġchina":9379,"digao":9380,"iphone":9381,"pple":9382,"sorvete":9383,"Ġcoloridas":9384,"963":9385,"Ġcabelos":9386,"parabarro":9387,"Ġsideral":9388,"Ġwork":9389,"Ġtrancado":9390,"Ġrustica":9391,"Ġintense":9392,"remo":9393,"Ġ276":9394,"Ġlga":9395,"ence":9396,"qual":9397,"Ġ120000":9398,"sep":9399,"Ġ508":9400,"Ġaniv":9401,"Ġcompon":9402,"Ã§s":9403,"Ġassime":9404,"Ġassoalho":9405,"Ġcaterpillar":9406,"dg":9407,"Ġaves":9408,"Ġpag":9409,"bau":9410,"2700":9411,"polis":9412,"Ġrider":9413,"674":9414,"693":9415,"Ġvaz":9416,"agle":9417,"Ġshoes":9418,"Ġgravacao":9419,"Ġdiamantado":9420,"Ãµ":9421,"Ġema":9422,"Ġ334":9423,"Ġ385":9424,"ends":9425,"marelo":9426,"Ġxre":9427,"iche":9428,"Ġrolam":9429,"Ġmarchas":9430,"Ġarca":9431,"Ġdados":9432,"carb":9433,"Ġnet":9434,"Ġ2250":9435,"Ġfeixe":9436,"bano":9437,"Ġgeracao":9438,"Ġlinhaca":9439,"Ġgene":9440,"Ġbelle":9441,"Ġcapacete":9442,"Ġoxer":9443,"aneis":9444,"Ġmacaquinho":9445,"Ġampli":9446,"multifuncional":9447,"Ġglamour":9448,"Ġcanais":9449,"Ġfilhote":9450,"97885":9451,"Ġalcalina":9452,"Ġoscilante":9453,"Ġantiaderente":9454,"Ġaw":9455,"oli":9456,"logia":9457,"Ġdomes":9458,"Ġmoon":9459,"tend":9460,"contr":9461,"Ġconti":9462,"Ġraio":9463,"Ġfat":9464,"992":9465,"ized":9466,"Ġtacas":9467,"issipi":9468,"Ġlinhas":9469,"Ġtoro":9470,"Ġfucsia":9471,"ĠĠĠ":9472,"Ġmist":9473,"culadora":9474,"bebida":9475,"desinfetante":9476,"trifuga":9477,"612":9478,"nume":9479,"inser":9480,"Ġduro":9481,"Ġlbs":9482,"Ġligan":9483,"Ġ670":9484,"Ġkd":9485,"Ġmaio":9486,"bai":9487,"cif":9488,"Ġsaidas":9489,"Ġrefa":9490,"Ġ1620":9491,"Ġantena":9492,"Ġchips":9493,"Ġtiff":9494,"Ġlike":9495,"Ġshimano":9496,"Ġviole":9497,"1015":9498,"Ġcompacta":9499,"icmsst":9500,"Ġdanny":9501,"Ġsublimada":9502,"Ġcromus":9503,"Ġperfect":9504,"475":9505,"bz":9506,"ctar":9507,"econ":9508,"gres":9509,"str":9510,"ord":9511,"sadora":9512,"hot":9513,"Ġemergen":9514,"Ġmousse":9515,"Ġwest":9516,"Ġargila":9517,"desem":9518,"penser":9519,"Ġandroid":9520,"Ġamora":9521,"Ġcamomila":9522,"estribo":9523,"Ġalivio":9524,"ku":9525,"qtd":9526,"sx":9527,"vcc":9528,"tero":9529,"Ġspot":9530,"elha":9531,"quite":9532,"Ġintra":9533,"Ġlaran":9534,"Ġcorcel":9535,"Ġcarra":9536,"Ġinfra":9537,"Ġ1450":9538,"Ġlip":9539,"Ġ171":9540,"Ġmedidas":9541,"Ġdirecional":9542,"roldana":9543,"Ġ460000":9544,"Ġapres":9545,"Ġferramenta":9546,"137892949":9547,"Ġtomadas":9548,"reforco":9549,"Ġdumond":9550,"416":9551,"dw":9552,"gc":9553,"Ġmtr":9554,"papete":9555,"1027":9556,"Ġlouca":9557,"553":9558,"Ġchapeu":9559,"Ġ197":9560,"Ġhosp":9561,"macaco":9562,"Ġsense":9563,"vitamina":9564,"Ġtint":9565,"Ġsmd":9566,"Ġcerejeira":9567,"Ġcrizal":9568,"cleo":9569,"Ġdesod":9570,"Ġavengers":9571,"Ġinjetado":9572,"roupao":9573,"Ġinteligente":9574,"039":9575,"033":9576,"gv":9577,"galhao":9578,"iti":9579,"Ġglow":9580,"Ġnan":9581,"unt":9582,"Ġcaf":9583,"Ġxpe":9584,"chumbo":9585,"Ġembala":9586,"Ġalimentos":9587,"Ġsafra":9588,"Ġwb":9589,"irts":9590,"Ġpotass":9591,"Ġexterior":9592,"Ġsplash":9593,"672":9594,"ferram":9595,"Ġopcao":9596,"Ġforminha":9597,"Ġvigor":9598,"Ġlogitech":9599,"Ġgluten":9600,"Ġdesejo":9601,"418":9602,"dup":9603,"finho":9604,"hen":9605,"uel":9606,"Ġcoa":9607,"iacao":9608,"5030":9609,"inagre":9610,"Ġtons":9611,"Ġpolic":9612,"Ġvalle":9613,"Ġzc":9614,"Ġzn":9615,"Ġorbi":9616,"Ġjeep":9617,"Ġcasca":9618,"canso":9619,"bresa":9620,"Ġmonaco":9621,"0107":9622,"Ġprim":9623,"gelatina":9624,"Ġkyocera":9625,"Ġperformance":9626,"Ãµes":9627,"mica":9628,"vias":9629,"ori":9630,"env":9631,"aspirador":9632,"onic":9633,"Ġot":9634,"Ġoficial":9635,"Ġcabide":9636,"Ġinteira":9637,"Ġkv":9638,"Ġ999":9639,"Ġrv":9640,"Ġacel":9641,"673":9642,"pua":9643,"Ġasics":9644,"visao":9645,"Ġbarreira":9646,"parte":9647,"Ġold":9648,"Ġegip":9649,"Ġalecrim":9650,"corretivo":9651,"Ġescritorio":9652,"Ġestrias":9653,"Ġcartago":9654,"Ġlegitimo":9655,"ame":9656,"ius":9657,"sim":9658,"xs":9659,"0014":9660,"reco":9661,"ango":9662,"Ġ3200":9663,"Ġxbox":9664,"mmtl":9665,"Ġ880":9666,"Ġbranc":9667,"chaveta":9668,"Ġdaily":9669,"Ġpolim":9670,"iere":9671,"maria":9672,"pire":9673,"prat":9674,"Ġindl":9675,"gelim":9676,"Ġceleste":9677,"Ġsombras":9678,"Ġelian":9679,"fragma":9680,"Ġdistribuicao":9681,"Ġiluminacao":9682,"Ġcookies":9683,"Ġplatinum":9684,"914":9685,"Ġmig":9686,"Ġstrong":9687,"Ġ319":9688,"Ġgy":9689,"Ġgris":9690,"arma":9691,"Ġtns":9692,"jado":9693,"Ġzm":9694,"Ġzete":9695,"Ġ197500":9696,"Ġgara":9697,"Ġcurso":9698,"662":9699,"772":9700,"773":9701,"973":9702,"Ġbanhado":9703,"penelope":9704,"Ġatx":9705,"bond":9706,"Ġbdj":9707,"amac":9708,"Ġaplic":9709,"Ġxicaras":9710,"Ġamazonia":9711,"fp":9712,"hia":9713,"kva":9714,"mia":9715,"mand":9716,"inversor":9717,"0018":9718,"Ġ296":9719,"Ġunder":9720,"Ġcarinho":9721,"Ġmante":9722,"fador":9723,"ingos":9724,"Ġhibri":9725,"Ġpockets":9726,"Ġespiri":9727,"copio":9728,"Ġgil":9729,"Ġ416":9730,"Ġnina":9731,"iler":9732,"Ġ960":9733,"1313":9734,"Ġwash":9735,"Ġtapa":9736,"Ġjacare":9737,"Ġguerra":9738,"Ġquei":9739,"Ġperdigao":9740,"Ġbrigadeiro":9741,"hlp":9742,"gold":9743,"Ġcastanha":9744,"Ġestribo":9745,"Ġcontinental":9746,"stellation":9747,"dig":9748,"fle":9749,"fum":9750,"fly":9751,"Ġcele":9752,"Ġcesta":9753,"Ġcesto":9754,"Ġsqua":9755,"Ġ428":9756,"Ġtul":9757,"iatura":9758,"Ġ675":9759,"1110":9760,"ural":9761,"napa":9762,"Ġtamanco":9763,"rafo":9764,"Ġsementes":9765,"Ġ248":9766,"pele":9767,"Ġfloren":9768,"Ġclassi":9769,"Ġsantor":9770,"Ġpique":9771,"peso":9772,"Ġmerino":9773,"Ġmonofasico":9774,"Ġsabores":9775,"headset":9776,"Ġenvelhe":9777,"680":9778,"Ġbento":9779,"cores":9780,"Ġeff":9781,"Ġ421":9782,"Ġ095":9783,"Ġxp":9784,"1701":9785,"Ġfacas":9786,"Ġpode":9787,"Ġlift":9788,"Ġcanaleta":9789,"Ġcolori":9790,"Ġtransporta":9791,"681":9792,"poste":9793,"792":9794,"longo":9795,"Ġcuecas":9796,"mold":9797,"ikana":9798,"Ġinstantane":9799,"Ġnm":9800,"Ġipa":9801,"Ġconversor":9802,"novo":9803,"Ġ402":9804,"34801":9805,"Ġpolar":9806,"Ġchem":9807,"Ġlondon":9808,"981":9809,"Ġhask":9810,"vision":9811,"textura":9812,"Ġbrastemp":9813,"Ġbich":9814,"ceria":9815,"Ġlacinho":9816,"Ġdyna":9817,"Ġinjetada":9818,"Ġreciclado":9819,"Ġrainbow":9820,"525":9821,"mv":9822,"plex":9823,"stra":9824,"Ġpts":9825,"Ġpie":9826,"revista":9827,"Ġopc":9828,"Ġxxg":9829,"gala":9830,"Ġemo":9831,"Ġbocas":9832,"Ġteflon":9833,"Ġcanguru":9834,"Ġtaurus":9835,"Ġpaleta":9836,"Ġpesso":9837,"Ġparafusos":9838,"Ġdiscos":9839,"Ġeuca":9840,"Ġmodare":9841,"Ġstick":9842,"carenagem":9843,"Ġcopacol":9844,"Ġalongada":9845,"9003":9846,"itri":9847,"Ġjv":9848,"Ġhil":9849,"Ġlaca":9850,"trat":9851,"pec":9852,"pela":9853,"Ġarticulacao":9854,"Ġsegre":9855,"Ġexper":9856,"Ġsempre":9857,"Ġgarantia":9858,"971":9859,"Ġvidros":9860,"Ġfofo":9861,"Ġsanit":9862,"Ġfunda":9863,"ĠplÃ¡s":9864,"Ġdivino":9865,"Ġzirconias":9866,"Ġestabilizador":9867,"azeite":9868,"Ġsaches":9869,"Ġriachu":9870,"790":9871,"818":9872,"dm":9873,"nel":9874,"Ġfz":9875,"Ġei":9876,"Ġdesa":9877,"Ġcober":9878,"enf":9879,"Ġninho":9880,"Ġtco":9881,"Ġmoran":9882,"moikana":9883,"Ġmanha":9884,"3300":9885,"Ġorient":9886,"Ġ174":9887,"Ġkitty":9888,"3002":9889,"supor":9890,"vent":9891,"Ġjahu":9892,"Ġaspira":9893,"Ġmultifuncional":9894,"Ġclick":9895,"Ġautomov":9896,"Ġinverter":9897,"Ġcalcinhas":9898,"Ġbistro":9899,"Ġfeltro":9900,"Ġdiferencr":9901,"Ġgsm":9902,"Ġcamuflada":9903,"Ġtiffany":9904,"Ġriachuelo":9905,"9000":9906,"iÃ§Ã£o":9907,"nic":9908,"rg":9909,"rine":9910,"Ġpim":9911,"Ġmq":9912,"Ġaur":9913,"Ġlk":9914,"esteira":9915,"1022":9916,"Ġhiper":9917,"guicho":9918,"Ġmarro":9919,"Ġarm":9920,"Ġproven":9921,"Ġfaro":9922,"Ġchama":9923,"Ã§ao":9924,"Ġsensual":9925,"Ġgalo":9926,"Ġflap":9927,"Ã¡vel":9928,"Ġestonada":9929,"Ġnitro":9930,"Ġ789989":9931,"roteador":9932,"Ġviolao":9933,"032":9934,"8015":9935,"lem":9936,"Ġeagle":9937,"Ġ298":9938,"erie":9939,"Ġlq":9940,"tix":9941,"Ġ445":9942,"Ġlock":9943,"Ġite":9944,"Ġazu":9945,"Ġnaval":9946,"Ġ161":9947,"Ġbarrado":9948,"Ġvareta":9949,"587":9950,"Ġsexo":9951,"Ġspec":9952,"Ġbomber":9953,"Ġhaskell":9954,"ppa":9955,"pic":9956,"Ġvult":9957,"Ġ433":9958,"Ġoe":9959,"loque":9960,"Ġ940":9961,"Ġ608":9962,"ciada":9963,"Ġmonster":9964,"Ġride":9965,"Ġmetallic":9966,"Ġmagica":9967,"Ġluzes":9968,"Ġirriga":9969,"Ġvanilla":9970,"trincha":9971,"assadeira":9972,"Ġfestas":9973,"Ġemergencia":9974,"490":9975,"hg":9976,"lemento":9977,"rece":9978,"Ġativ":9979,"alterna":9980,"doll":9981,"engo":9982,"Ġrevers":9983,"ultra":9984,"Ġcapas":9985,"Ġrols":9986,"Ġhand":9987,"1401":9988,"renze":9989,"manual":9990,"ppm":9991,"Ġtransmis":9992,"Ġforever":9993,"Ġhelanca":9994,"Ġfleece":9995,"Ġgesso":9996,"clipse":9997,"Ġbubble":9998,"Ġpatrulha":9999,"Ġzetec":10000,"lf":10001,"Ġppa":10002,"inio":10003,"0013":10004,"Ġspt":10005,"Ġscarpin":10006,"Ġbia":10007,"Ġdelux":10008,"escorredor":10009,"Ġ469":10010,"Ġwith":10011,"Ġmassey":10012,"Ġtes":10013,"Ġtraz":10014,"junte":10015,"Ġordem":10016,"Ġgaxeta":10017,"Ġkgs":10018,"Ġsantos":10019,"Ġprofess":10020,"ween":10021,"Ġ1996":10022,"Ġselva":10023,"bicho":10024,"Ġgrip":10025,"Ġwoman":10026,"acoplamento":10027,"Ġpw":10028,"tap":10029,"Ġ327":10030,"Ġtren":10031,"Ġ640":10032,"icina":10033,"1210":10034,"1218":10035,"icoes":10036,"Ġmarco":10037,"Ġtamg":10038,"Ġnak":10039,"Ġendo":10040,"Ġtip":10041,"borda":10042,"palito":10043,"juba":10044,"Ġcarregadeira":10045,"eller":10046,"golf":10047,"direcao":10048,"Ġcalabresa":10049,"611":10050,"sario":10051,"lack":10052,"tona":10053,"Ġnerv":10054,"2030":10055,"Ġcate":10056,"Ġ519":10057,"1212":10058,"Ġalmofa":10059,"faro":10060,"Ġdesmon":10061,"Ġenchimento":10062,"00004":10063,"Ġjoao":10064,"Ġgrill":10065,"extrato":10066,"vibra":10067,"Ġcirre":10068,"Ġtensora":10069,"crata":10070,"cerv":10071,"Ġmassagem":10072,"Ġpolegada":10073,"Ġjusto":10074,"Ġmississipi":10075,"Ġrigida":10076,"Ġpilot":10077,"cini":10078,"fn":10079,"px":10080,"Ġix":10081,"Ġmff":10082,"revest":10083,"ani":10084,"Ġremo":10085,"Ġrevenda":10086,"Ġopen":10087,"Ġpaper":10088,"Ġ770":10089,"Ġkia":10090,"Ġcorvermelho":10091,"Ġpinta":10092,"Ġroller":10093,"Ġhelice":10094,"Ġfish":10095,"Ġsublimacao":10096,"Ġmoderna":10097,"Ġimediato":10098,"Ġbarcelona":10099,"Ġklein":10100,"730":10101,"aker":10102,"gla":10103,"iks":10104,"rpm":10105,"Â®":10106,"0011":10107,"0016":10108,"Ġativo":10109,"Ġacondicion":10110,"Ġsno":10111,"Ġfgo":10112,"Ġ297":10113,"Ġ347":10114,"Ġ422":10115,"Ġlados":10116,"Ġdour":10117,"Ġmosa":10118,"Ġbacon":10119,"Ġ1150":10120,"883":10121,"Ġgoo":10122,"Ġresse":10123,"Ġbijou":10124,"cret":10125,"Ġbelzer":10126,"Ġlinda":10127,"Ġgeladeira":10128,"manometro":10129,"Ġemborrachada":10130,"Ġespelhado":10131,"fixador":10132,"Ġtoscana":10133,"Ġtranslucido":10134,"Ġortoped":10135,"dv":10136,"klin":10137,"Ġcq":10138,"Ġmw":10139,"Ġagu":10140,"roxo":10141,"alianca":10142,"Ġ329":10143,"ols":10144,"Ġroche":10145,"Ġiron":10146,"Ġ0011":10147,"Ġdakar":10148,"Ġborra":10149,"Ġjaguar":10150,"Ġsorriso":10151,"Ġ600000":10152,"Ġjunior":10153,"Ġtecno":10154,"Ġbenz":10155,"cabelo":10156,"solucao":10157,"Ġresfriada":10158,"fluido":10159,"Ġfilhotes":10160,"Ġconcept":10161,"Ġarabesco":10162,"Ġvitoria":10163,"640":10164,"Ġcim":10165,"Ġfwb":10166,"Ġlace":10167,"vacas":10168,"Ġcord":10169,"chs":10170,"soes":10171,"Ġsete":10172,"fab":10173,"Ġsolt":10174,"Ġbols":10175,"mono":10176,"colorido":10177,"Ġcravejado":10178,"Ġgarraf":10179,"Ġgirls":10180,"Ġsonhos":10181,"Ġborboletas":10182,"nesio":10183,"Ġderma":10184,"Ġlemon":10185,"termometro":10186,"Ġtaylor":10187,"712":10188,"garra":10189,"meta":10190,"vir":10191,"yon":10192,"ziz":10193,"inner":10194,"Ġblanc":10195,"Ġfine":10196,"Ġfini":10197,"ust":10198,"Ġ870":10199,"Ġtrato":10200,"Ġradia":10201,"Ġtrifil":10202,"Ġacp":10203,"desen":10204,"Ġplasticos":10205,"Ġyes":10206,"Ġcremer":10207,"gibre":10208,"Ġmiolo":10209,"Ġaereo":10210,"Ġciser":10211,"gd":10212,"Ġabc":10213,"cob":10214,"Ġfest":10215,"ticms":10216,"Ġ348":10217,"0110":10218,"dett":10219,"Ġ0300":10220,"rance":10221,"boo":10222,"Ġcorverde":10223,"cheta":10224,"trali":10225,"secador":10226,"Ġsafe":10227,"Ġocean":10228,"Ġlex":10229,"iona":10230,"Ġtabu":10231,"Ġestacionamento":10232,"Ġjuta":10233,"compra":10234,"protese":10235,"amaciante":10236,"Ġbrincos":10237,"plastica":10238,"quimica":10239,"espeto":10240,"Ġinfinity":10241,"Ġduster":10242,"960":10243,"big":10244,"into":10245,"Ġeclipse":10246,"Ġ268":10247,"Ġvnz":10248,"2027":10249,"Ġesqu":10250,"solar":10251,"Ġpcte":10252,"Ġ605":10253,"Ġcanina":10254,"Ġtatu":10255,"utz":10256,"Ġ78985":10257,"Ġ2600":10258,"issimo":10259,"ball":10260,"Ġestado":10261,"ware":10262,"ctose":10263,"carreta":10264,"Ġitalia":10265,"ovos":10266,"Ġstripes":10267,"usadeira":10268,"Ġcadeiras":10269,"Ġtangerina":10270,"alternador":10271,"719":10272,"wd":10273,"Ġdx":10274,"Ġsino":10275,"sac":10276,"Ġreposicao":10277,"Ġescada":10278,"1060":10279,"Ġ815":10280,"4038":10281,"Ġloba":10282,"Ġtrav":10283,"Ġbarato":10284,"Ġralado":10285,"Ġ141":10286,"Ġnoir":10287,"malheira":10288,"Ġbovinos":10289,"Ġtens":10290,"Ġherme":10291,"Ġexplo":10292,"ciclista":10293,"Ġtico":10294,"Ġporte":10295,"Ġaviva":10296,"Ġsq":10297,"Ġsca":10298,"Ġfiorino":10299,"Ġoreo":10300,"Ġescu":10301,"chlo":10302,"Ġreflex":10303,"Ġ502":10304,"berg":10305,"Ġjacto":10306,"1018":10307,"Ġ0002":10308,"Ġlampadas":10309,"Ġoliv":10310,"refrig":10311,"circuito":10312,"Ġliganete":10313,"476":10314,"622":10315,"cril":10316,"glu":10317,"Ġpena":10318,"0022":10319,"Ġ441":10320,"mak":10321,"Ġoak":10322,"Ġkal":10323,"Ġhun":10324,"Ġwind":10325,"Ġexpress":10326,"Ġgradu":10327,"Ġvare":10328,"793":10329,"Ġhidrat":10330,"Ġlavavel":10331,"Ġcapuccino":10332,"telefone":10333,"Ġdestroy":10334,"Ġfantasy":10335,"acry":10336,"Ġmargarida":10337,"Ġpantene":10338,"590":10339,"635":10340,"class":10341,"npt":10342,"Ġdic":10343,"Ġdur":10344,"lav":10345,"Ġcot":10346,"0120":10347,"1025":10348,"Ġ820":10349,"Ġiks":10350,"veic":10351,"Ġ1001":10352,"Ġoce":10353,"Ġpolies":10354,"cket":10355,"Ġexcel":10356,"Ġgrav":10357,"Ġ0250":10358,"Ġjoia":10359,"Ġmolecotton":10360,"Ġoutras":10361,"cbem":10362,"infantil":10363,"Ġcedrinho":10364,"Ġrefletivo":10365,"contator":10366,"Ġstorm":10367,"Ġtubarao":10368,"920":10369,"yama":10370,"zios":10371,"inda":10372,"Ġera":10373,"ange":10374,"Ġvini":10375,"maxi":10376,"Ġcame":10377,"Ġcaber":10378,"osto":10379,"tense":10380,"Ġ1850":10381,"ulacao":10382,"Ġangular":10383,"Ġpotter":10384,"Ġnogueira":10385,"mper":10386,"Ġcanal":10387,"Ġmetalo":10388,"Ġgranulado":10389,"serv":10390,"Ġfirenze":10391,"piscina":10392,"Ġavant":10393,"Ġunif":10394,"Ġ1995":10395,"Ġshock":10396,"Ġgirat":10397,"cabedal":10398,"Ġdragon":10399,"aroma":10400,"Ġharry":10401,"Ġjusta":10402,"Ġfalso":10403,"Ġjulia":10404,"Ġimediata":10405,"Ġencolhivel":10406,"condensador":10407,"heitadeira":10408,"047":10409,"337":10410,"419":10411,"695":10412,"816":10413,"Ġpneus":10414,"Ġstella":10415,"tomate":10416,"istra":10417,"sarela":10418,"illy":10419,"Ġpapi":10420,"Ġ60000":10421,"Ġ914":10422,"Ġ0012":10423,"Ġ20000":10424,"Ġpompom":10425,"37100":10426,"Ġener":10427,"Ġverona":10428,"Ġsugar":10429,"ĠcalÃ§a":10430,"Ġ300000":10431,"Ġshi":10432,"Ġtext":10433,"Ġcapim":10434,"timus":10435,"Ġlavadora":10436,"Ġesfero":10437,"Ġfoxlux":10438,"Ġbombom":10439,"Ġspring":10440,"titude":10441,"Ġtablet":10442,"cloreto":10443,"Ġtelefone":10444,"Ġsnake":10445,"Ġdiagonal":10446,"Ġlambda":10447,"Ġjersey":10448,"Ġkingston":10449,"037":10450,"bca":10451,"biela":10452,"sg":10453,"rene":10454,"Ġetn":10455,"Ġ396":10456,"Ġ444":10457,"Ġ1055":10458,"Ġtouca":10459,"Ġtopper":10460,"Ġcarbo":10461,"utora":10462,"Ġtripolar":10463,"Ġfemininos":10464,"Ġgaiola":10465,"Ġsuina":10466,"Ġsuzu":10467,"Ġmedindo":10468,"Ġsolu":10469,"canudo":10470,"983":10471,"pelente":10472,"Ġvenda":10473,"Ġmagia":10474,"Ġfixador":10475,"Ġroscavel":10476,"Ġpassat":10477,"granola":10478,"friend":10479,"Ġtexturizada":10480,"Ġursinho":10481,"Ġohms":10482,"Ġagulhas":10483,"Ġdeluxe":10484,"bn":10485,"bur":10486,"Ġmvs":10487,"Ġmimo":10488,"Ġdona":10489,"rer":10490,"teis":10491,"tac":10492,"table":10493,"Ġbz":10494,"Ġvla":10495,"dep":10496,"tenas":10497,"Ġ257":10498,"Ġ409":10499,"Ġexer":10500,"Ġnero":10501,"Ġlugar":10502,"Ġfrete":10503,"Ġplat":10504,"vale":10505,"bolso":10506,"Ġpast":10507,"562":10508,"Ġviscolinho":10509,"Ġvoil":10510,"Ġbens":10511,"Ġsensitive":10512,"046":10513,"811":10514,"eda":10515,"fis":10516,"rv":10517,"inse":10518,"Ġsonda":10519,"rod":10520,"Ġcofap":10521,"boesa":10522,"gara":10523,"gaveteiro":10524,"Ġmateria":10525,"Ġsou":10526,"Ġ302":10527,"Ġ306":10528,"Ġlotevalidade":10529,"Ġtiara":10530,"Ġorna":10531,"Ġcantoneira":10532,"Ġtauari":10533,"Ġgraph":10534,"Ġperu":10535,"Ġoxigenio":10536,"canela":10537,"Ġflamengo":10538,"prudence":10539,"645":10540,"kimono":10541,"sso":10542,"xprof":10543,"Ġpz":10544,"arca":10545,"estr":10546,"espi":10547,"Ġtup":10548,"saboneteira":10549,"Ġcata":10550,"icure":10551,"bocal":10552,"gav":10553,"Ġjp":10554,"Ġhoney":10555,"uras":10556,"concha":10557,"Ġconstellation":10558,"nobreak":10559,"ieixo":10560,"piercing":10561,"Ġpima":10562,"Ã¡rio":10563,"Ġzamac":10564,"Ġnutrition":10565,"Ġbutter":10566,"Ġhelicoidal":10567,"eq":10568,"kx":10569,"uo":10570,"Ġpix":10571,"tation":10572,"cou":10573,"Ġ840":10574,"Ġ8100":10575,"Ġ740":10576,"Ġ7500":10577,"vam":10578,"Ġversao":10579,"Ġarras":10580,"Ġancora":10581,"Ġlei":10582,"ppnus":10583,"Ġtransfer":10584,"grampeador":10585,"691":10586,"Ġgrandes":10587,"Ġfotos":10588,"861":10589,"Ġtorcao":10590,"Ġpluma":10591,"Ġitapua":10592,"vitta":10593,"Ġchampion":10594,"Ġsuprema":10595,"Ġimagem":10596,"289":10597,"629":10598,"714":10599,"fig":10600,"nk":10601,"pick":10602,"Ġshe":10603,"Ġ278":10604,"arr":10605,"enza":10606,"Ġ066":10607,"quinte":10608,"1045":10609,"Ġ524":10610,"Ġpapai":10611,"mmpl":10612,"Ġkp":10613,"terco":10614,"varal":10615,"Ġmabel":10616,"calculadora":10617,"orth":10618,"Ġ0050":10619,"ceto":10620,"Ġbab":10621,"Ġnow":10622,"Ġtirante":10623,"Ġacomp":10624,"corp":10625,"Ġsolucao":10626,"cuit":10627,"Ġbolha":10628,"1019":10629,"Ġmicrof":10630,"gane":10631,"costura":10632,"salg":10633,"Ġmelhor":10634,"Ġcarenagem":10635,"refrige":10636,"Ġcaminhoes":10637,"Ġlotevalidadeqtd":10638,"fios":10639,"gini":10640,"hol":10641,"ipe":10642,"tns":10643,"vente":10644,"walt":10645,"Ġ232":10646,"Ġdeck":10647,"Ġcotacao":10648,"tick":10649,"Ġgrelha":10650,"estal":10651,"gade":10652,"Ġ980":10653,"Ġbac":10654,"Ġ504":10655,"Ġnota":10656,"Ġume":10657,"Ġpescoco":10658,"Ġchaveiro":10659,"Ġpost":10660,"Ġmold":10661,"tchup":10662,"Ġzoom":10663,"Ġbloqueio":10664,"031":10665,"aman":10666,"gun":10667,"gantil":10668,"kr":10669,"Ġduna":10670,"Ġabra":10671,"roco":10672,"matsu":10673,"Ġ0400":10674,"Ġcavada":10675,"Ġintimo":10676,"Ġmania":10677,"aditivo":10678,"Ġcolmeia":10679,"ardinha":10680,"Ġ0005":10681,"estj":10682,"Ġdobrada":10683,"violao":10684,"prancha":10685,"Ġmacico":10686,"Ġmilano":10687,"Ġlettering":10688,"Ġmanteiga":10689,"acrysof":10690,"inj":10691,"colante":10692,"Ġ233":10693,"Ġviton":10694,"Ġtz":10695,"saca":10696,"rilan":10697,"Ġ099":10698,"quin":10699,"ost":10700,"chum":10701,"chut":10702,"molas":10703,"posa":10704,"vestuario":10705,"Ġtiger":10706,"Ġcmst":10707,"Ġtorque":10708,"Ġfuncoes":10709,"acril":10710,"Ġpendura":10711,"Ġpenteado":10712,"Ġknit":10713,"Ġresistencia":10714,"Ġoleos":10715,"zeleira":10716,"Ġpenalty":10717,"Ġcalifor":10718,"Ġroletes":10719,"445":10720,"740":10721,"hem":10722,"tek":10723,"Ġvg":10724,"Ġnut":10725,"Ġ511":10726,"chal":10727,"Ġipe":10728,"Ġboard":10729,"solado":10730,"Ġ309":10731,"Ġchim":10732,"Ġextensor":10733,"ggi":10734,"000001":10735,"Ġamaciado":10736,"pij":10737,"Ġfech":10738,"Ġmicroondas":10739,"Ġkala":10740,"Ġexpand":10741,"Ġjardineira":10742,"bronze":10743,"direito":10744,"Ġmanutencao":10745,"Ġrecheado":10746,"801534801":10747,"bq":10748,"dl":10749,"fiesta":10750,"lico":10751,"tw":10752,"xgg":10753,"0050":10754,"une":10755,"Ġrevestido":10756,"Ġ522":10757,"Ġindex":10758,"Ġsam":10759,"Ġcanon":10760,"cess":10761,"Ġjam":10762,"561":10763,"Ġmalh":10764,"Ġcircuito":10765,"Ġacessorio":10766,"etiquetas":10767,"Ġreativo":10768,"Ġvlrun":10769,"Ġpesponto":10770,"taruga":10771,"gantilha":10772,"5964":10773,"pneus":10774,"xido":10775,"yu":10776,"Ġ279":10777,"Ġ446":10778,"Ġtorta":10779,"1080":10780,"Ġbasc":10781,"Ġvera":10782,"Ġtrilha":10783,"Ġelos":10784,"Ġelseve":10785,"brana":10786,"594":10787,"Ġterminais":10788,"Ġcombust":10789,"Ġdubai":10790,"Ġtintas":10791,"ologico":10792,"raria":10793,"Ġcloro":10794,"Ġsuperfic":10795,"Ġsquare":10796,"423":10797,"715":10798,"dx":10799,"Ġpds":10800,"Ġalex":10801,"core":10802,"codigo":10803,"Ġtris":10804,"patch":10805,"sache":10806,"Ġrevol":10807,"2035":10808,"Ġ545":10809,"lev":10810,"Ġjci":10811,"Ġrca":10812,"1601":10813,"pex":10814,"conversor":10815,"soq":10816,"Ġtoe":10817,"ineador":10818,"cordo":10819,"Ġ131":10820,"presa":10821,"Ġdescuni":10822,"Ġrosc":10823,"Ġportal":10824,"Ġ292":10825,"Ġacabado":10826,"Ġbengaline":10827,"lette":10828,"Ġranh":10829,"Ġalav":10830,"Ġconforme":10831,"Ġzoo":10832,"Ġprendedor":10833,"persiana":10834,"Ġgestante":10835,"castanha":10836,"Ġressefaz":10837,"Ġvlrunits":10838,"Ġdescuniticms":10839,"cim":10840,"dh":10841,"mk":10842,"vies":10843,"wc":10844,"Ġminha":10845,"isas":10846,"Ġ333":10847,"enc":10848,"undo":10849,"Ġreves":10850,"1035":10851,"Ġunip":10852,"Ġmaran":10853,"Ġempilha":10854,"Ġalmo":10855,"guard":10856,"1801":10857,"Ġsalada":10858,"Ġconver":10859,"Ġsoutien":10860,"Ġbaga":10861,"Ġnoturno":10862,"Ġ353":10863,"ffer":10864,"Ġcalcio":10865,"ggio":10866,"Ġcrocante":10867,"colageno":10868,"Ġbud":10869,"parabrisa":10870,"ĠrolÃ´":10871,"Ġ1016":10872,"linguica":10873,"Ġfrimesa":10874,"Ġdori":10875,"Ġsecret":10876,"Ġsanfonada":10877,"Ġapresenta":10878,"Ġcabernet":10879,"cÃ£o":10880,"Ġcien":10881,"teste":10882,"orr":10883,"Ġ2300":10884,"onix":10885,"1024":10886,"Ġ860":10887,"Ġjose":10888,"Ġboa":10889,"Ġsara":10890,"Ġ00004":10891,"Ġtoda":10892,"melissa":10893,"20001":10894,"premi":10895,"tintor":10896,"Ġhora":10897,"573":10898,"Ġfranc":10899,"Ġpdr":10900,"Ġmrm":10901,"Ġdistribuidor":10902,"Ġquartz":10903,"Ġetios":10904,"Ġderiv":10905,"Ġdestroyed":10906,"Ġvlaprox":10907,"511":10908,"bba":10909,"iu":10910,"oppnus":10911,"vor":10912,"requeijao":10913,"Ġeau":10914,"Ġrem":10915,"Ġretar":10916,"ioca":10917,"Ġpaulo":10918,"Ġfemoral":10919,"1319":10920,"Ġbotan":10921,"Ġbainha":10922,"Ġ506":10923,"Ġseal":10924,"ixao":10925,"Ġacus":10926,"Ġ173":10927,"Ġcalecon":10928,"izavel":10929,"Ġsolto":10930,"plano":10931,"Ġcega":10932,"1014":10933,"dencia":10934,"Ġnique":10935,"zzc":10936,"brasil":10937,"capri":10938,"Ġlavabo":10939,"silk":10940,"condulete":10941,"Ġselfcolor":10942,"Ġrunner":10943,"Ġbeneficiada":10944,"Ġinova":10945,"Ġcaipira":10946,"capuz":10947,"522":10948,"518":10949,"565":10950,"ng":10951,"Ġcox":10952,"Ġnic":10953,"2050":10954,"Ġoetker":10955,"quencia":10956,"Ġ730":10957,"Ġkf":10958,"4035":10959,"Ġ930":10960,"torias":10961,"Ġloja":10962,"1314":10963,"conv":10964,"resh":10965,"berco":10966,"Ġchia":10967,"Ġenvelope":10968,"Ġud":10969,"Ġ6060":10970,"Ġorion":10971,"Ġcompra":10972,"Ġquin":10973,"Ġ45002":10974,"Ġbolsas":10975,"Ġparfum":10976,"1016":10977,"salto":10978,"Ġlavacao":10979,"Ġfalcon":10980,"vette":10981,"peitoral":10982,"refrigerante":10983,"812":10984,"844":10985,"Ġpff":10986,"Ġbim":10987,"elheira":10988,"Ġtpl":10989,"Ġ518":10990,"galao":10991,"gamassa":10992,"Ġ901":10993,"Ġ1218":10994,"seg":10995,"Ġsound":10996,"iron":10997,"Ġvale":10998,"Ġplasti":10999,"Ġtit":11000,"Ġtatica":11001,"692":11002,"Ġ0430":11003,"Ġstralis":11004,"Ġsif":11005,"Ġ1997":11006,"ilecta":11007,"Ġvlaproximp":11008,"076":11009,"049":11010,"575":11011,"fh":11012,"galo":11013,"Ġgem":11014,"pam":11015,"material":11016,"usb":11017,"Ġ760":11018,"etas":11019,"mecan":11020,"Ġend":11021,"Ġvegano":11022,"Ġnecessaire":11023,"Ġ362":11024,"Ġtas":11025,"Ġrip":11026,"onata":11027,"Ġchopp":11028,"Ġmesclado":11029,"mall":11030,"malbec":11031,"Ġmille":11032,"absorv":11033,"Ġsunset":11034,"403756":11035,"Ġchevron":11036,"Ġcomprimido":11037,"Ġintegrado":11038,"Ġcorrugado":11039,"Ġprofessional":11040,"517":11041,"atuador":11042,"bby":11043,"vx":11044,"ragua":11045,"recorte":11046,"Ġaga":11047,"Ġstam":11048,"Ġ468":11049,"Ġrela":11050,"1040":11051,"Ġunds":11052,"Ġhss":11053,"Ġrise":11054,"Ġmoca":11055,"Ġfemme":11056,"Ġnatu":11057,"Ġmand":11058,"ortale":11059,"Ġua":11060,"ppu":11061,"Ġguardanapo":11062,"Ġnrcli":11063,"Ġkaw":11064,"estator":11065,"Ġtempero":11066,"mostarda":11067,"78967":11068,"Ġlink":11069,"ddler":11070,"Ġitaliana":11071,"Ġcontraste":11072,"Ġhugg":11073,"Ġpatchwork":11074,"Ġnserie":11075,"Ġninja":11076,"cobertor":11077,"univc":11078,"Ġchanf":11079,"Ġantonio":11080,"519":11081,"665":11082,"sinal":11083,"haque":11084,"Ġ078":11085,"Ġinse":11086,"Ġindoor":11087,"Ġkb":11088,"Ġlara":11089,"Ġpei":11090,"Ġraso":11091,"Ġnozes":11092,"Ġmetais":11093,"3004":11094,"Ġvolumes":11095,"elete":11096,"tell":11097,"pingo":11098,"Ġadultos":11099,"Ġinterface":11100,"Ġpeneira":11101,"Ġisol":11102,"Ġpassagem":11103,"termdirecao":11104,"Ġsauv":11105,"ffet":11106,"spaal":11107,"Ġtelescop":11108,"Ġdemocrata":11109,"Ġfelpudo":11110,"Ġfluores":11111,"Ġmsa":11112,"incen":11113,"Ġdw":11114,"Ġlider":11115,"Ġ485":11116,"match":11117,"deca":11118,"1618":11119,"Ġws":11120,"Ġarmacao":11121,"idavel":11122,"Ġbruna":11123,"cord":11124,"onete":11125,"Ġluk":11126,"Ġcalor":11127,"Ġmesh":11128,"Ġserum":11129,"3003":11130,"Ġpositivo":11131,"Ġbrasileiro":11132,"Ġfriccao":11133,"Ġpopular":11134,"Ġbtm":11135,"Ġtalco":11136,"Ġbond":11137,"Ġpenteada":11138,"cloro":11139,"Ġrefletiva":11140,"Ġfrases":11141,"Ġaloe":11142,"Ġinvicta":11143,"churrasqueira":11144,"Ġpotassio":11145,"Ġcalifornia":11146,"327":11147,"bular":11148,"dpi":11149,"sta":11150,"Ġaq":11151,"Ġfum":11152,"Ġdex":11153,"angular":11154,"Ġlio":11155,"pat":11156,"Ġcadeado":11157,"1021":11158,"Ġincl":11159,"Ġalb":11160,"Ġsamba":11161,"ited":11162,"Ġbeige":11163,"Ġvelas":11164,"mark":11165,"Ġgraxa":11166,"Ġvolk":11167,"Ġ2800":11168,"Ġ709":11169,"Ġfeijao":11170,"Ġflane":11171,"Ġvelvet":11172,"daria":11173,"Ġbrasilux":11174,"Ġfriends":11175,"chuveiro":11176,"Ġondulada":11177,"Ġciclo":11178,"Ġarticulada":11179,"434":11180,"uco":11181,"Ġpy":11182,"Ġpump":11183,"coxa":11184,"0118":11185,"Ġrever":11186,"Ġ049":11187,"Ġcats":11188,"Ġ2023":11189,"nao":11190,"Ġsod":11191,"Ġtoddler":11192,"Ġraven":11193,"Ġlevan":11194,"2900":11195,"brilho":11196,"Ġinoxidavel":11197,"Ġhava":11198,"banana":11199,"Ġtorx":11200,"brinde":11201,"Ġatego":11202,"Ġcapsula":11203,"Ġbiopol":11204,"Ġweb":11205,"Ġessence":11206,"Ġespaguete":11207,"Ġmaquinas":11208,"Ġgravata":11209,"Ġknorr":11210,"Ġeconomica":11211,"Ġtrabalhado":11212,"Ġsubstitu":11213,"Ġbijuteria":11214,"Ġvazao":11215,"Ġpredilecta":11216,"539":11217,"apon":11218,"frio":11219,"iar":11220,"ital":11221,"jar":11222,"kin":11223,"rin":11224,"run":11225,"Ġcem":11226,"0030":11227,"Ġspo":11228,"Ġfut":11229,"Ġdez":11230,"0112":11231,"ilon":11232,"Ġorelha":11233,"Ġcacha":11234,"mme":11235,"Ġmata":11236,"Ġdown":11237,"Ġif":11238,"petro":11239,"Ġracas":11240,"Ġanne":11241,"Ġsuco":11242,"Ġcanario":11243,"Ġtamm":11244,"Ġpince":11245,"Ġshark":11246,"Ġsilic":11247,"Ġsalgado":11248,"Ġfugini":11249,"Ġcanoa":11250,"Ġshoulder":11251,"transfer":11252,"moleca":11253,"grand":11254,"Ġboyfriend":11255,"Ġtravessa":11256,"Ġreversivel":11257,"495":11258,"815":11259,"lia":11260,"udos":11261,"Ġpci":11262,"rad":11263,"rejunte":11264,"iser":11265,"Ġcorante":11266,"Ġrey":11267,"2048":11268,"Ġcombo":11269,"Ġ516":11270,"Ġpampa":11271,"letra":11272,"Ġrouge":11273,"1214":11274,"1150":11275,"Ġalice":11276,"sete":11277,"Ġ183":11278,"cargo":11279,"Ġsemola":11280,"Ġ361":11281,"Ġlonas":11282,"Ġnuk":11283,"Ġcamisola":11284,"Ġpubl":11285,"Ġmulticor":11286,"pint":11287,"Ġbravo":11288,"Ġprimario":11289,"Ġgrease":11290,"Ġcoloridos":11291,"Ġhelena":11292,"Ġsony":11293,"Ġpalav":11294,"Ġnutricao":11295,"aromatizante":11296,"Ġalongado":11297,"Ġpurple":11298,"Ġfirst":11299,"viera":11300,"aluminio":11301,"Ġhyperx":11302,"Ġsuzuki":11303,"042":11304,"fv":11305,"fral":11306,"xan":11307,"Ġpx":11308,"cae":11309,"carim":11310,"cona":11311,"Ġ272":11312,"esticador":11313,"Ġ523":11314,"Ġ1070":11315,"Ġcorin":11316,"1118":11317,"calho":11318,"Ġtratado":11319,"iris":11320,"Ġ172":11321,"Ġserr":11322,"Ġkits":11323,"Ġvolt":11324,"Ġveicular":11325,"Ġcasamento":11326,"Ġtwill":11327,"Ġlivros":11328,"Ġnosso":11329,"Ġconfecci":11330,"Ġmaximum":11331,"Ġagrale":11332,"Ġchrome":11333,"Ġblond":11334,"ferramenta":11335,"Ġeucatex":11336,"veiculo":11337,"bw":11338,"tpa":11339,"rata":11340,"intense":11341,"Ġdina":11342,"tite":11343,"tila":11344,"mamadeira":11345,"emens":11346,"Ġprocesso":11347,"Ġcarmim":11348,"Ġ1650":11349,"beira":11350,"Ġ500000":11351,"Ġmule":11352,"piquet":11353,"brio":11354,"gian":11355,"Ġpirelli":11356,"Ġtornado":11357,"Ġland":11358,"Ġusados":11359,"Ġcliest":11360,"juda":11361,"gadores":11362,"Ġmacica":11363,"Ġetiq":11364,"sombra":11365,"Ġtrabalhada":11366,"cambio":11367,"quipamento":11368,"Ġthomp":11369,"zizien":11370,"Ġpdsf":11371,"066":11372,"574":11373,"abo":11374,"cbe":11375,"jinho":11376,"pig":11377,"Ġdress":11378,"cau":11379,"2040":11380,"Ġincen":11381,"Ġmach":11382,"quetes":11383,"Ġ258":11384,"Ġ0150":11385,"2800":11386,"Ġ1938":11387,"Ġmultilit":11388,"582":11389,"Ġmillen":11390,"Ġmrs":11391,"motocicleta":11392,"Ġliver":11393,"Ġtoalhas":11394,"Ġstripe":11395,"Ġlembran":11396,"Ġrende":11397,"Ġtrapezo":11398,"ĠalgodÃ£o":11399,"Ġidentificacao":11400,"Ġweekend":11401,"Ġesferografica":11402,"0500":11403,"caix":11404,"tie":11405,"Ġreman":11406,"Ġoca":11407,"Ġcatal":11408,"Ġprec":11409,"Ġ1214":11410,"Ġrk":11411,"Ġwell":11412,"Ġtea":11413,"Ġ259":11414,"bet":11415,"Ġgatilho":11416,"Ġ1345":11417,"colch":11418,"Ġ058":11419,"Ġibiza":11420,"Ġdisj":11421,"Ġfreeway":11422,"culenta":11423,"Ġiate":11424,"ivery":11425,"Ġtingimento":11426,"Ġcollege":11427,"cionado":11428,"Ġperfumado":11429,"Ġbandeirante":11430,"Ġframboesa":11431,"880":11432,"ibe":11433,"Ġmho":11434,"Ġsne":11435,"Ġ448":11436,"Ġcac":11437,"Ġpresen":11438,"Ġ780":11439,"Ġjum":11440,"Ġmaho":11441,"Ġrh":11442,"Ġalvejado":11443,"Ġarno":11444,"Ġtopo":11445,"7800":11446,"882":11447,"posto":11448,"enovo":11449,"partes":11450,"Ġcaminha":11451,"Ġtecn":11452,"Ġfrutti":11453,"Ġkomatsu":11454,"cson":11455,"Ġergon":11456,"Ġdolce":11457,"Ġamerican":11458,"Ġbtus":11459,"floral":11460,"Ġchuck":11461,"Ġmacrilan":11462,"Ġgrid":11463,"Ġtingida":11464,"amendoa":11465,"Ġcobalto":11466,"Ġgondola":11467,"Ġmosaico":11468,"545":11469,"cml":11470,"opete":11471,"Ġ346":11472,"2080":11473,"Ġcactus":11474,"1029":11475,"Ġ528":11476,"Ġ711":11477,"Ġdiario":11478,"Ġboo":11479,"Ġpeix":11480,"Ġpedcompra":11481,"irinho":11482,"beiro":11483,"Ġchupeta":11484,"sserra":11485,"masco":11486,"tintura":11487,"Ġjaragua":11488,"583":11489,"Ġaramado":11490,"Ġestofa":11491,"Ġcerca":11492,"Ġhipo":11493,"cafeteira":11494,"Ġleather":11495,"Ġ102237100":11496,"controlador":11497,"675":11498,"gle":11499,"Ġcbc":11500,"Ġaparador":11501,"rox":11502,"Ġez":11503,"Ġdefu":11504,"Ġdewalt":11505,"Ġ321":11506,"Ġrocadeira":11507,"Ġ830":11508,"guidao":11509,"Ġmarias":11510,"Ġwr":11511,"quedos":11512,"1938":11513,"Ġtramb":11514,"Ġleb":11515,"Ġtij":11516,"Ġextre":11517,"Ġacri":11518,"soro":11519,"Ġbuque":11520,"571":11521,"Ġpresid":11522,"Ġindica":11523,"Ġpctc":11524,"Ġcarroceria":11525,"zolit":11526,"Ġresfriado":11527,"cachepo":11528,"cavalete":11529,"725":11530,"915":11531,"rem":11532,"Ġapi":11533,"Ġavan":11534,"Ġfranja":11535,"alfa":11536,"isse":11537,"tigre":11538,"Ġntn":11539,"ilina":11540,"Ġess":11541,"Ġesticador":11542,"1033":11543,"Ġ535":11544,"termos":11545,"Ġry":11546,"queado":11547,"Ġ0020":11548,"Ġsomb":11549,"Ġ408":11550,"ions":11551,"0000000":11552,"Ġtranspa":11553,"1011":11554,"591":11555,"cilios":11556,"watch":11557,"salga":11558,"Ġwatch":11559,"Ġlinen":11560,"Ġdesenhada":11561,"Ġfreedom":11562,"urier":11563,"wood":11564,"evapo":11565,"prensa":11566,"Ġscotch":11567,"617":11568,"930":11569,"aque":11570,"acab":11571,"ful":11572,"gira":11573,"lh":11574,"pico":11575,"vanel":11576,"war":11577,"yx":11578,"rax":11579,"ratina":11580,"rog":11581,"Ġvie":11582,"mata":11583,"embreagem":11584,"Ġxtra":11585,"Ġtem":11586,"Ġ303":11587,"Ġtopa":11588,"ortadela":11589,"Ġ1313":11590,"Ġ053":11591,"Ġsku":11592,"Ġquadr":11593,"Ġrecem":11594,"Ġturmal":11595,"Ġveneziana":11596,"Ġheinz":11597,"Ġfitas":11598,"Ġcolageno":11599,"Ġgaroto":11600,"austor":11601,"ppuccino":11602,"Ġtrapezoidal":11603,"429":11604,"925":11605,"ier":11606,"pts":11607,"lato":11608,"Ġfortale":11609,"Ġeq":11610,"ert":11611,"Ġ465":11612,"Ġ447":11613,"itta":11614,"Ġkr":11615,"Ġwg":11616,"Ġtrain":11617,"bea":11618,"Ġpola":11619,"ader":11620,"piranha":11621,"Ġnud":11622,"Ġasp":11623,"Ġassa":11624,"Ġpremier":11625,"1105":11626,"Ġrolha":11627,"Ġwater":11628,"Ġmercur":11629,"Ġvarios":11630,"Ġsonic":11631,"Ġstep":11632,"Ġmaravilha":11633,"Ġvichy":11634,"cloridrato":11635,"Ġestreita":11636,"Ġarem":11637,"Ġcalota":11638,"Ġprocedimento":11639,"Ġacompanha":11640,"Ġtplink":11641,"940":11642,"970":11643,"hum":11644,"vv":11645,"lata":11646,"Ġ289":11647,"Ġlus":11648,"tik":11649,"elli":11650,"homem":11651,"matic":11652,"Ġmay":11653,"2201":11654,"trac":11655,"caldo":11656,"Ġmask":11657,"Ġsommer":11658,"Ġpolpa":11659,"Ġplatina":11660,"gany":11661,"Ġfertilizante":11662,"Ġsanremo":11663,"Ġtexas":11664,"Ġextrato":11665,"Ġballet":11666,"Ġcentrifuga":11667,"turbo":11668,"plugue":11669,"Ġitaly":11670,"padrao":11671,"Ġstring":11672,"furos":11673,"Ġnatureza":11674,"Ġpetala":11675,"Ġdegraus":11676,"jm":11677,"midia":11678,"scha":11679,"ugue":11680,"ĠpÃ§s":11681,"0017":11682,"Ġsoleira":11683,"Ġbit":11684,"Ġdela":11685,"Ġdepi":11686,"Ġ096":11687,"Ġ575":11688,"taman":11689,"seda":11690,"Ġsede":11691,"Ġcarr":11692,"Ġrosado":11693,"Ġcompar":11694,"Ġformas":11695,"polim":11696,"pelucia":11697,"Ġoncinha":11698,"brimento":11699,"Ġcrm":11700,"Ġsapatinho":11701,"phi":11702,"guary":11703,"fresa":11704,"Ġkiko":11705,"Ġrendimento":11706,"Ġkelly":11707,"Ġscarlet":11708,"Ġjolie":11709,"mburguer":11710,"Ġegipcio":11711,"655":11712,"bit":11713,"cw":11714,"dron":11715,"ibu":11716,"jd":11717,"palha":11718,"squeeze":11719,"tf":11720,"Ġarea":11721,"Ġeve":11722,"daine":11723,"Ġvole":11724,"Ġgiz":11725,"Ġnsk":11726,"Ġparana":11727,"pore":11728,"pomada":11729,"sec":11730,"Ġmarlan":11731,"Ġsate":11732,"Ġarcor":11733,"Ġpedreiro":11734,"Ġtripe":11735,"Ġpouch":11736,"Ġ357":11737,"lustre":11738,"sorio":11739,"Ġvaqueta":11740,"871":11741,"dispenser":11742,"Ġbroc":11743,"Ġuniforme":11744,"Ġmisura":11745,"Ġcorsair":11746,"Ġeletroduto":11747,"tempra":11748,"Ġiagro":11749,"rendha":11750,"blusinha":11751,"Ġconservacao":11752,"manteiga":11753,"pirulito":11754,"80153480174":11755,"apontador":11756,"421":11757,"722":11758,"kem":11759,"Ġbole":11760,"cozinha":11761,"Ġ337":11762,"esquer":11763,"quia":11764,"Ġcake":11765,"Ġpapr":11766,"1215":11767,"Ġjs":11768,"1130":11769,"1350":11770,"cons":11771,"Ġpoder":11772,"Ġenem":11773,"prom":11774,"Ġelevacao":11775,"Ġmotorista":11776,"Ġcristais":11777,"Ġmarcador":11778,"Ġpadre":11779,"Ġpelos":11780,"Ġbenef":11781,"Ġ1994":11782,"Ġvulca":11783,"Ġitauba":11784,"subconjunto":11785,"Ġsulf":11786,"Ġliberte":11787,"Ġburn":11788,"Ġadaptavel":11789,"Ġaquario":11790,"Ġbrandili":11791,"Ġsavana":11792,"Ġinstalacao":11793,"Ġgaming":11794,"numero":11795,"Ġmahogany":11796,"618":11797,"kd":11798,"mico":11799,"Ġpiv":11800,"anca":11801,"tijao":11802,"asonic":11803,"Ġpaula":11804,"Ġ612":11805,"Ġxx":11806,"Ġunic":11807,"1370":11808,"quetel":11809,"Ġdesidra":11810,"carvao":11811,"itada":11812,"Ġcasu":11813,"Ġcrop":11814,"Ġjov":11815,"Ġmetalic":11816,"Ġhook":11817,"gasolina":11818,"Ġpdfo":11819,"Ġside":11820,"Ġcobreleito":11821,"Ġcompact":11822,"Ġlavagem":11823,"Ġrenavam":11824,"Ġciano":11825,"Ġguarnicao":11826,"Ġenfeites":11827,"Ġsachet":11828,"Ġgarras":11829,"Ġnaruto":11830,"Ġfatiado":11831,"ziziensis":11832,"boleira":11833,"forte":11834,"qa":11835,"Ġmir":11836,"Ġ378":11837,"0150":11838,"leg":11839,"Ġunitario":11840,"1170":11841,"Ġion":11842,"Ġarmy":11843,"Ġperol":11844,"umi":11845,"Ġrattan":11846,"melia":11847,"mpos":11848,"Ġuau":11849,"Ġ356":11850,"Ġ1350":11851,"5001":11852,"4002":11853,"Ġ262100":11854,"Ġvaral":11855,"gene":11856,"Ġ461":11857,"ulose":11858,"Ġcbt":11859,"Ġpend":11860,"vdc":11861,"Ġrustic":11862,"pdm":11863,"Ġcolore":11864,"Ġshake":11865,"Ġiluminador":11866,"zani":11867,"Ġdivertida":11868,"Ġequili":11869,"Ġjasmim":11870,"divers":11871,"jh":11872,"sintetico":11873,"tha":11874,"vic":11875,"Ġcura":11876,"0025":11877,"0024":11878,"Ġear":11879,"Ġdep":11880,"Ġlha":11881,"issao":11882,"Ġggg":11883,"Ġ423":11884,"rider":11885,"Ġ615":11886,"Ġlas":11887,"Ġcorp":11888,"queal":11889,"Ġcontorno":11890,"Ġteca":11891,"Ġpera":11892,"Ġcarpete":11893,"Ġ404":11894,"Ġfake":11895,"Ġnogal":11896,"Ġchl":11897,"Ġbrush":11898,"Ġens":11899,"Ġuti":11900,"Ġ1130":11901,"Ġ805":11902,"Ġvii":11903,"onador":11904,"Ġ78956":11905,"Ġasti":11906,"Ġsalsa":11907,"Ġbucal":11908,"Ġcristo":11909,"Ġintercooler":11910,"agp":11911,"lens":11912,"Ġunisex":11913,"Ġfrutap":11914,"stencil":11915,"acessorios":11916,"Ġsagrada":11917,"613":11918,"814":11919,"922":11920,"fran":11921,"mina":11922,"pip":11923,"Ġpgg":11924,"caibro":11925,"alm":11926,"Ġ1030":11927,"Ġmash":11928,"Ġpoltrona":11929,"Ġanthracite":11930,"turado":11931,"Ġamb":11932,"Ġbrc":11933,"brum":11934,"mbar":11935,"3101":11936,"1017":11937,"Ġhouse":11938,"Ġ0008":11939,"thinner":11940,"Ġphs":11941,"Ġkaki":11942,"Ġtecfil":11943,"Ġsisal":11944,"silencioso":11945,"Ġadapt":11946,"metista":11947,"Ġuniver":11948,"espiral":11949,"Ġoutdoor":11950,"lapiseira":11951,"Ġaventura":11952,"Ġventosa":11953,"Ġversatil":11954,"liquidificador":11955,"Ġevangelica":11956,"Ġitemov":11957,"farofa":11958,"624":11959,"pinha":11960,"Ġlh":11961,"Ġlenovo":11962,"Ġgin":11963,"asso":11964,"lubri":11965,"lubrax":11966,"inamento":11967,"Ġ990":11968,"chicle":11969,"Ġ1005":11970,"Ġtribu":11971,"rald":11972,"Ġchal":11973,"Ġ368":11974,"buque":11975,"Ġluis":11976,"poly":11977,"Ġ2202":11978,"Ġparr":11979,"3005":11980,"Ġsolapa":11981,"phil":11982,"Ġprofes":11983,"Ġluminos":11984,"Ġfolheada":11985,"Ġtresse":11986,"ffee":11987,"Ġmarinh":11988,"xicara":11989,"Ġtecidos":11990,"Ġhospita":11991,"itriz":11992,"Ġhunter":11993,"Ġfluorescente":11994,"389":11995,"760":11996,"bule":11997,"cinho":11998,"qd":11999,"tnt":12000,"Ġsma":12001,"Ġbele":12002,"Ġ342":12003,"Ġvx":12004,"elba":12005,"onder":12006,"Ġ424":12007,"Ġinstru":12008,"Ġkl":12009,"Ġkitano":12010,"Ġhip":12011,"Ġlacos":12012,"Ġlactose":12013,"Ġ920":12014,"lassi":12015,"Ġmaguary":12016,"Ġparar":12017,"chup":12018,"Ġmob":12019,"peres":12020,"guinho":12021,"Ġ1006":12022,"Ġraca":12023,"Ġpolicarbonato":12024,"Ġanda":12025,"Ġpoint":12026,"Ġchess":12027,"anteparo":12028,"Ġexpositor":12029,"Ġ457":12030,"marim":12031,"Ġresta":12032,"051":12033,"bridor":12034,"cosul":12035,"Ġsensa":12036,"Ġuse":12037,"Ġsurpresa":12038,"aplicador":12039,"Ġbarbear":12040,"Ġbeeight":12041,"Ġbeija":12042,"vibrador":12043,"098":12044,"mss":12045,"catal":12046,"tamm":12047,"Ġfinas":12048,"Ġgps":12049,"esi":12050,"esti":12051,"Ġparadis":12052,"tensil":12053,"Ġteens":12054,"Ġraiz":12055,"ortex":12056,"lander":12057,"Ġ789127":12058,"Ġvag":12059,"kata":12060,"Ġantibac":12061,"sifao":12062,"pardo":12063,"timchip":12064,"Ġaviamento":12065,"Ġschutz":12066,"Ã³leo":12067,"bombom":12068,"Ġessentials":12069,"Ġfuracao":12070,"Ġdrop":12071,"Ġdivisorias":12072,"Ġwheels":12073,"Ġalpha":12074,"desempen":12075,"063":12076,"718":12077,"kinho":12078,"ods":12079,"sig":12080,"vilho":12081,"reador":12082,"Ġaguia":12083,"Ġsqueeze":12084,"arias":12085,"Ġ495":12086,"Ġrene":12087,"look":12088,"Ġemba":12089,"Ġembre":12090,"Ġaluno":12091,"Ġdiva":12092,"Ġwp":12093,"Ġconicos":12094,"Ġbabuche":12095,"Ġsecar":12096,"Ġlisos":12097,"3800":12098,"Ġfam":12099,"veludo":12100,"Ġ249":12101,"Ġgau":12102,"Ġ382":12103,"desa":12104,"Ġ057":12105,"Ġmeninas":12106,"donto":12107,"Ġatf":12108,"Ġtorcido":12109,"kombi":12110,"Ġplissa":12111,"Ġfolhagens":12112,"Ġ1200000":12113,"matizado":12114,"colorante":12115,"Ġhigienica":12116,"Ġglobal":12117,"Ġyour":12118,"blush":12119,"Ġexclusiva":12120,"825":12121,"aren":12122,"snow":12123,"ender":12124,"Ġcaderno":12125,"Ġ513":12126,"bowl":12127,"12000":12128,"Ġkt":12129,"Ġhz":12130,"Ġalvo":12131,"Ġbotone":12132,"Ġ163":12133,"2120":12134,"Ġcxrolo":12135,"mania":12136,"Ġ1750":12137,"green":12138,"ficada":12139,"Ġdescarpack":12140,"Ġespacador":12141,"Ġgeometrica":12142,"pioca":12143,"Ġfiveblu":12144,"Ġsuperficie":12145,"088":12146,"924":12147,"ev":12148,"ecos":12149,"his":12150,"oz":12151,"vinagre":12152,"teen":12153,"Ġay":12154,"Ġbcret":12155,"Ġ299":12156,"Ġconex":12157,"Ġreci":12158,"Ġ076":12159,"Ġ068":12160,"iodo":12161,"Ġhan":12162,"Ġ1060":12163,"Ġconne":12164,"Ġsober":12165,"Ġproducao":12166,"Ġansi":12167,"Ġ0120":12168,"Ġdeserto":12169,"Ġplastic":12170,"Ġbear":12171,"Ġacc":12172,"cut":12173,"longador":12174,"Ġfoil":12175,"Ġ4600":12176,"banheira":12177,"Ġbrachiaria":12178,"Ġcamisetas":12179,"Ġign":12180,"Ġhorti":12181,"Ġlince":12182,"Ġvrd":12183,"Ġrgd":12184,"Ġbamboo":12185,"Ġtranspassada":12186,"Ġcarburador":12187,"Ġanatomica":12188,"Ġxicara":12189,"Ġesferica":12190,"Ġinfanto":12191,"inserto":12192,"0300":12193,"apar":12194,"ora":12195,"vb":12196,"wall":12197,"Ġpir":12198,"ralo":12199,"orna":12200,"Ġsole":12201,"Ġ332":12202,"elly":12203,"Ġ645":12204,"gamento":12205,"Ġ712":12206,"vej":12207,"Ġnadir":12208,"Ġcarto":12209,"Ġlistr":12210,"Ġinfor":12211,"Ġtriangular":12212,"landa":12213,"joy":12214,"joelheira":12215,"Ġuf":12216,"Ġjetta":12217,"Ġtransm":12218,"3110":12219,"Ġcrea":12220,"suvinil":12221,"058":12222,"Ġnaturale":12223,"Ġbracol":12224,"Ġmaxion":12225,"Ġused":12226,"ponto":12227,"Ġtang":12228,"Ġbale":12229,"Ġmalva":12230,"Ġfrut":12231,"Ġauri":12232,"Ġcaracol":12233,"Ġcarretel":12234,"Ġstand":12235,"imagem":12236,"Ġboneco":12237,"Ġtranc":12238,"rodape":12239,"Ġangelim":12240,"Ġwall":12241,"Ġsincronizador":12242,"promocao":12243,"Ġpequenas":12244,"Ġexecutiva":12245,"carimbo":12246,"dres":12247,"sÃ£o":12248,"wal":12249,"orig":12250,"Ġsyl":12251,"Ġsonata":12252,"Ġ30000":12253,"01800":12254,"maionese":12255,"Ġ9003":12256,"Ġmato":12257,"icago":12258,"calcao":12259,"Ġ1000000":12260,"Ġsaint":12261,"1901":12262,"Ġtesoura":12263,"itarios":12264,"Ġug":12265,"Ġsemia":12266,"Ġlirio":12267,"Ġcanvas":12268,"Ġelev":12269,"Ġportao":12270,"Ġtransferencia":12271,"Ġriviera":12272,"Ġ0009":12273,"Ġduzani":12274,"Ġlander":12275,"baste":12276,"pantufa":12277,"Ġmalte":12278,"link":12279,"Ġcamadas":12280,"Ġumed":12281,"curso":12282,"ickmann":12283,"Ġmussarela":12284,"Ġalegria":12285,"coloracao":12286,"Ġdivertido":12287,"Ġabobora":12288,"Ġsobrancelhas":12289,"Ġesfoliante":12290,"095":12291,"fiorino":12292,"ment":12293,"oh":12294,"sli":12295,"vh":12296,"wr":12297,"ingo":12298,"Ġsmall":12299,"Ġfdo":12300,"quivo":12301,"Ġ622":12302,"Ġalm":12303,"Ġoccb":12304,"Ġarmor":12305,"Ġtok":12306,"juncao":12307,"Ġneck":12308,"8535":12309,"corbranco":12310,"Ġ358":12311,"lexo":12312,"premio":12313,"Ġpratic":12314,"Ġantiga":12315,"Ġfibras":12316,"estyle":12317,"Ġbls":12318,"vital":12319,"Ġfront":12320,"Ġruziziensis":12321,"Ġrpm":12322,"Ġdanone":12323,"Ġganchos":12324,"Ġplanetaria":12325,"Ġ89550":12326,"Ġprecisao":12327,"recobrimento":12328,"Ġmetaloplastica":12329,"chaleira":12330,"780":12331,"cum":12332,"hinha":12333,"ike":12334,"liso":12335,"minha":12336,"sti":12337,"soleira":12338,"vos":12339,"xm":12340,"yp":12341,"Ġeix":12342,"istica":12343,"Ġcotovelo":12344,"Ġ341":12345,"Ġnip":12346,"Ġtto":12347,"emme":12348,"Ġpaci":12349,"Ġpaixao":12350,"Ġ6400":12351,"Ġitam":12352,"Ġdiet":12353,"pegador":12354,"Ġsoq":12355,"Ġcarna":12356,"3400":12357,"Ġbeef":12358,"canivete":12359,"Ġplaya":12360,"Ġmicras":12361,"past":12362,"Ġguidao":12363,"Ġguitarra":12364,"cinpa":12365,"Ġpitanga":12366,"Ġfranzida":12367,"compon":12368,"Ġmercosul":12369,"Ġnasal":12370,"tricot":12371,"Ġcitrico":12372,"Ġ00860":12373,"subli":12374,"Ġestria":12375,"corazul":12376,"Ġwild":12377,"Ġpratika":12378,"Ġathle":12379,"Ġaveludado":12380,"Ġeffic":12381,"schad":12382,"Ġhospitalar":12383,"078":12384,"3100":12385,"770":12386,"840":12387,"edo":12388,"hip":12389,"wk":12390,"zar":12391,"Ġpana":12392,"ĠmÃ³":12393,"Ġdimen":12394,"Ġagata":12395,"lacre":12396,"cot":12397,"esis":12398,"Ġomo":12399,"ranger":12400,"1023":12401,"Ġ80005":12402,"Ġ1220":12403,"Ġcorcinza":12404,"tory":12405,"1510":12406,"meu":12407,"Ġwill":12408,"Ġteuto":12409,"Ġ503":12410,"Ġ18000":12411,"Ġspark":12412,"057":12413,"Ġ264":12414,"Ġguil":12415,"592":12416,"Ġflanela":12417,"Ġvenus":12418,"Ġdelivery":12419,"medor":12420,"Ġ1151":12421,"curta":12422,"Ġnascido":12423,"Ġitaliano":12424,"titucional":12425,"Ġhibisco":12426,"Ġpalmeiras":12427,"Ġaspiracao":12428,"Ġtabuas":12429,"espigao":12430,"ĠfumÃª":12431,"Ġpinceis":12432,"Ġturmalina":12433,"690":12434,"644":12435,"830":12436,"jer":12437,"nha":12438,"oo":12439,"odor":12440,"sna":12441,"0029":12442,"terapia":12443,"Ġametista":12444,"Ġcover":12445,"Ġ3300":12446,"Ġvans":12447,"0111":12448,"Ġreino":12449,"Ġobs":12450,"icha":12451,"Ġdoct":12452,"2210":12453,"Ġmoido":12454,"urso":12455,"mero":12456,"Ġsabao":12457,"Ġadubo":12458,"beto":12459,"Ġpoco":12460,"itas":12461,"ady":12462,"Ġent":12463,"Ġui":12464,"Ġcomputador":12465,"3201":12466,"polpa":12467,"Ġ262":12468,"bandeira":12469,"Ġpresunto":12470,"862":12471,"Ġpanasonic":12472,"Ġmagnesio":12473,"disj":12474,"Ġlubrif":12475,"omega":12476,"Ġboni":12477,"Ġeuropa":12478,"Ġleitoso":12479,"Ġdefletor":12480,"Ġrespitec":12481,"Ġexclusivo":12482,"Ġcherry":12483,"Ġmandala":12484,"Ġlembrancinha":12485,"termostato":12486,"Ġsatelite":12487,"bros":12488,"dante":12489,"goria":12490,"kon":12491,"mortadela":12492,"vk":12493,"Ġbits":12494,"Ġ397":12495,"Ġgus":12496,"arg":12497,"Ġ417":12498,"Ġ584":12499,"Ġ611":12500,"Ġ695":12501,"Ġ667":12502,"trav":12503,"1318":12504,"Ġbou":12505,"Ġteam":12506,"soja":12507,"Ġcaribe":12508,"Ġ407":12509,"Ġvalen":12510,"Ġdesk":12511,"Ġgaze":12512,"Ġcalda":12513,"Ġ907":12514,"Ġserig":12515,"byte":12516,"Ġsilico":12517,"1404":12518,"herme":12519,"Ġ1011":12520,"Ġkodak":12521,"Ġunique":12522,"Ġamendoas":12523,"Ġfisica":12524,"Ġtrue":12525,"Ġtonal":12526,"Ġirrigacao":12527,"Ġbeleza":12528,"860":12529,"wf":12530,"Ġcfe":12531,"ragon":12532,"tector":12533,"Ġcop":12534,"argamassa":12535,"espre":12536,"esguicho":12537,"Ġcaibro":12538,"osul":12539,"Ġ713":12540,"Ġ1025":12541,"Ġcortado":12542,"mela":12543,"1650":12544,"sea":12545,"jax":12546,"Ġtrack":12547,"Ġtravante":12548,"Ġpebd":12549,"Ġpepper":12550,"Ġantar":12551,"lancheira":12552,"Ġgatinha":12553,"Ġplafon":12554,"posito":12555,"Ġsilverado":12556,"volvo":12557,"adap":12558,"Ġcute":12559,"Ġbelga":12560,"Ġcabeceira":12561,"Ġmotores":12562,"Ġsiemens":12563,"Ġcarneiro":12564,"Ġneutra":12565,"Ġporcelanato":12566,"Ġcavalete":12567,"flori":12568,"Ġprogresso":12569,"Ġrespiro":12570,"drive":12571,"cartago":12572,"Ġinvictus":12573,"Ġsobrancelha":12574,"Ġgigabyte":12575,"enxada":12576,"Ġoceano":12577,"Ġrevestida":12578,"926":12579,"nbr":12580,"nut":12581,"slip":12582,"vig":12583,"rone":12584,"Ġebano":12585,"Ġ349":12586,"elle":12587,"Ġrelacao":12588,"20210":12589,"Ġrox":12590,"Ġmamadeira":12591,"2220":12592,"Ġloten":12593,"Ġ1550":12594,"Ġprocessador":12595,"Ġdac":12596,"limao":12597,"Ġmangote":12598,"berloque":12599,"ings":12600,"Ġtig":12601,"plato":12602,"Ġcombina":12603,"bord":12604,"exp":12605,"extrator":12606,"Ġrecorta":12607,"viseira":12608,"Ġbicos":12609,"Ġtank":12610,"Ġabdo":12611,"Ġlavador":12612,"Ġexpans":12613,"tematica":12614,"Ġdani":12615,"Ġcriancas":12616,"icanga":12617,"Ġthermo":12618,"Ġparadise":12619,"623":12620,"626":12621,"jt":12622,"Ġponte":12623,"0019":12624,"tape":12625,"Ġbeta":12626,"Ġfv":12627,"Ġcoo":12628,"Ġ343":12629,"davel":12630,"Ġvilla":12631,"Ġnico":12632,"0124":12633,"Ġregua":12634,"ilus":12635,"Ġour":12636,"Ġprens":12637,"gabriela":12638,"Ġ1040":12639,"1111":12640,"Ġbora":12641,"Ġpegada":12642,"Ġprom":12643,"Ġrafia":12644,"Ġcht":12645,"heto":12646,"mudas":12647,"Ġ807":12648,"Ġserial":12649,"0109":12650,"056":12651,"vasta":12652,"montana":12653,"Ġglico":12654,"adapt":12655,"1102":12656,"Ġtorrado":12657,"Ġfuncional":12658,"Ġpontos":12659,"Ġgengibre":12660,"Ġbrasileira":12661,"Ġwear":12662,"Ġevap":12663,"Ġfixas":12664,"Ġcamping":12665,"Ġkibon":12666,"Ġ266100":12667,"imentao":12668,"atadura":12669,"ccau":12670,"Ġeconomico":12671,"Ġamortece":12672,"Ġembalagens":12673,"Ġenvelhecido":12674,"Ġ78998923":12675,"Ġthompson":12676,"Ġrenegade":12677,"433":12678,"513":12679,"835":12680,"eve":12681,"nol":12682,"Ġpne":12683,"Ġpip":12684,"ĠpÃ©":12685,"Ġmignon":12686,"Ġbelo":12687,"Ġfed":12688,"Ġepdm":12689,"hair":12690,"5050":12691,"ranto":12692,"ranga":12693,"Ġcabra":12694,"1034":12695,"Ġhik":12696,"1114":12697,"babador":12698,"Ġmorelli":12699,"Ġmocassim":12700,"ressiva":12701,"getico":12702,"Ġensa":12703,"Ġengre":12704,"Ġforoni":12705,"Ġondas":12706,"Ġimo":12707,"Ġsmile":12708,"grafo":12709,"cadilly":12710,"Ġtubinho":12711,"Ġretrov":12712,"Ġfardo":12713,"Ġmassageador":12714,"Ġbatavo":12715,"Ġtartaruga":12716,"atacador":12717,"Ġarranque":12718,"089":12719,"067":12720,"621":12721,"646":12722,"Ġclu":12723,"incho":12724,"Ġfq":12725,"Ġ437":12726,"0121":12727,"rier":12728,"Ġintimus":12729,"Ġ100240":12730,"Ġmarina":12731,"1418":12732,"jada":12733,"2401":12734,"Ġramada":12735,"Ġ359":12736,"mbps":12737,"Ġspl":12738,"Ġservo":12739,"Ġrico":12740,"4005":12741,"581":12742,"Ġadulta":12743,"Ġfilamento":12744,"Ġbordar":12745,"Ġgeforce":12746,"Ġcapitao":12747,"Ġbrinquedos":12748,"Ġpelica":12749,"Ġfisio":12750,"Ġquartzolit":12751,"Ġglace":12752,"Ġamargo":12753,"asaki":12754,"Ġsinalizacao":12755,"aveia":12756,"hidratante":12757,"amanco":12758,"Ġcaminhada":12759,"099":12760,"abas":12761,"nx":12762,"pura":12763,"slo":12764,"alim":12765,"Ġcoat":12766,"Ġvf":12767,"ong":12768,"Ġ565":12769,"icum":12770,"Ġlaka":12771,"1612":12772,"Ġmartelo":12773,"Ġwindo":12774,"1710":12775,"Ġazule":12776,"kits":12777,"liz":12778,"Ġdesone":12779,"Ġlez":12780,"Ġencapa":12781,"Ġacd":12782,"Ġmedalha":12783,"Ġmodel":12784,"Ġfrequencia":12785,"Ġcolorir":12786,"Ġsher":12787,"Ġmontar":12788,"Ġ0600":12789,"fire":12790,"Ġbuba":12791,"gargantilha":12792,"Ġblogueira":12793,"Ġbengala":12794,"Ġorganza":12795,"Ġcerv":12796,"Ġfreezer":12797,"Ġnumeros":12798,"Ãªn":12799,"Ġbipar":12800,"thians":12801,"Ġsnoop":12802,"Ġdesonerado":12803,"085":12804,"427":12805,"abridor":12806,"bru":12807,"tine":12808,"urance":12809,"xd":12810,"cala":12811,"camel":12812,"tera":12813,"Ġsnow":12814,"down":12815,"0125":12816,"Ġtsi":12817,"Ġcomfy":12818,"Ġprep":12819,"Ġmatrix":12820,"pea":12821,"Ġcontras":12822,"Ġ0014":12823,"Ġmelange":12824,"plac":12825,"Ġpingo":12826,"Ġ056":12827,"Ġcremosa":12828,"Ġjogos":12829,"Ġasme":12830,"Ġdist":12831,"593":12832,"Ġpires":12833,"Ġpanelas":12834,"phy":12835,"Ġvenc":12836,"Ġsarrafo":12837,"vinos":12838,"Ġrsf":12839,"Ġcoloracao":12840,"fruteira":12841,"noserie":12842,"Ġpicador":12843,"Ġgrow":12844,"Ġendure":12845,"Ġhusq":12846,"Ġcategoria":12847,"Ġcorinthians":12848,"074":12849,"819":12850,"dun":12851,"frango":12852,"gir":12853,"ible":12854,"ror":12855,"rho":12856,"spo":12857,"tts":12858,"tule":12859,"Ġica":12860,"teto":12861,"tain":12862,"Ġatom":12863,"laia":12864,"Ġ389":12865,"enic":12866,"Ġ498":12867,"sazul":12868,"Ġreco":12869,"made":12870,"quito":12871,"Ġ526":12872,"Ġ536":12873,"Ġ7200":12874,"cid":12875,"Ġ0025":12876,"novilha":12877,"Ġbaterias":12878,"Ġtricae":12879,"very":12880,"Ġuz":12881,"Ġutensil":12882,"Ġluvas":12883,"Ġcalibra":12884,"Ġjoias":12885,"Ġdianteir":12886,"Ġhotel":12887,"Ġ78925":12888,"Ġ0003":12889,"estre":12890,"1104":12891,"Ġdello":12892,"Ġpdv":12893,"Ġbicro":12894,"Ġmorce":12895,"Ġsubmer":12896,"Ġessencia":12897,"Ġpassaros":12898,"grande":12899,"Ġcereal":12900,"Ġreceptor":12901,"Ġovers":12902,"Ġnesk":12903,"Ġargolas":12904,"desempenadeira":12905,"3200":12906,"514":12907,"abra":12908,"bia":12909,"Ġapc":12910,"Ġapr":12911,"Ġfral":12912,"rias":12913,"Ġ067":12914,"Ġroth":12915,"vata":12916,"Ġemblema":12917,"icola":12918,"moda":12919,"inoa":12920,"Ġpearl":12921,"umidificador":12922,"Ġanterior":12923,"2110":12924,"Ġcaseira":12925,"Ġ1170":12926,"Ġdenso":12927,"prt":12928,"4004":12929,"vanna":12930,"filamento":12931,"iliano":12932,"prador":12933,"Ġtorno":12934,"Ġveste":12935,"Ġmonof":12936,"Ġhorse":12937,"Ġshot":12938,"Ġorganica":12939,"Ġrsv":12940,"Ġcraveja":12941,"Ġcravinho":12942,"Ġpassaro":12943,"Ġlumina":12944,"Ġagricultura":12945,"mentado":12946,"Ġsofia":12947,"sulfato":12948,"switch":12949,"Ġespelhada":12950,"Ġcondensador":12951,"Ġmanopla":12952,"Ġjorge":12953,"Ġemail":12954,"ameixa":12955,"Ġcompartimento":12956,"Ġdocthos":12957,"568":12958,"6300":12959,"911":12960,"aqua":12961,"elar":12962,"ique":12963,"ipro":12964,"nivel":12965,"wx":12966,"caccau":12967,"remov":12968,"Ġscreen":12969,"Ġete":12970,"Ġdebrum":12971,"erta":12972,"dobf":12973,"Ġgx":12974,"escap":12975,"Ġ442":12976,"Ġ073":12977,"tamg":12978,"Ġrobo":12979,"Ġ735":12980,"1230":12981,"00099":12982,"loreto":12983,"goiaba":12984,"ivas":12985,"Ġ0040":12986,"Ġtecla":12987,"jac":12988,"Ġnauti":12989,"Ġbacia":12990,"Ġracing":12991,"Ġ2540":12992,"ulario":12993,"Ġlegen":12994,"Ġtixan":12995,"Ġacougue":12996,"proflex":12997,"raspador":12998,"ggg":12999,"Ġpratico":13000,"mijao":13001,"Ġ054":13002,"bium":13003,"irty":13004,"Ġbiblia":13005,"6450":13006,"Ġanticha":13007,"Ġrecup":13008,"Ġbordados":13009,"zeiro":13010,"Ġredragon":13011,"Ġmilon":13012,"1308":13013,"Ġmeriva":13014,"Ġshop":13015,"bens":13016,"Ġbiscuit":13017,"solda":13018,"Ġindustrializacao":13019,"Ġcarters":13020,"Ġbandana":13021,"Ġstrike":13022,"Ġlilica":13023,"Ġtermostato":13024,"resistor":13025,"kidy":13026,"Ġperfurante":13027,"Ġaveludada":13028,"Ġpowder":13029,"Ġ97885":13030,"Ġrubber":13031,"Ġqueimado":13032,"648":13033,"egeo":13034,"fedr":13035,"lgo":13036,"stan":13037,"vult":13038,"inario":13039,"caixas":13040,"redon":13041,"reboque":13042,"Ġacm":13043,"Ġstil":13044,"Ġsms":13045,"Ġsingle":13046,"robe":13047,"costela":13048,"Ġtort":13049,"quimetro":13050,"1070":13051,"Ġinco":13052,"Ġinser":13053,"Ġkc":13054,"Ġhial":13055,"Ġlapela":13056,"Ġmap":13057,"Ġ1240":13058,"Ġcorfio":13059,"Ġemp":13060,"8080":13061,"nov":13062,"Ġraposa":13063,"Ġmantimento":13064,"Ġmanicure":13065,"rafia":13066,"Ġ6063":13067,"Ġportaria":13068,"pirante":13069,"Ġ22607":13070,"Ġtucson":13071,"etq":13072,"Ġbrazil":13073,"ferra":13074,"Ġpernas":13075,"Ġeletric":13076,"Ġminions":13077,"Ġfruit":13078,"Ġpenelope":13079,"Ġniely":13080,"presso":13081,"Ġblocos":13082,"bell":13083,"Ġpuls":13084,"pfdobf":13085,"Ġthirty":13086,"Ġrust":13087,"Ġeverlast":13088,"tornozeleira":13089,"Ġdestroyer":13090,"Ġportuguesa":13091,"Ġ7896033":13092,"Ġnautico":13093,"Ġmanhattan":13094,"chumbador":13095,"Ġsauvignon":13096,"conazol":13097,"Ġguilherme":13098,"068":13099,"616":13100,"fino":13101,"gk":13102,"rh":13103,"Ġcbr":13104,"Ġctr":13105,"Ġppo":13106,"inst":13107,"induzido":13108,"toyota":13109,"Ġvola":13110,"Ġ419":13111,"ranio":13112,"1046":13113,"Ġpado":13114,"ustivel":13115,"Ġ899":13116,"Ġ877":13117,"4042":13118,"Ġ1215":13119,"2213":13120,"selante":13121,"separador":13122,"Ġsacos":13123,"Ġconhaque":13124,"1750":13125,"Ġcarv":13126,"Ġbasquete":13127,"2160":13128,"Ġfaixas":13129,"Ġmelamina":13130,"Ġbrux":13131,"4400":13132,"ministra":13133,"Ġligado":13134,"ppes":13135,"Ġsolid":13136,"Ġparc":13137,"biq":13138,"Ġjazz":13139,"Ġtrw":13140,"Ġsalva":13141,"mallow":13142,"ficar":13143,"foto":13144,"tions":13145,"Ġfrancis":13146,"Ġdoses":13147,"micina":13148,"Ġisolada":13149,"Ġchevette":13150,"Ġestofado":13151,"Ġabert":13152,"Ġlavander":13153,"vitro":13154,"Ġnappa":13155,"Ġutilizados":13156,"Ġsupremo":13157,"Ġsecretaria":13158,"Ġcondensado":13159,"Ġtrapezio":13160,"Ġsustentacao":13161,"Ġcosmeticos":13162,"ĠplÃ¡stico":13163,"Ġvaretas":13164,"Ġergonom":13165,"salgadinho":13166,"Ġvolei":13167,"Ġplissada":13168,"Ġefficient":13169,"ponte":13170,"Ġpull":13171,"Ġdrea":13172,"Ġafo":13173,"Ġske":13174,"Ġ231":13175,"eria":13176,"Ġ376":13177,"Ġgiv":13178,"Ġ40000":13179,"Ġ089":13180,"Ġcadence":13181,"Ġjump":13182,"Ġmai":13183,"Ġmoj":13184,"zacao":13185,"1315":13186,"Ġ1003":13187,"Ġnati":13188,"Ġnail":13189,"Ġnatacao":13190,"Ġrama":13191,"2301":13192,"Ġinfant":13193,"rent":13194,"Ġ242":13195,"ffel":13196,"Ġeleva":13197,"margarina":13198,"Ġsilencioso":13199,"Ġbanqueta":13200,"side":13201,"Ġosmo":13202,"Ġcristalia":13203,"Ġcamur":13204,"Ġbaloes":13205,"Ġaud":13206,"Ġoxidado":13207,"Ġreferencia":13208,"susp":13209,"feltro":13210,"Ġabrir":13211,"Ġtouring":13212,"Ġjohnson":13213,"Ġgarrafas":13214,"Ġsulfite":13215,"vastatina":13216,"biz":13217,"hx":13218,"0026":13219,"caf":13220,"Ġatoalha":13221,"Ġaparel":13222,"Ġawg":13223,"timate":13224,"Ġ069":13225,"rantes":13226,"Ġcatar":13227,"Ġindu":13228,"bosa":13229,"gaiola":13230,"oster":13231,"Ġkds":13232,"Ġmago":13233,"Ġcortar":13234,"nature":13235,"1420":13236,"Ġpec":13237,"Ġpetra":13238,"Ġrefres":13239,"umos":13240,"Ġ182":13241,"lantes":13242,"ssel":13243,"Ġtai":13244,"Ġelastic":13245,"Ġpassos":13246,"Ġpisos":13247,"Ġperi":13248,"visc":13249,"treiro":13250,"pestana":13251,"Ġmagnum":13252,"Ġ1015":13253,"bilizador":13254,"Ġbrasilia":13255,"Ġmacaco":13256,"Ġassurance":13257,"motobomba":13258,"Ġreguladora":13259,"ensis":13260,"Ġflatform":13261,"abajur":13262,"Ġsyn":13263,"Ġacoplada":13264,"Ġherois":13265,"Ġindiana":13266,"Ġbrochura":13267,"umaru":13268,"Ġcomponentes":13269,"Ġhibrido":13270,"pfdobfrio":13271,"614":13272,"813":13273,"836":13274,"919":13275,"amar":13276,"bica":13277,"oto":13278,"ofw":13279,"Ġcdigo":13280,"lazz":13281,"Ġlolla":13282,"alia":13283,"Ġtron":13284,"iato":13285,"deirinha":13286,"Ġ077":13287,"Ġ072":13288,"Ġesfre":13289,"Ġpadaria":13290,"Ġ618":13291,"Ġintro":13292,"itt":13293,"Ġ714":13294,"Ġmamae":13295,"Ġ1201":13296,"1117":13297,"guinha":13298,"Ġnamora":13299,"talco":13300,"cereal":13301,"Ġrace":13302,"Ġmanip":13303,"Ġtric":13304,"Ġpool":13305,"tub":13306,"Ġtribfedr":13307,"cue":13308,"Ġ051":13309,"Ġwhi":13310,"tomia":13311,"etto":13312,"059":13313,"Ġmultimidia":13314,"062":13315,"placamae":13316,"Ġclose":13317,"Ġlanche":13318,"Ġtexana":13319,"sport":13320,"Ġbiogas":13321,"Ġsmartphone":13322,"Ġsteck":13323,"Ġsimilar":13324,"Ġescovas":13325,"Ġicon":13326,"Ġjapones":13327,"Ġgoody":13328,"647":13329,"kal":13330,"slim":13331,"ĠÃ¡":13332,"rac":13333,"cof":13334,"Ġvortex":13335,"Ġ427":13336,"Ġnd":13337,"hoque":13338,"embu":13339,"Ġ529":13340,"Ġ555":13341,"Ġ544":13342,"Ġ546":13343,"Ġ816":13344,"Ġunna":13345,"Ġ915":13346,"Ġmah":13347,"Ġcordo":13348,"Ġitens":13349,"Ġ1510":13350,"Ġpeach":13351,"cere":13352,"Ġ1950":13353,"Ġtribestr":13354,"Ġ287":13355,"Ġskala":13356,"Ġ0004":13357,"Ġaspirador":13358,"Ġpuc":13359,"entado":13360,"Ġinterm":13361,"Ġvedador":13362,"block":13363,"folhas":13364,"bene":13365,"Ġgirafa":13366,"hler":13367,"Ġtrek":13368,"Ġfrase":13369,"Ġprincipe":13370,"Ġjust":13371,"Ġpeitoral":13372,"Ġcrescimento":13373,"Ġarredonda":13374,"Ġstudio":13375,"Ġnavalha":13376,"Ġassimetrica":13377,"Ġatividades":13378,"890":13379,"bj":13380,"kol":13381,"sys":13382,"inv":13383,"Ġacon":13384,"anos":13385,"Ġcoel":13386,"Ġgte":13387,"Ġgiii":13388,"rior":13389,"Ġ585":13390,"Ġ533":13391,"Ġ6200":13392,"Ġ715":13393,"Ġjm":13394,"meto":13395,"1310":13396,"1880":13397,"Ġ0035":13398,"ceram":13399,"Ġcarimbo":13400,"8900":13401,"Ġ406":13402,"Ġanual":13403,"marmita":13404,"Ġmonange":13405,"claro":13406,"Ġ400000":13407,"Ġ391":13408,"sucata":13409,"Ġfora":13410,"quetao":13411,"serum":13412,"Ġfern":13413,"chibra":13414,"Ġfronha":13415,"Ġheart":13416,"reator":13417,"flsrm":13418,"Ġvariado":13419,"Ġventoinha":13420,"404068":13421,"cupira":13422,"virabrequim":13423,"Ġexpandido":13424,"incenso":13425,"pipeta":13426,"Ġsnoopy":13427,"awg":13428,"ego":13429,"gios":13430,"rn":13431,"Ġdj":13432,"caina":13433,"Ġajax":13434,"dau":13435,"saquinho":13436,"2034":13437,"Ġlag":13438,"Ġ970":13439,"peixe":13440,"nac":13441,"1850":13442,"Ġsac":13443,"Ġdamasco":13444,"Ġsepara":13445,"Ġlisboa":13446,"Ġcalcas":13447,"Ġcanivete":13448,"Ġmedi":13449,"canula":13450,"Ġmicelar":13451,"1503":13452,"derm":13453,"Ġasf":13454,"Ġsaldo":13455,"Ġreclina":13456,"Ġ291":13457,"Ġglp":13458,"Ġglicer":13459,"diafragma":13460,"Ġqueratina":13461,"crus":13462,"Ġsuspensa":13463,"Ġbell":13464,"microfibra":13465,"Ġtempra":13466,"fonado":13467,"Ġvirada":13468,"Ġleitosa":13469,"Ġpicante":13470,"Ġdefini":13471,"Ġbullet":13472,"Ġdisponivel":13473,"Ġprogressiva":13474,"Ġcyber":13475,"Ġeaton":13476,"adesivos":13477,"Ġglambox":13478,"Ġcaixinha":13479,"Ġkawasaki":13480,"Ġsneaker":13481,"822":13482,"bits":13483,"equi":13484,"kn":13485,"nil":13486,"tup":13487,"tak":13488,"cost":13489,"tiras":13490,"Ġvmp":13491,"Ġgeno":13492,"energ":13493,"oniere":13494,"Ġ418":13495,"Ġ426":13496,"1049":13497,"Ġ548":13498,"1140":13499,"1119":13500,"urth":13501,"trata":13502,"Ġ1002":13503,"Ġ15000":13504,"Ġextr":13505,"mani":13506,"Ġsupra":13507,"ggy":13508,"Ġmedium":13509,"4900":13510,"cabos":13511,"Ġ283":13512,"1013":13513,"prin":13514,"4003":13515,"costa":13516,"viol":13517,"Ġtintura":13518,"gloss":13519,"bbia":13520,"Ġaramada":13521,"Ġprimeira":13522,"Ġcharm":13523,"Ġsprint":13524,"Ġmodelador":13525,"Ġfortlev":13526,"Ġrisca":13527,"catalogo":13528,"suplemento":13529,"Ġgabinete":13530,"Ġgarapeira":13531,"Ġmarandu":13532,"Ġtelescopica":13533,"cbeproflex":13534,"Ġtrambulador":13535,"Ġathletic":13536,"516":13537,"bh":13538,"dj":13539,"nicho":13540,"qc":13541,"xc":13542,"Ġcnt":13543,"teada":13544,"orto":13545,"Ġgii":13546,"mamba":13547,"Ġovel":13548,"Ġestan":13549,"Ġestudo":13550,"1026":13551,"morango":13552,"Ġwran":13553,"Ġ00010":13554,"Ġfemininas":13555,"rub":13556,"4301":13557,"Ġmicra":13558,"Ġ372":13559,"1505":13560,"Ġelma":13561,"Ġelba":13562,"Ġfergus":13563,"pintura":13564,"Ġwap":13565,"Ġmidea":13566,"Ġpulverizador":13567,"Ġpampers":13568,"Ġnatalino":13569,"Ġtwo":13570,"whisk":13571,"Ġpolyester":13572,"Ġcharme":13573,"Ġvitrine":13574,"Ġlily":13575,"Ġyoga":13576,"Ġarezzo":13577,"Ġfuradeira":13578,"Ġprateleiras":13579,"Ġventilacao":13580,"Ġtoddy":13581,"Ġsiciliano":13582,"Ġpersonagens":13583,"Ġreconstru":13584,"Ġpistache":13585,"Ġdelave":13586,"535":13587,"mult":13588,"nl":13589,"nm":13590,"rinha":13591,"Ġcum":13592,"Ġpup":13593,"ĠpÃ³":13594,"Ġduto":13595,"reza":13596,"Ġ331":13597,"elt":13598,"Ġoz":13599,"emba":13600,"ostato":13601,"3030":13602,"Ġrsa":13603,"Ġmobil":13604,"gual":13605,"Ġwc":13606,"Ġcongela":13607,"Ġnakata":13608,"Ġrefletor":13609,"umante":13610,"Ġpomada":13611,"Ġextern":13612,"Ġcinz":13613,"impulsor":13614,"projetor":13615,"9700":13616,"Ġcrema":13617,"Ġimpulsor":13618,"Ġquadros":13619,"extensor":13620,"Ġdisjuntor":13621,"Ġ1012":13622,"Ġ800000":13623,"gler":13624,"404158":13625,"limitador":13626,"Ġfelic":13627,"funil":13628,"rsf":13629,"Ġfarmax":13630,"mental":13631,"Ġtoyama":13632,"Ġtekbond":13633,"Ġrepair":13634,"Ġdensidade":13635,"Ġniquelado":13636,"Ġcacharel":13637,"Ġsubmersa":13638,"Ġreclinavel":13639,"465":13640,"717":13641,"ay":13642,"ring":13643,"vil":13644,"vida":13645,"zia":13646,"cach":13647,"ory":13648,"Ġatual":13649,"Ġsandal":13650,"anas":13651,"Ġ438":13652,"ilis":13653,"mato":13654,"1038":13655,"Ġ527":13656,"Ġjarra":13657,"loween":13658,"Ġ910":13659,"ixon":13660,"balan":13661,"6060":13662,"cita":13663,"tramontina":13664,"calque":13665,"Ġdip":13666,"Ġmarie":13667,"Ġmargem":13668,"Ġpega":13669,"ceiro":13670,"Ġzal":13671,"Ġ363":13672,"Ġ24000":13673,"tube":13674,"Ġcasinha":13675,"castical":13676,"pport":13677,"Ġsolvente":13678,"4150":13679,"Ġ282":13680,"Ġvidea":13681,"Ġaspen":13682,"Ġ462":13683,"Ġproteico":13684,"Ġclassicos":13685,"tshirts":13686,"tamanhounico":13687,"Ġstrappy":13688,"tronic":13689,"medica":13690,"Ġairsoft":13691,"Ġchuveiro":13692,"Ġdiferenciada":13693,"Ġestriada":13694,"Ġtechnos":13695,"Ġpiracan":13696,"Ġfrascos":13697,"dianteiro":13698,"Ġgeneral":13699,"096":13700,"817":13701,"938":13702,"yes":13703,"0040":13704,"0023":13705,"Ġbrea":13706,"Ġdemol":13707,"Ġ439":13708,"Ġreq":13709,"matriz":13710,"quar":13711,"quart":13712,"1028":13713,"Ġ539":13714,"1211":13715,"Ġ1270":13716,"chan":13717,"Ġbrancas":13718,"9020":13719,"Ġmark":13720,"Ġpean":13721,"Ġproc":13722,"Ġprodu":13723,"Ġbaha":13724,"Ġdesl":13725,"carter":13726,"lani":13727,"3301":13728,"Ġacs":13729,"Ġ387":13730,"Ġcancao":13731,"Ġsolitario":13732,"camisao":13733,"Ġcolheitadeira":13734,"Ġdireta":13735,"Ġric":13736,"sumo":13737,"Ġ78995":13738,"4006":13739,"Ġ481":13740,"Ġfoco":13741,"bancada":13742,"Ġatc":13743,"Ġsaruel":13744,"Ġmolinete":13745,"Ġdelphi":13746,"Ġbuchas":13747,"Ġfelpado":13748,"Ġcsl":13749,"fasica":13750,"Ġeletrodo":13751,"Ġutilizado":13752,"Ġutilitarios":13753,"septico":13754,"Ġpolicloreto":13755,"Ġoakley":13756,"Ġluminoso":13757,"0986":13758,"439":13759,"572":13760,"688":13761,"bem":13762,"fico":13763,"nar":13764,"Ġcw":13765,"ĠcÃ³":13766,"Ġstamp":13767,"Ġbios":13768,"Ġek":13769,"Ġrepu":13770,"2032":13771,"Ġ514":13772,"Ġ534":13773,"Ġpaz":13774,"Ġ624":13775,"Ġ628":13776,"leve":13777,"Ġinmetro":13778,"bovinos":13779,"gato":13780,"Ġ825":13781,"Ġ875":13782,"china":13783,"Ġdots":13784,"Ġfemen":13785,"Ġ2050":13786,"Ġ2030":13787,"Ġmaruri":13788,"Ġarmour":13789,"Ġ1618":13790,"brachiaria":13791,"Ġtripack":13792,"Ġamend":13793,"Ġlips":13794,"marreta":13795,"Ġgravado":13796,"053":13797,"Ġ061":13798,"Ġfofura":13799,"Ġbibl":13800,"Ġfilete":13801,"Ġfranz":13802,"Ġbrite":13803,"Ġdecorativas":13804,"transpirante":13805,"Ġquality":13806,"Ġacesso":13807,"Ġluxor":13808,"escuro":13809,"Ġentremeio":13810,"Ġilumi":13811,"Ġromana":13812,"tensionador":13813,"Ġbandejas":13814,"Ġstory":13815,"generofeminino":13816,"mahle":13817,"bovino":13818,"Ġbichinhos":13819,"Ġumede":13820,"Ġefficientgrip":13821,"536":13822,"city":13823,"ofer":13824,"daia":13825,"enix":13826,"Ġodonto":13827,"quen":13828,"Ġcau":13829,"1048":13830,"Ġpref":13831,"Ġ699":13832,"Ġ835":13833,"Ġlaura":13834,"varao":13835,"Ġ1210":13836,"Ġ1224":13837,"2250":13838,"Ġverd":13839,"Ġbotica":13840,"Ġmarluvas":13841,"Ġwm":13842,"tilico":13843,"Ġtetra":13844,"lizado":13845,"Ġchassis":13846,"Ġ1120":13847,"054":13848,"Ġhom":13849,"Ġ78918":13850,"jetos":13851,"Ġblk":13852,"agente":13853,"Ġprofundo":13854,"Ġposticos":13855,"tronas":13856,"Ġmatt":13857,"Ġpsl":13858,"Ġilus":13859,"Ġairbag":13860,"Ġmueller":13861,"Ġintens":13862,"zanlgo":13863,"Ġtimken":13864,"cartaz":13865,"Ġsublime":13866,"Ġkolosh":13867,"Ġcondicr":13868,"Ġinspira":13869,"convite":13870,"mecanismo":13871,"Ġhuggies":13872,"Ġlevanta":13873,"Ġenemig":13874,"removedor":13875,"436":13876,"5010":13877,"acao":13878,"age":13879,"jv":13880,"ln":13881,"sint":13882,"vde":13883,"Ġfuso":13884,"alcon":13885,"ener":13886,"0122":13887,"sara":13888,"Ġesd":13889,"1059":13890,"Ġ613":13891,"leitor":13892,"Ġ725":13893,"1270":13894,"Ġhickmann":13895,"Ġlabel":13896,"3045":13897,"Ġmaj":13898,"1190":13899,"Ġparamo":13900,"Ġparaiso":13901,"Ġloreal":13902,"moch":13903,"Ġwy":13904,"Ġbrinox":13905,"grw":13906,"Ġluiza":13907,"Ġgabri":13908,"Ġlondres":13909,"Ġpingu":13910,"stre":13911,"Ġcremalheira":13912,"6700":13913,"Ġtria":13914,"Ġporco":13915,"Ġourolux":13916,"pista":13917,"Ġminiatura":13918,"turquesa":13919,"Ġ1992":13920,"ttle":13921,"espaguete":13922,"ÃŃvel":13923,"Ġxlr":13924,"Ġselfie":13925,"Ġurbano":13926,"ampli":13927,"Ġiod":13928,"Ġsecunda":13929,"Ġintermediaria":13930,"Ġindiano":13931,"chemise":13932,"curativo":13933,"carburador":13934,"Ġtransportadora":13935,"585":13936,"716":13937,"cba":13938,"lol":13939,"Ġmpa":13940,"Ġmento":13941,"Ġsnap":13942,"altx":13943,"tian":13944,"ded":13945,"Ġ658":13946,"Ġ662":13947,"Ġ8103":13948,"Ġjar":13949,"2501":13950,"Ġocest":13951,"Ġsoho":13952,"Ġartis":13953,"Ġprojeto":13954,"8960":13955,"Ġ403":13956,"Ġamperes":13957,"Ġbrg":13958,"Ġzfm":13959,"mppt":13960,"Ġ2436":13961,"Ġeleg":13962,"Ġplato":13963,"Ġya":13964,"Ġreserv":13965,"Ġsilo":13966,"Ġvai":13967,"Ġellus":13968,"Ġbiq":13969,"Ġpilar":13970,"Ġdelicate":13971,"Ġ790801":13972,"Ġanodi":13973,"Ġmatx":13974,"kscolor":13975,"Ġcheck":13976,"Ġmusica":13977,"Ġfragran":13978,"Ġquimico":13979,"Ġrunning":13980,"automatico":13981,"Ġaboto":13982,"Ġarrefe":13983,"Ġmascavo":13984,"Ġsafety":13985,"Ġhermetico":13986,"Ġtaschibra":13987,"Ġitambe":13988,"Ġhialuro":13989,"zanlgocx":13990,"636":13991,"634":13992,"mid":13993,"tg":13994,"vitex":13995,"wor":13996,"repelente":13997,"tari":13998,"coador":13999,"Ġeam":14000,"tiche":14001,"olhal":14002,"Ġnicho":14003,"unfo":14004,"sai":14005,"1090":14006,"Ġ595":14007,"Ġ5600":14008,"Ġprega":14009,"Ġrocam":14010,"inato":14011,"4050":14012,"3022":14013,"Ġcorneta":14014,"torre":14015,"Ġrq":14016,"trocador":14017,"Ġalimen":14018,"pool":14019,"cmt":14020,"Ġsat":14021,"Ġwet":14022,"Ġ3082":14023,"Ġradi":14024,"Ġpedraria":14025,"tural":14026,"Ġdescanso":14027,"Ġdesbaste":14028,"Ġleque":14029,"Ġnext":14030,"4601":14031,"Ġamarel":14032,"30001":14033,"pipoca":14034,"Ġfiber":14035,"Ġpantan":14036,"Ġlimitador":14037,"Ġmerlot":14038,"Ġfrontais":14039,"mordedor":14040,"Ġgddr":14041,"Ġshape":14042,"flat":14043,"mousepad":14044,"gorro":14045,"Ġhalloween":14046,"Ġtqc":14047,"Ġencanto":14048,"Ġpersonagem":14049,"Ġhemmer":14050,"Ġinstantaneo":14051,"Ġpessoas":14052,"Ġfrancisco":14053,"sigla":14054,"ecosport":14055,"Ġlotenf":14056,"Ġgoodyear":14057,"Ġbahamas":14058,"072":14059,"713":14060,"724":14061,"ddy":14062,"ote":14063,"sq":14064,"zd":14065,"Ġble":14066,"Ġbss":14067,"Ġ398":14068,"Ġ436":14069,"Ġ432":14070,"Ġ488":14071,"rig":14072,"2029":14073,"Ġinde":14074,"gaio":14075,"Ġ716":14076,"1175":14077,"ĠalÃ§a":14078,"champ":14079,"1417":14080,"Ġtrak":14081,"Ġtommy":14082,"Ġcarioca":14083,"fect":14084,"cky":14085,"Ġfakc":14086,"Ġadri":14087,"Ġnoce":14088,"Ġnoped":14089,"Ġchanel":14090,"Ġchicago":14091,"brinha":14092,"Ġ1920":14093,"Ġdireto":14094,"parafusadeira":14095,"suplex":14096,"Ġautotra":14097,"Ġgrd":14098,"Ġ789998":14099,"Ġsenior":14100,"cliente":14101,"Ġespeciais":14102,"Ġfruti":14103,"Ġcarroca":14104,"Ġbicho":14105,"transmis":14106,"Ġfisher":14107,"Ġvegeta":14108,"Ġestampar":14109,"esfera":14110,"Ġrefeicao":14111,"Ġaquecedor":14112,"Ġmarmorizado":14113,"classic":14114,"78967279":14115,"Ġdreams":14116,"524":14117,"ctica":14118,"fresh":14119,"uk":14120,"Ġapolo":14121,"cobal":14122,"Ġ3100":14123,"Ġ399":14124,"Ġ434":14125,"Ġcombat":14126,"osco":14127,"Ġ924":14128,"Ġ944":14129,"1115":14130,"Ġalpes":14131,"sede":14132,"chado":14133,"1354":14134,"1910":14135,"Ġbabosa":14136,"Ġracer":14137,"mangote":14138,"buzina":14139,"9500":14140,"Ġforr":14141,"Ġcolormaq":14142,"psl":14143,"Ġbuzios":14144,"Ġtampao":14145,"Ġplis":14146,"Ã¡l":14147,"Ġpulver":14148,"Ġfriboi":14149,"Ġamplo":14150,"mentar":14151,"Ġvigas":14152,"Ġvigia":14153,"cionais":14154,"Ġhumid":14155,"Ġretentores":14156,"Ġespirito":14157,"Ġsoluvel":14158,"Ġpendurar":14159,"tamancos":14160,"Ġcervical":14161,"Ġoversized":14162,"544":14163,"566":14164,"855":14165,"craft":14166,"hma":14167,"sj":14168,"vg":14169,"Ġcid":14170,"inset":14171,"Ġ1125":14172,"rek":14173,"Ġdetergente":14174,"Ġles":14175,"alon":14176,"dox":14177,"tij":14178,"Ġ377":14179,"dam":14180,"Ġgru":14181,"saara":14182,"ilum":14183,"Ġ0201":14184,"Ġ665":14185,"Ġinca":14186,"Ġ890":14187,"1513":14188,"Ġ2060":14189,"1616":14190,"mode":14191,"1360":14192,"Ġtrail":14193,"Ġtravel":14194,"cetim":14195,"Ġ509":14196,"Ġ1416":14197,"Ġchantil":14198,"Ġence":14199,"Ġvet":14200,"kgs":14201,"Ġ1939":14202,"hex":14203,"Ġtatto":14204,"Ġparker":14205,"4101":14206,"Ġresiden":14207,"Ġjog":14208,"Ġjocar":14209,"Ġturim":14210,"Ġhoo":14211,"Ġdistr":14212,"tubos":14213,"Ġfunny":14214,"Ġcent":14215,"Ġmalta":14216,"caminho":14217,"Ġfotografico":14218,"Ġpassageiro":14219,"molekinha":14220,"Ġtermocolante":14221,"Ġaerossol":14222,"sonic":14223,"Ġgerdau":14224,"prime":14225,"capsula":14226,"Ġcardigan":14227,"403930":14228,"Ġeducacao":14229,"Ġharmonia":14230,"Ġvinila":14231,"Ġvolare":14232,"Ġosmoze":14233,"Ġpiracanjuba":14234,"079":14235,"526":14236,"521":14237,"528":14238,"870":14239,"fuso":14240,"Ġpha":14241,"Ġmss":14242,"inh":14243,"reti":14244,"rebolo":14245,"Ġevt":14246,"time":14247,"ello":14248,"Ġ429":14249,"Ġtwe":14250,"Ġretifica":14251,"Ġobra":14252,"embr":14253,"1047":14254,"Ġpate":14255,"tame":14256,"Ġ812":14257,"Ġ1034":14258,"Ġcorino":14259,"Ġalis":14260,"2223":14261,"Ġloca":14262,"Ġvergalhao":14263,"Ġsodica":14264,"Ġ253":14265,"Ġanim":14266,"Ġ241":14267,"iedade":14268,"Ġ4512":14269,"1012":14270,"052":14271,"Ġ086":14272,"brir":14273,"Ġdisp":14274,"banner":14275,"0410":14276,"Ġcuidado":14277,"1106":14278,"Ġatl":14279,"Ġroldana":14280,"azl":14281,"Ġsuspenso":14282,"Ġdelineador":14283,"Ġbright":14284,"csm":14285,"Ġfischer":14286,"Ġsbp":14287,"Ġgordura":14288,"Ġformula":14289,"Ġanatomico":14290,"cionador":14291,"Ġmaquinetado":14292,"picole":14293,"ĠmÃ³veis":14294,"Ġsecundario":14295,"064":14296,"546":14297,"866":14298,"jj":14299,"jon":14300,"joso":14301,"colas":14302,"Ġfk":14303,"arran":14304,"Ġ4100":14305,"Ġnorte":14306,"iais":14307,"Ġreba":14308,"2036":14309,"Ġora":14310,"Ġopa":14311,"Ġhit":14312,"4020":14313,"Ġmatematica":14314,"Ġ1216":14315,"chini":14316,"Ġmove":14317,"Ġmoeda":14318,"1550":14319,"tenol":14320,"Ġsevilha":14321,"Ġdesgas":14322,"shi":14323,"izar":14324,"oxford":14325,"00009":14326,"marco":14327,"eleiro":14328,"Ġbuzina":14329,"monro":14330,"bastao":14331,"Ġkadett":14332,"Ġfrufru":14333,"Ġniq":14334,"Ġstars":14335,"imador":14336,"Ġ0103900":14337,"Ġcorrei":14338,"Ġfarinha":14339,"Ġcilindrico":14340,"Ġnrofci":14341,"Ġadvance":14342,"umbinho":14343,"pirona":14344,"gliter":14345,"Ġconstrucao":14346,"Ġgillette":14347,"Ġpalavras":14348,"estilete":14349,"Ġauricular":14350,"Ġvalentina":14351,"Ġpneum":14352,"Ġgenova":14353,"Ġhialuronico":14354,"438":14355,"638":14356,"875":14357,"dni":14358,"frao":14359,"spl":14360,"zto":14361,"Ġces":14362,"inar":14363,"ali":14364,"Ġcode":14365,"Ġvdo":14366,"artana":14367,"ulho":14368,"mam":14369,"Ġodor":14370,"Ġ074":14371,"Ġ071":14372,"Ġindia":14373,"Ġ1212":14374,"torq":14375,"1116":14376,"Ġprograma":14377,"Ġ25000":14378,"Ġpoe":14379,"Ġ191":14380,"shine":14381,"Ġgaveteiro":14382,"Ġquer":14383,"Ġplanet":14384,"Ġseringa":14385,"3006":14386,"Ġ052":14387,"Ġ373":14388,"Ġys":14389,"duo":14390,"venc":14391,"Ġchoker":14392,"xiga":14393,"field":14394,"bler":14395,"Ġscz":14396,"ystation":14397,"3015":14398,"sext":14399,"Ġtalher":14400,"lixadeira":14401,"Ġrasgos":14402,"Ġfenix":14403,"Ġgravataria":14404,"Ġecosys":14405,"Ġhistorias":14406,"Ġfirme":14407,"Ġrefrigeracao":14408,"Ġviolet":14409,"Ġalmofadas":14410,"Ġ7892597":14411,"Ġmorcego":14412,"Ġgteprom":14413,"432":14414,"723":14415,"mit":14416,"zb":14417,"Ġcba":14418,"Ġmga":14419,"0036":14420,"Ġdna":14421,"Ġfior":14422,"doblo":14423,"Ġvlt":14424,"escapamento":14425,"Ġ443":14426,"Ġ464":14427,"0117":14428,"ricao":14429,"Ġpremio":14430,"Ġ614":14431,"Ġ664":14432,"Ġhul":14433,"Ġrda":14434,"Ġalba":14435,"misturador":14436,"mois":14437,"moveis":14438,"1340":14439,"Ġsak":14440,"Ġnapol":14441,"Ġpep":14442,"Ġprop":14443,"Ġprobel":14444,"Ġcarte":14445,"Ġanita":14446,"Ġbru":14447,"Ġbrw":14448,"Ġtipos":14449,"Ġnema":14450,"Ġlion":14451,"Ġlitio":14452,"Ġcasio":14453,"Ġmedicao":14454,"izadas":14455,"Ġamare":14456,"Ġmondaine":14457,"Ġjovem":14458,"fila":14459,"blk":14460,"Ġprinc":14461,"cadar":14462,"Ġstarter":14463,"flv":14464,"Ġsobreposto":14465,"Ġherc":14466,"alojamento":14467,"Ġcorretivo":14468,"Ġlumino":14469,"Ġstrech":14470,"Ġvariacao":14471,"Ġ790828":14472,"Ġcamelia":14473,"abaca":14474,"Ġchurrasqueira":14475,"Ã´n":14476,"Ġmodern":14477,"Ġinvisible":14478,"Ġabsolute":14479,"Ġbeneficiado":14480,"irit":14481,"etasona":14482,"Ġwindows":14483,"569":14484,"726":14485,"985":14486,"ey":14487,"Ġbbo":14488,"cofre":14489,"Ġlino":14490,"isch":14491,"Ġ471":14492,"Ġretr":14493,"Ġrevisao":14494,"ilos":14495,"Ġxtreme":14496,"1219":14497,"3050":14498,"Ġcortes":14499,"chet":14500,"idina":14501,"Ġbowl":14502,"Ġ000003":14503,"Ġartico":14504,"Ġarru":14505,"Ġ252":14506,"Ġadministra":14507,"brg":14508,"Ġslin":14509,"Ġresid":14510,"Ġvibes":14511,"veneziana":14512,"Ġpuri":14513,"adorno":14514,"6004":14515,"Ġfutura":14516,"Ġvlra":14517,"Ġestacion":14518,"Ġposterior":14519,"arara":14520,"Ġcertificado":14521,"galho":14522,"Ġguaran":14523,"Ġjustica":14524,"dreno":14525,"Ġreciclada":14526,"Ġfrisos":14527,"Ġmaquinetada":14528,"Ġkuka":14529,"Ġdrapeado":14530,"Ġjaponesa":14531,"Ġamigos":14532,"cifixo":14533,"Ġmffss":14534,"Ġaguas":14535,"Ġetnico":14536,"tablet":14537,"Ġexercic":14538,"Ġequilibrio":14539,"componente":14540,"mambaia":14541,"Ġcongelados":14542,"824":14543,"845":14544,"bole":14545,"yy":14546,"Ġpanel":14547,"Ġmim":14548,"cami":14549,"Ġscan":14550,"unhas":14551,"ulu":14552,"rando":14553,"Ġround":14554,"Ġhlp":14555,"icatri":14556,"nere":14557,"Ġmarc":14558,"Ġwol":14559,"Ġ0016":14560,"Ġpoliv":14561,"gema":14562,"Ġexcen":14563,"manete":14564,"Ġoro":14565,"Ġ364":14566,"Ġ243":14567,"Ġgama":14568,"choco":14569,"6600":14570,"Ġtransf":14571,"gravata":14572,"Ġresort":14573,"Ġjapi":14574,"Ġpudim":14575,"Ġrosque":14576,"Ġespan":14577,"1202":14578,"1203":14579,"Ġgeor":14580,"Ġbracos":14581,"Ġatum":14582,"Ġaoc":14583,"Ġbrocante":14584,"curto":14585,"Ġcilindros":14586,"Ġkera":14587,"Ġarteb":14588,"Ġvitarella":14589,"Ġgelatina":14590,"Ġpiccadilly":14591,"Ġjasmine":14592,"proxtrib":14593,"Ġsubstancia":14594,"Ġngk":14595,"Ġniveladora":14596,"Ġtransparencia":14597,"beauty":14598,"Ġabdominal":14599,"Ġplissado":14600,"Ġvlraproxtrib":14601,"077":14602,"073":14603,"639":14604,"735":14605,"934":14606,"hilux":14607,"Ġcunha":14608,"Ġdilu":14609,"coca":14610,"comu":14611,"Ġlte":14612,"Ġvem":14613,"Ġ496":14614,"Ġnelo":14615,"unis":14616,"ulz":14617,"Ġcavado":14618,"1075":14619,"Ġpague":14620,"Ġ616":14621,"icilina":14622,"tamin":14623,"tamgg":14624,"4030":14625,"Ġ913":14626,"Ġ933":14627,"Ġrw":14628,"uper":14629,"urs":14630,"1518":14631,"zadora":14632,"guip":14633,"1316":14634,"Ġboys":14635,"Ġsaquinho":14636,"Ġwurth":14637,"Ġnad":14638,"Ġnata":14639,"umulador":14640,"Ġfatima":14641,"Ġnega":14642,"Ġ4511":14643,"Ġprada":14644,"Ġ904":14645,"Ġmichel":14646,"Ġ286":14647,"Ġvigota":14648,"Ġfeel":14649,"indicador":14650,"Ġ087":14651,"Ġ0800":14652,"extra":14653,"Ġbrava":14654,"celula":14655,"relica":14656,"molinete":14657,"olab":14658,"ctores":14659,"Ġpsico":14660,"Ġsueter":14661,"mfw":14662,"perfurador":14663,"Ġabacate":14664,"Ġwarrior":14665,"13789294":14666,"Ġcloridrato":14667,"generomasculino":14668,"////////":14669,"Ġpetalas":14670,"hippe":14671,"Ġcontrastante":14672,"534":14673,"eto":14674,"eio":14675,"flan":14676,"mh":14677,"uv":14678,"Ġpita":14679,"coffee":14680,"under":14681,"lego":14682,"Ġ819":14683,"Ġ717":14684,"Ġkim":14685,"Ġhk":14686,"Ġmaiz":14687,"Ġmacro":14688,"babuche":14689,"2222":14690,"Ġmotos":14691,"peep":14692,"confe":14693,"condutor":14694,"2540":14695,"Ġmario":14696,"1410":14697,"Ġwx":14698,"Ġ0030":14699,"Ġsomos":14700,"Ġsoquetes":14701,"Ġtelado":14702,"sores":14703,"Ġsts":14704,"Ġrabo":14705,"Ġrafa":14706,"Ġmeto":14707,"dicao":14708,"Ġvegas":14709,"Ġacess":14710,"shmallow":14711,"Ġtaco":14712,"marte":14713,"Ġgrax":14714,"Ġ284":14715,"Ġfiltros":14716,"Ġ064":14717,"Ġantit":14718,"crea":14719,"Ġsangue":14720,"Ġrendada":14721,"Ġpila":14722,"Ġperfeito":14723,"ways":14724,"Ġcruzado":14725,"Ġposte":14726,"Ġstarfer":14727,"Ġmattel":14728,"tinhos":14729,"Ġlines":14730,"Ġboss":14731,"Ġcracker":14732,"Ġthree":14733,"Ġmudan":14734,"Ã³rio":14735,"Ġsunny":14736,"Ġcolorama":14737,"vrm":14738,"Ġortodon":14739,"Ġfury":14740,"Ġwilson":14741,"grafiato":14742,"Ġinfravermelho":14743,"Ġbijouteria":14744,"Ġdurin":14745,"abobora":14746,"colchonete":14747,"Ġprofessor":14748,"Ġalvorada":14749,"749":14750,"975":14751,"han":14752,"imax":14753,"jp":14754,"vizzano":14755,"Ġuro":14756,"Ġcca":14757,"raio":14758,"caqui":14759,"rett":14760,"lamas":14761,"Ġdecker":14762,"Ġgeleia":14763,"estes":14764,"Ġnice":14765,"illo":14766,"Ġ097":14767,"Ġescola":14768,"leto":14769,"icio":14770,"1216":14771,"3077":14772,"urna":14773,"2510":14774,"1450":14775,"Ġselado":14776,"Ġmann":14777,"Ġmetrico":14778,"Ġuc":14779,"Ġacopl":14780,"Ġactros":14781,"Ġcompen":14782,"Ġmedica":14783,"cuica":14784,"miudos":14785,"Ġterco":14786,"Ġyan":14787,"Ġhamburguer":14788,"Ġcrep":14789,"Ġtucho":14790,"derma":14791,"Ġsalmon":14792,"1205":14793,"refr":14794,"pedidos":14795,"Ġcell":14796,"Ġmalibu":14797,"Ġperfurada":14798,"Ġzaxy":14799,"carretilha":14800,"Ġ1993":14801,"juvenil":14802,"Ġflorestal":14803,"transp":14804,"Ġacionador":14805,"Ġtiracolo":14806,"Ġaxios":14807,"Ġcupula":14808,"flanela":14809,"Ġesponjoso":14810,"crimp":14811,"Ġholografico":14812,"Ġdomestico":14813,"Ġchemise":14814,"premium":14815,"dronorth":14816,"Ġeverest":14817,"esquerdo":14818,"Ġmobili":14819,"Ġlaguna":14820,"Ġtrakinas":14821,"Ġautotravante":14822,"527":14823,"785":14824,"fbd":14825,"nivea":14826,"sia":14827,"tq":14828,"xia":14829,"camp":14830,"Ġeur":14831,"Ġgdc":14832,"Ġnick":14833,"parede":14834,"Ġreutil":14835,"malas":14836,"raneo":14837,"itz":14838,"1224":14839,"Ġkilo":14840,"Ġjc":14841,"Ġparabr":14842,"upi":14843,"Ġmop":14844,"Ġbouti":14845,"Ġcondu":14846,"Ġtema":14847,"Ġ181":14848,"facao":14849,"2140":14850,"2180":14851,"bera":14852,"Ġdesta":14853,"Ġbrut":14854,"Ġenxo":14855,"Ġplaystation":14856,"Ġ803":14857,"Ġhas":14858,"Ġnucleo":14859,"Ġjae":14860,"Ġskol":14861,"kara":14862,"Ġapli":14863,"1208":14864,"Ġbebedouro":14865,"ĠproteÃ§Ã£o":14866,"6005":14867,"Ġtorcida":14868,"Ġprofunda":14869,"7006":14870,"dark":14871,"acd":14872,"Ġpadr":14873,"Ġaviao":14874,"Ġeditora":14875,"benz":14876,"Ġdni":14877,"Ġfresca":14878,"Ġaplicador":14879,
[...]
