[PAD]
[UNK]
[CLS]
[SEP]
[MASK]
/
0
1
2
3
4
5
6
7
8
9
a
b
c
d
e
f
g
h
i
j
k
l
m
n
o
p
q
r
s
t
u
v
w
x
y
z
©
®
¶
·
×
ø
þ
μ
##8
##0
##3
##5
##l
##o
##r
##e
##s
##t
##a
##f
##v
##d
##4
##2
##7
##i
##1
##k
##m
##b
##g
##n
##c
##9
##6
##p
##u
##x
##w
##h
##q
##y
##z
##j
##©
##×
##μ
##®
##ø
##þ
##ra
##00
##or
##in
##er
##an
##al
##as
##ca
##ol
##ta
##te
##on
##ar
##el
##is
##to
##re
##en
##co
de
##ro
##ad
##ti
##am
##es
##os
##il
##ha
co
##ul
##ia
##ho
re
##iv
##us
##da
es
##ei
##ran
##em
##ml
##do
##50
ca
##im
##ic
##01
in
01
pre
##it
##un
##ac
##ers
un
##io
##et
##id
##ivers
##20
sa
pa
00
divers
al
con
##10
##qu
ma
##ri
10
##pa
com
##le
##99
##de
##lus
##erm
cam
cal
##ga
preto
ch
##eta
##ado
##va
##000
diversas
##ina
##go
cor
##ed
12
##om
mas
col
fem
##40
##00g
##ort
##ur
am
mar
20
la
##eira
##um
##ch
013
##lusa
##las
##la
##up
##sa
##and
##cao
##mm
por
30
ad
##ix
##lo
##inha
mo
az
##inho
##11
##ura
##30
car
##ve
##ola
ros
##00ml
bo
##bo
ba
##ada
##mg
do
camis
##ec
ref
to
##12
##ig
50
an
##tra
calca
po
##po
##elo
ar
masc
##ma
##til
##ela
bran
sh
##iz
##ica
tra
inf
##cm
16
man
tam
blusa
##ba
sand
##ja
##ian
##gu
##ter
100
azul
##ir
##25
ml
##15
para
##80
br
des
##35
##ut
##mp
##ip
40
##60
15
ac
##22
em
##ico
kit
##ral
##001
qu
cr
##ino
##ala
ver
na
##ita
ro
##uc
so
conj
pro
##pe
##14
cre
rosa
25
##ador
##tor
##70
mol
can
camiseta
14
pol
##eg
##uro
##19
branco
sal
##38
lis
##tal
##kg
60
##34
fr
##39
##za
cho
for
##36
ten
cas
pr
##one
##tido
su
##16
##ante
##me
##37
##so
fl
##18
##32
001
ves
lu
plas
35
sandal
##ano
##95
##ea
bol
no
en
##cam
##car
ex
##ira
pe
##ente
sandalia
##ce
##90
##ini
18
##ido
tenis
##eb
bl
##dor
150
sab
me
##ans
##ermu
##ib
##17
ha
esp
color
comp
lo
##45
##camis
sp
##ne
##100
je
##tico
##ps
vestido
##42
pra
verde
##ona
fil
##gr
##ixa
##alha
sol
choc
90
ab
da
##que
sup
cl
verm
##ine
##tro
##arra
##66
##ial
##75
##ite
pin
bas
cha
##eca
bis
##ion
##ana
##002
ra
ne
cin
##vo
##mo
jeans
##pp
short
##se
36
lim
##tr
esta
##elho
##44
##tura
250
mul
##999
##ula
fre
el
sapa
##ing
##ten
##ito
##eiro
##sh
002
pas
##fa
##fe
##46
tr
##ento
sem
jo
kg
##ero
##ras
pal
ban
##by
##no
##rango
##ida
38
##ts
se
##26
cur
cx
##eite
esm
##cal
gr
met
gra
##ff
esc
chin
##28
top
##ermuda
##x1
tin
pc
cro
##unto
##48
##33
##pr
##21
per
##ox
##jo
mc
dis
gol
##era
##blusa
diversos
mic
ta
bermuda
##gua
li
500g
##27
fa
sor
red
##est
rol
gu
tri
500
gran
le
##300
80
200
##na
sl
beb
cabo
##orte
120
ole
med
##aro
##98
##200
gel
manga
##lex
creme
bor
san
##esa
##ly
##camise
##tar
##vel
##ge
##ss
003
par
conjunto
37
cond
camisa
##col
mac
mm
di
tor
##24
ap
##tina
hid
st
##29
##antil
sim
##ama
chinelo
gg
11
cab
cer
te
##pel
##ena
leite
##adeira
oleo
lon
##he
ga
##55
500ml
estamp
gl
39
sil
##ton
##tan
mil
24
den
13
mon
pi
##ux
mal
infantil
val
porta
meia
cu
or
##gem
paraf
cap
baby
##ard
aco
chocola
##uso
amar
mg
micro
##47
##dy
##bre
014
max
men
##31
marinho
liso
vermelho
##49
##amp
##65
chocolate
45
mini
##gg
1kg
##ie
70
dian
pl
cad
##ao
adul
maca
caixa
##tilha
metal
##cel
28
004
##ack
pan
##tica
##sp
bisc
reg
bar
##rig
trad
##78
##tel
kid
##has
calc
filtro
cinza
copo
pres
bom
##ik
papel
agua
cm
22
flor
##50ml
##69
preta
sk
##rac
##og
ja
19
laran
42
##ee
plus
multi
tran
bro
##od
##tom
pote
##0001
1000
bi
flo
femin
pet
##teira
tu
morango
##68
1l
##ens
term
mole
nu
bala
##con
##ucha
48
##her
tras
wh
17
##23
branca
##ila
go
polo
##ent
##end
brin
hava
laranja
corre
ser
fi
##ft
imp
##67
bal
200ml
kids
34
32
##res
ped
slim
##tic
adulto
##13
##enda
##ril
mod
tom
cafe
##esta
##iss
08
pv
##gata
100g
##ete
mel
##iro
fita
##bu
bel
005
75
quad
havaian
##ka
coco
unid
##tex
pto
400g
##ade
tem
est
21
pon
895
pis
inox
##ual
dup
tec
##inal
tampa
##ver
05
##icion
bebe
vas
##85
sac
##ud
ras
##400
##41
regata
alum
pt
hav
base
##77
##calca
##rom
form
barra
cos
lt
##89
er
##br
fer
clas
##van
esmal
super
##tas
mor
sort
body
##ros
##ram
##uti
140
##ixo
anti
220
##iva
##pc
fac
89550
cris
doce
##mi
##kit
pla
##enta
parafuso
abs
02
res
calcinha
saia
curta
malha
##pl
freio
##43
200g
diant
##eno
sapatilha
far
##uv
toalha
##ess
plastico
fio
##5g
##fer
bucha
extra
esco
grande
##ilha
av
flex
havaianas
##itan
##tos
tinta
rec
##x2
off
pim
cola
##88
##rante
vid
as
perf
##ys
44
estampado
##500
esmalte
##79
del
saco
03
##int
##010
plast
##cul
06
##dos
300
bota
vela
##ok
pic
class
##irt
##ege
##che
va
fol
white
vis
natura
jun
on
fe
04
amarelo
doura
300ml
##uz
180
4g
pink
##lt
prata
006
##hos
##card
gde
##wee
lisa
##76
fral
at
##mt
elas
##fl
prote
hidra
##ell
26
bras
##ub
##ci
tan
lac
##yl
##ibra
leg
wa
garra
##ema
pvc
crem
chave
ouro
110
##sao
mes
##ray
##58
##ole
##elha
##900
rev
##queta
400
tig
##jama
mb
ag
emb
##cor
escova
bege
fo
nano
frango
##700
gal
##gan
carne
##onete
##ex
##und
##ond
##ke
mag
motor
torn
cd
##pre
deco
malwee
125
##rao
300g
sabor
luva
ter
##ular
mascul
valv
##uto
rose
##igh
suco
frut
simcard
41
##ot
bata
lamp
disco
molho
limao
led
natural
premi
caps
ph
##amento
23
sapato
pes
##mon
taman
##if
ce
feminino
##ermud
##ene
##tu
cpr
cera
##val
quei
conf
cristal
##ren
##600
black
09
##ele
bico
##rado
lan
sm
##tivo
ao
dal
jogo
za
casa
inter
sc
dental
##ron
##camisa
##ivel
##ber
pos
##pt
pao
bolsa
##cap
##cha
##ivo
150ml
##bermud
ol
vidro
pp
bic
bril
cot
8955066
##dao
iog
claro
orig
##ue
##gueira
##bra
temp
##62
##pol
min
pul
##ck
##72
box
mis
macacao
mesa
shorts
pequ
ip
liq
33
##edor
lil
vol
##art
201
new
dr
spray
vita
##icional
medio
inv
##short
linha
##xa
27
##59
bra
##53
ades
slo
cp
pijama
bomba
sabonete
int
piz
garrafa
##endo
marrom
madeira
sua
silic
##56
96
46
redon
##tim
elet
tsh
250ml
##inio
vaso
##57
##cad
soft
350
bio
bisco
90g
##st
nude
aba
cj
mangueira
cader
fralda
##color
100ml
salto
sham
##ies
007
bac
suporte
tshirt
barb
##eito
##cia
bco
50g
eco
biscoito
##fo
##ker
formula
pizza
racao
uno
aluminio
tradicional
##are
titan
101
limp
roda
##uca
bolo
##man
cil
vw
longa
##1000
nut
##racao
aro
tur
capa
shampo
ti
lin
colorido
mam
29
mix
gold
fran
salg
##teiro
ka
##ima
##cas
listra
##ecial
forma
tubo
alca
ul
liv
##di
##73
##sen
##xo
##ario
mt
massa
amendo
uva
masca
55
premium
erva
star
jg
##roz
##ios
caderno
rosca
tm
is
fun
nest
acril
lata
renda
##zz
bb
ass
cores
shampoo
bone
##th
curto
anel
are
mesc
prato
sus
##tin
dourado
queijo
##ug
##800
##ill
##ilar
##64
palio
lam
##ight
cel
longo
07
crom
jaqueta
ky
sens
lar
fan
##ko
g1
##ves
##tador
2l
0140
vo
couro
160
banho
vi
alta
moletom
valvula
##52
brasil
##iat
cropp
##tes
127
comb
##cos
hig
vinho
##ivea
silicone
fech
##wer
pu
mascara
transp
correia
sel
43
fru
amac
cropped
casual
sam
##54
her
stra
ld
cb
##tia
ext
##oso
bu
balao
0138
sin
##pis
10000
008
kyly
##cpr
lampada
ve
##71
tigre
hom
##ny
tal
aer
cueca
rep
##eli
und
##zol
cama
##0000
##oma
batata
lixa
nestle
##cool
len
div
350ml
inj
algo
sex
gola
ultra
app
torneira
##culos
##jao
liqu
tamanco
tecido
marca
aca
du
##upo
##63
##bi
010
cat
cach
##nte
##ze
original
cinto
012
arg
##74
pente
tramon
##for
##ide
pimenta
mescla
240
cere
250g
lit
##x10
##bl
##bri
junta
##ips
frutas
##cho
##gra
desc
gar
gas
##cin
##rend
##flex
620
si
prd
##x3
##zer
pass
nivea
##tado
juv
##tam
##ive
seda
##top
##gate
31
palm
##udo
##ylon
##ang
elastico
lava
fos
##ume
classic
##ere
##pi
##itar
##per
##51
##fort
cox
##tid
algodao
170
vit
pct
gen
##sc
##uma
##ju
##61
bord
##xi
line
##izado
tint
lupo
espa
##aa
ct
duplo
chup
fit
##osa
caneta
bola
ana
##x50
essen
pincel
sache
##upa
im
escuro
##ior
pom
oculos
mulher
##x30
cit
var
glit
masculino
mat
nylon
##rada
via
##125
##cial
##tenis
##cp
graf
vera
lav
fiat
##ind
pen
sortido
paco
150g
##bio
bc
arroz
gm
rio
floral
suave
##erg
bande
th
ind
corsa
folha
##150
##bol
cle
moleca
##fil
##racha
##ples
##gio
don
600
auto
blue
trip
mid
dia
skin
##vete
##veja
mad
rad
##ora
pino
rolo
dupla
pop
gua
##ore
chic
##li
lapis
ur
alcool
400ml
tramontina
det
cps
biv
blo
##92
legg
fresh
##izador
has
bandeja
0135
caram
tex
media
##96
fas
ox
##97
30g
##pcs
piso
borracha
tp
ed
simples
##110
susp
zero
molek
basica
sun
50ml
aero
ris
500mg
##son
mos
##50g
uni
##ias
um
cerveja
md
##ate
##tion
mate
vel
contr
fox
##ecas
##94
bab
80g
pcs
##icao
ov
##inf
cla
##xona
power
dog
desod
rolamento
##tri
##gao
##ili
prof
sorvete
##tao
##gb
##tiva
neut
estampada
ada
85
130
##cot
estam
abaca
son
##op
prim
rap
dire
##inc
redondo
##iper
sn
coracao
caneca
ir
##rana
coz
fam
ype
deso
multiuso
molet
legging
nat
78
99
##cl
light
ton
127v
ge
af
inte
broca
milho
##cada
astra
zaeli
manip
##ice
be
feminina
##iso
ferro
mus
##ru
##pete
biqu
brinco
##990
big
##101
85g
sho
##ii
reten
##tida
##003
##ace
conc
all
vd
tim
organ
##plas
##ty
##bao
##x4
jard
pq
verao
##anema
gela
latex
##vas
610
009
trans
luz
pel
cotton
##x20
##izz
pano
sar
0142
cod
plastica
##eit
ceram
lavan
##82
##isa
tipo
viva
60g
promo
vern
pasta
dor
sport
gre
mer
dallas
sobre
##cadeira
estr
##adre
menta
88
cig
##utien
##9000
##sun
ara
##umbo
##x15
##max
estampa
65
santa
1un
##86
##inhas
sabao
##87
s10
##idas
neutro
56
especial
40g
cf
ipanema
##ede
ins
ret
##elado
##ulado
macar
mand
##84
##be
##jun
almo
os
001blusa
lavanda
fps
##ades
rasteira
##ney
up
16v
900ml
band
colher
##ds
cra
tro
10mg
##cu
##bal
hidrat
mais
porca
pastilha
soutien
adesivo
chur
verniz
ele
sao
fel
111
##ya
abra
sutia
120ml
##oss
20g
##tela
##we
20mg
card
caramelo
retentor
vermelha
gala
fla
##ct
areia
##2999
##ella
wafer
115
bolso
fri
##bom
rs
roll
que
##der
esf
10001
rexona
##x40
cop
##tive
xg
lixo
##elogio
love
univ
lun
95
ev
##por
cambio
##uck
##02
biquini
ice
placa
sinte
pia
impala
##olar
##0004
calcados
cabelo
##terna
bon
corrente
til
##0010
54
##cv
##inhos
##ider
beira
sav
mola
##91
280
bam
lum
faca
##cedor
##ista
hy
solar
##93
tomate
mega
##wa
ford
franc
esto
castan
pne
moch
##oll
ly
25g
protetor
flores
refil
##qua
##isse
dove
##x5
comple
almof
##ant
rod
lilas
##inel
##0002
##lymp
cir
##urno
30ml
vest
mu
peq
##eijao
ceb
bg
##cau
10a
espon
salon
##idor
alto
coxim
##ike
##oren
210
##x25
clor
alho
50mg
sarja
grafite
disney
amendoim
##az
360
##83
##ikus
olymp
liquido
desodo
pecas
moto
##ner
palha
palito
abacaxi
##quinho
nutri
casaco
xadre
amorte
##quete
boxer
bul
vizz
##ph
cano
diam
som
##tus
##ange
visco
roupa
##ry
##x0
banana
##idade
sapatenis
tes
gram
sen
lib
desodorante
##201
che
univers
100mg
219
ps
fruta
##tada
relogio
integ
msa
coral
1lt
57
bacon
##ados
##ulo
##can
c3
##ick
xadrez
##lr
ral
coca
microf
abracadeira
138
##250
##tiz
baun
hot
##tad
om
file
bea
002blusa
fix
pressao
##001000
ven
esponja
prot
controle
comfort
##iante
325
##gre
solda
##etor
##120
750ml
desinf
novo
rech
##ional
free
fc
52
olympikus
##mal
25mm
mochila
descar
rm
amortecedor
midi
##lin
##imento
late
##preto
carre
##rinho
unha
##yal
rf
bd
real
lol
##iana
dan
##urte
festa
##tang
brilho
##004
unico
0136
ho
##coes
donana
mi
##ioca
##gar
##bran
adap
bojo
ber
##iza
lea
##xe
colar
##ucar
pedra
##eio
gelo
din
rn
##cra
macarrao
001camise
dagua
sint
us
##mina
dep
amer
3m
las
cala
laco
termica
89550664
##1999
apar
##fic
330
brinq
flu
arm
colors
tre
cen
princ
##erva
##tea
8ml
biz
dt
sold
sch
pneu
emv
##teria
cachos
eixo
livro
##xy
cs
##ien
basic
unidade
97
vizzano
##hn
pequeno
neon
##mc
##81
tomada
##ical
##dedor
faro
tac
dir
##iao
enf
plano
skinny
##ki
tira
il
##cado
energ
linho
mang
maria
caes
nec
##met
de2999
glitter
ala
nes
amp
##tern
corda
cremoso
parede
98
cis
pers
cilind
fino
##bro
##uty
##inas
##tiv
##inil
aroma
67
integral
condicion
corte
cook
berm
ovo
ju
cerv
500gr
lux
serra
leve
blusao
lix
##01000
8v
##yo
doc
##lux
119
fiesta
veg
forte
##lts
##rasco
##x60
##vestid
blus
seca
##uja
##entes
c1
wor
##ital
0137
##mar
hd
masculina
##ult
maqu
800g
strada
##bras
molekinha
##iga
pei
##bon
220v
guia
180g
boneca
grend
universal
750
pil
decora
##gn
##ese
##ucao
##tana
##bar
lts
royal
iogurte
##je
0139
terminal
peito
ru
abas
samsun
2p
amarela
64
fus
lv
pj
##102
sea
##dar
ii
##inhao
retang
op
joelho
ku
reparo
fort
011
dec
##ulada
cubo
pequena
ink
crepe
ovos
##ist
acucar
pele
##ile
env
sintetico
refri
##cci
10g
##oo
cz
##pro
canudo
chu
marac
flexivel
filho
sap
dos
sec
tempero
002camise
he
##3999
gato
tilibra
def
sb
##plast
##gel
##0003
##fls
lona
ponto
lg
poli
chupeta
quadrado
acai
##x12
##0016
##ucal
carta
soquete
tw
bron
sandha
cg
pir
derm
##ure
##itos
uso
789
##imo
##torio
53
pilha
92
##orn
##comp
##ord
dent
##ger
600g
##onder
139
bateria
sti
abo
##onal
bob
##etti
tc
2000
basico
art
cromado
##0017
eva
##iane
rom
tintura
5g
340
reta
##x45
##onia
##agem
##tral
neo
##fr
##03
##ban
tapete
kr
##140
##baby
##una
##0014
camel
##rica
pgg
##utie
camisola
58
000
aeros
sul
94
natal
ninho
##lete
nao
003blusa
##ette
135
hering
sx
##eco
roup
colcci
lateral
##eia
sacola
puls
##elli
ant
embre
hlr
##soutie
##isco
pg
##fi
skala
cilindro
##chip
marte
##ks
sta
tela
batom
inten
guarana
gira
269
##ree
##eng
##ise
care
12v
direcao
60ml
112
##cueca
##0018
blu
balde
perola
trava
reche
5mg
palh
marm
luxo
ave
##inh
##tella
semi
botina
hel
##ulha
taca
##gl
sorv
brilh
fini
facial
loren
##ass
panela
50un
fire
hb
##ven
regis
##06
ori
##adura
##adinho
pad
de1999
brig
##isk
rac
##seve
mf
grampo
##ich
pren
cigar
emp
ziper
##das
##amar
320
##bel
farol
gabri
120g
##gue
##04
macho
##4999
10ml
##icate
mr
siena
poa
70g
dig
##idos
230
zir
##aria
isa
##adas
clara
estojo
num
zin
##ame
##hl
##au
##zan
arma
choco
embreagem
vasso
##rip
##at
10un
goia
cia
pf
viscose
unica
bordado
##adia
##tilit
lanterna
##x100
kod
brinque
econ
char
calda
bla
##sor
condor
##gas
sha
##tavel
fosco
##min
##olive
condicionador
redonda
fash
sur
##ui
##149
capo
copa
cons
clo
ri
##tivel
pentear
gan
##202
tul
aerosol
registro
tn
de3999
##ity
##ilux
refres
bos
peg
##vado
tub
##rato
##enil
cup
brinquedo
hidro
tanque
##mer
porcel
neg
bols
magn
cobre
ni
##ender
sext
##rup
##esto
retro
0134
##350
vassoura
fron
decote
30cm
face
terra
garfo
ita
promocao
picole
long
tut
colgate
##4000
microfibra
baunilha
ms
iso
alfa
adaptador
almofada
maracuja
vm
dura
##0019
xx
fechado
gros
rp
veda
##iador
esgo
moleton
alicate
azeit
combus
unic
##care
003camise
kar
##timus
seara
calabre
ponta
grendene
ceramica
nike
confort
##107
esgoto
##ink
chumbo
##rim
botao
passa
litros
##chi
samsung
cebola
cartago
##0013
pqn
84
beauty
ax
completo
estrela
oval
americ
bloco
oral
ham
canela
c2
soldavel
fd
louro
cruz
celta
##para
260
capsula
gir
rodo
liber
0133
##elh
##rico
transpar
jardim
hidr
special
galaxy
rx
pamp
de4999
25mg
perfume
##par
##anha
##riz
fu
rena
##ret
##low
##ium
170g
##ong
unidades
g5
clean
roxo
1x1
##wn
##peu
jarra
fashion
bat
mp
dar
##gente
nas
##cps
##tula
out
##ister
##hv
10mm
faixa
pris
1k
risque
900
sensor
port
##douro
teso
##05
id
hal
##bor
lr
casal
tamanho
locao
##oc
milon
coturno
tabu
cereja
anim
furo
ign
amor
lixeira
tricot
interrup
orto
lenco
137
capuz
sandhav
amarra
baud
bot
##mao
timchip
dourada
armacao
40cm
cc
##pan
10m
cart
dry
total
amend
dobra
##mas
lua
elseve
cacau
##115
lactea
juvenil
##olo
cesto
ital
meu
##08
trop
let
##103
amort
croc
mili
gelatina
regina
##tec
cober
higien
porcelana
##trato
c30
nova
palheta
quadro
##icl
175
carteira
pante
calabresa
guar
alt
apl
seco
homem
pirul
limpa
hidratante
##gen
##inada
pit
jogg
mamadeira
cortina
haste
pred
##bs
requ
remo
tesoura
bacia
20ml
##quinha
inst
menina
vonder
##bil
50mm
rmv
bella
smart
##vi
##mcg
##9100
natu
gabriela
corpo
churrasco
combustivel
114
##x8
##com
fenda
mante
##tacao
farofa
rosto
arru
##ose
matte
450
nor
cong
silk
manta
krona
18l
one
lunender
espuma
##mesa
##util
##eo
##105
trat
uniao
limpador
sw
##x6
transparente
dom
bebida
retangular
canel
mult
phil
fina
kib
capac
bem
amaciante
##issa
##inado
190
aber
##301
yok
incolor
whe
gs
##ipa
001calca
facil
eg
004blusa
espatula
mist
esq
triplo
espelho
dav
gts
folhas
horte
mous
suc
mao
cozinha
15l
conec
radiador
colcha
saida
farinha
##eapp
kel
blazer
absor
terere
2pt
pedal
##sim
john
banh
aqu
vitamina
lorenz
##umb
##oni
##olt
##zzo
8955066425
tod
engate
sach
n2
##ls
##etas
cast
elast
intimus
maril
275
##olina
fest
macaquinho
20a
dv
sadia
tanga
cetim
##pon
social
15g
guard
##ire
pulseira
##gon
interruptor
pron
f1000
exten
##kk
praia
recorte
cereal
enfeite
fundo
painel
lente
moda
##tre
distri
agulha
51
parati
200mg
##ando
azeitona
100un
pipo
460
##bur
270
pastel
##005
roma
cv
cora
arruela
dra
##ish
xpe
##ach
cream
ck
fantas
30cpr
401
##caps
rapido
##icol
lev
prem
##x11
##cr
cob
aveia
air
seg
galinha
isol
##ani
liane
unhas
modare
##calcin
##pin
puro
##arela
##cola
quart
sexta
ado
peti
mom
91
fon
lem
##ley
dip
toys
bov
de5
004camise
leao
detal
bambu
##112
coleira
##09
acho
93
##pra
bosch
traseiro
##tarda
curva
yeapp
lingu
hortela
palmolive
63
jan
distribu
salmao
chapeu
##iester
sola
##x16
alc
corante
##elope
##iclo
##3599
62
sos
900g
##cador
peixe
##icador
##etker
fixa
pivo
##cre
##x70
##ifa
49
##ilho
cham
ducha
dako
##0029
absorv
116
##104
vec
##ranha
ferm
euro
mec
klin
deter
carrinho
manteiga
##win
##ence
##verm
paral
yama
doll
##895
viol
##anca
miss
escolar
gotas
argola
72
bell
femea
ling
##adeiro
##012
chuv
dianteiro
2022
marron
limpe
kodilar
hyd
master
##fit
##pot
##ulador
mund
##iano
maion
##ua
unicorn
100gr
maxi
turbo
pirulito
invis
ecv
salada
##ria
whisk
##ance
brilhante
pap
meio
usa
##203
telha
##rano
acess
semente
350g
util
##far
800
##dica
pacoca
##echo
life
manipulada
##ental
napa
700
##fera
castanho
cn
##icil
ray
carro
van
##fon
##estre
duo
gancho
89
140g
jv
careca
trid
##07
ignicao
limpeza
animal
47
conector
campo
##les
##polho
gd
trav
lima
050
corr
##fia
maio
225
listrado
tee
40mm
poliester
usb
##issex
##acto
club
##vao
##0030
tres
plan
##0026
dakota
espi
vult
20mm
acet
comum
##ulas
pira
ric
prime
saveiro
##x7
bivolt
pinhao
2lt
##ress
mostarda
lubri
unissex
450g
nad
rasteiro
mandioca
##off
rollon
36l
adidas
bombom
##uno
##ets
monica
##erv
mistura
8un
40mg
exp
vermel
mala
##bac
##zinho
##urt
##caca
##x18
##izante
har
pantene
kuka
personal
roupas
reto
dif
prati
citr
linguica
not
and
bib
sanitar
##acol
##illy
##amo
logo
plasutil
##ull
fechadura
cilios
128
##205
5kg
grelha
frio
polpa
clar
##x35
cav
##uch
requeijao
boto
##taria
##sego
ide
pipoca
##ucco
##0021
325ml
##018
fra
##109
##106
002calca
bur
##eter
bello
boca
##ecao
numero
colorida
xt
hor
triang
cabeca
##114
355
##itex
ella
##303
hilux
8955046
015
a4
ou
##x22
rib
##108
costura
##izada
clear
tar
##ign
##uf
600ml
qual
89550665
niss
380
##vit
fati
espe
fibra
68
ball
my
trifil
45g
##digo
refor
##adora
0000
lencol
##015
maq
decor
##iversos
acrilex
econom
bei
##180
mun
assento
5l
imper
eletro
dro
2020
avela
acrilico
fior
59
kol
cesta
tutti
barbante
##0028
##des
mts
##etro
pessego
prego
##lim
nob
maxton
rider
pacote
##ken
##entos
melissa
400gr
bf
sty
carb
vida
##quet
gloss
coifa
marilan
onca
de5999
descartavel
118
pimpolho
##mts
sortida
bca
quim
2x1
antar
aj
whey
##x19
brand
feijao
##juntor
atlas
##tamento
pd
ste
circul
mine
##amas
hu
scar
brigadeiro
cor001
##0027
canelada
##andal
gota
##idea
##bc
cookies
metalizado
lacta
82
cartela
cache
borbol
##saia
##ebra
trend
269ml
fle
uau
##vex
##ust
quadrada
2un
76
bobina
baixo
enx
de6
001camisa
worker
flora
presente
unicornio
##207
##uri
tabua
66
##pper
flat
touca
eti
vectra
mari
2021
##mann
##reto
3d
tab
005blusa
yo
4x2
##its
golden
mdf
bordo
spe
##trado
maquina
##ht
##ale
blush
eucal
msc
jol
acessor
vaz
##0020
2kg
minn
mara
##toalha
ib
polia
orqu
listras
71
##pen
##0024
ger
##342
gatos
nivel
of
colo
77
vitar
tule
come
arco
cortador
prendedor
caip
fls
kibon
cobra
shirt
osso
yoki
aa
cand
maionese
##icho
##verde
dori
chata
partida
##fante
print
##ely
refresco
##14929
15w
mw
flocos
canelado
290
acqua
irwin
pta
##asa
asa
##0023
##302
usaflex
bros
105
kom
iph
##ear
cremer
##5314929
##gador
##vej
braco
##chup
distribuidor
136
c10
lat
reserva
##0040
serial
garo
##tinho
pux
broch
havaiana
muss
infa
##rete
botoes
peneira
run
##etal
12un
carvao
##tem
zircon
130g
asp
##cc
##oli
0144
##111
##anco
geleia
##hma
pend
recheado
elian
supre
king
##guer
onix
colora
boia
##guete
tripla
fila
jogger
filhote
##117
manipulado
chicle
##401
stre
play
suv
##cond
metro
trident
##ize
prod
##gochi
salgadinho
tempe
champ
cade
##fem
87
75ml
argan
look
ome
nos
005camise
suspen
plastilit
perol
coro
5ml
pep
6109100
slip
lumin
##ianca
lab
bauducco
celular
alo
bronze
arezzo
amarracao
mundial
69
alp
torta
frente
refr
refrig
prisma
mass
todos
caval
talco
##carola
##462
ben
##x80
##darte
##050
##acha
tek
gio
ponzan
##gin
ks
vin
##ugu
menino
##key
act
capilar
ang
##208
ruby
##queira
dex
025
granel
ybr
ombro
capodarte
##x90
15cm
detalhe
##onda
##113
colete
macia
mamad
avul
ilum
manual
famil
ogochi
geral
gor
disjuntor
##olux
repel
##inga
sd
camom
trin
cru
##eck
##pal
sard
classico
##reiro
##acu
##017
mule
12mm
dn
de6999
colonia
golf
glo
minnie
cintura
##jos
plug
fut
##sandal
##zo
##2599
##branco
##145
rub
hlr49
serial895
480
rele
##204
arte
gsm
tort
iphone
##013
##qui
400mg
##ffe
##fica
borda
model
##azul
zb
dy
brahma
vina
##ucc
guardana
nc
chips
30cp
ima
frutap
##isor
240ml
##hado
cadeado
n1
410
##359
acab
comedouro
15ml
absorvente
de3599
##guar
remov
bolsas
arom
##116
ci
esqu
sobremesa
peca
cacarola
##118
##ins
450ml
serial8955314929
##rs
##ld
sunga
jeito
digital
##160
lamina
aniv
117
teen
protecao
high
0132
##ece
cri
oc
diver
esti
##ush
##ppy
carn
nutella
babado
esca
##ane
oliva
nac
##2000
chim
bolacha
79
sued
forro
vari
pb
mineral
sed
##014
denim
510
##geno
auro
tho
##016
##body
nutr
cadeira
marcador
kidy
##tial
embala
litro
##0012
215
essencia
pn
##pla
##raft
003calca
distribuidores
86
ram
c4
##mix
fantasia
g3
##pia
chapa
morena
bre
##tt
esfera
##305
pura
##umes
tropical
pinca
##006
neve
##402
essencial
tinto
melan
higienico
queen
lado
002camisa
aut
eucalip
au
quero
flange
310
aromatiz
83
prima
##pk
malte
cabeco
w0
cao
molekinho
##127
org
##coco
ener
pegada
cabecote
##rol
ems
barbie
goiaba
margar
##esia
homoc
200gr
aparelho
##206
chav
glic
brandili
crys
johnson
g2
gig
escap
##sport
imei
jardin
elite
hi
0126
milk
6mm
conv
mocas
##encia
##011
monange
sextavado
desem
hambur
dre
jac
##cil
001kit
##queiro
agu
##190
fci
bri
pur
8mm
n6
##jeans
cada
str
mono
amei
magic
fame
150mg
##fre
fres
n3
100mm
##sal
moletinho
tram
essential
gliter
##etante
acel
##x200
##ono
unc
xxg
contra
##diversos
cross
forminha
regulador
combo
0130
refrige
flare
nort
dale
central
jumbo
flan
padrao
camp
lorenzetti
##ggies
lolly
way
oetker
mickey
skol
##quim
fal
bisna
foxlux
##ilo
frig
leo
ef
330ml
##mol
##urca
allen
020
##dura
pulver
listrada
lycra
orquidea
##019
ren
6500
##ipi
toque
adesiva
tix
15kg
##parador
ts
conta
stand
6798
##615
##tox
refrigerante
presunto
vinagre
##ime
d20
fura
ore
galv
7898
pun
cargo
cinta
valle
organizador
velo
copacol
geng
540
kn
1g
luc
##kita
##ecta
azeite
##ett
espeto
isim
102
##ady
coxa
veja
pisca
##onic
fogao
coracoes
extrato
interno
tigela
fgo
##1599
pent
fios
473
de7
pintura
##fix
##timo
##ak
esg
340g
cost
ate
borboleta
##gos
jas
camomila
civ
##x14
hair
##304
grego
rel
past
rhv
mocassim
##ster
marvel
sortid
lip
61
##bora
active
8955046200
dour
capacete
comprim
vitarella
dobradica
castanha
niely
ss
frim
energy
aleg
hr
ny
fone
##0001000
varal
dac
alg
novex
kiss
250mg
viagem
aurora
alim
full
lillo
##olog
hiper
moca
375
##ep
nobuck
##lan
3un
nt
vermelhas
420
larga
caju
##124
bt
das
odor
pret
##urin
001bermud
bolinha
sensi
##eir
dedo
pantan
gav
##702
cordao
desen
moran
250v
garoto
acr
camara
catup
ativ
vira
##meia
##olla
##zul
18mm
ane
paraiso
espor
tixan
001short
gour
silver
##telo
sonho
cura
lote
gelat
##ym
doces
50gr
25kg
latao
nissin
renata
passar
ved
reb
goma
reducao
evt
colorama
the
tap
desinfetante
philips
##318
predil
##x21
degra
lant
##du
inset
voya
20cm
142
crystal
alianca
de2599
xgg
oxig
mestre
55g
##zon
nov
jardineira
militar
tang
##142
##pijama
bm
impor
guardanapo
hg
rc
liberte
##0015
uv
040
##med
ventil
##dog
##dom
trico
amora
90gr
pinho
6110
tricol
mista
faber
4x4
costela
006blusa
##uccino
##aninha
kombi
##erman
carregador
sabores
fluor
##kid
pomada
pack
110v
pm
indigo
acrilica
umed
20kg
monza
rus
sop
lom
##gol
##tente
polido
retrato
##flo
sob
##enci
suspensao
resina
poly
thomp
##ler
##505
caldo
103
colageno
##veis
strass
##yota
##119
farmax
pampili
##vilha
##iry
##x150
fm
arame
aux
vers
30m
inver
vinil
inc
##olor
std
n5
junco
##tencia
eucalipto
jade
huggies
gv
et
classica
gom
##rap
##503
##ticas
##laser
mint
amanco
ameixa
chuteira
bus
frances
clorid
gi
##vy
##oto
ond
##175
vr
##igan
##iara
minas
##icina
suvinil
pist
coroa
##307
marf
##0011
turma
##209
gill
norton
ds
##122
evol
hask
stihl
##capri
mwm
nr
##bb
##ect
barbear
##usor
ln
tensor
green
peluc
termico
cut
tnt
fin
xica
omega
##tidos
134
##325
americano
aneis
790
inse
##rat
ama
pat
##camiseta
006camise
urso
60cm
grosso
3p
##festa
##irinha
##ania
extensao
3l
##cis
##ced
##306
loba
##elas
300gr
pistao
##ficante
132
rosas
cobertura
ino
20w
##222
isopor
nobre
##vera
espiral
brown
##9999
##isol
73
lacto
livre
liz
rend
spr
jul
##itivo
resis
##170
bs
##ns
perfum
##0005
##colo
110g
mussarela
santana
traseira
best
##eleta
207
19mm
##uge
ace
##quil
145
apon
##ranca
camurca
124
deca
##my
peitoral
flam
3kg
voyage
tuc
##etato
##trat
tiras
4000
grade
6500k
embalagem
sanit
##all
catupiry
eas
papa
trigo
##itor
##este
coletor
35g
cigarrete
fs
##lash
regular
altern
petit
toyota
mortad
above
rela
##390
gourmet
211
##blo
##608
nature
retrov
ken
nit
##308
002bermud
bdj
ricca
##502
tds
##135
##126
pulverizador
chuva
##mis
sortidas
##x24
##ivela
cool
artes
23cm
##izadora
swe
street
dark
##deira
##134
cigarro
016
salgado
omo
scarpin
piccad
sum
saf
##404
recco
pingente
self
paleta
tamp
verd
##py
acetato
alavan
002short
113
##onazol
turqu
banheiro
montana
5w
germ
sant
a5
chip
travess
agr
2mg
familia
##zi
caro
##oria
galvan
##aaaa
##tol
bieleta
pure
cicl
##00010
##unda
50cm
101kg
concen
alf
ponteira
002kit
achoc
##cante
##icia
surf
froz
100m
frimesa
kik
25cm
##esc
##conjun
chuveiro
##bas
##hi
viv
sensitive
lubra
##inete
300mg
anivers
90ml
##cle
fram
citrus
##cina
semola
##chinel
alavanca
ecosport
melancia
dianteira
nuk
cromada
tb
bicolor
1m
##ey
##urador
##zoo
##imei
##edore
##dec
fazer
##juba
4p
lc
paul
##3000
haskell
cim
gramp
quera
cabide
protex
jolie
lubrax
dc
pica
pedig
grao
centro
fis
##don
talher
pam
3x1
kan
##dan
coque
marsh
##395
lemon
##ky
pontas
instan
hp
vig
dail
206
004calca
acessorios
dentada
piccadilly
##anger
dp
##issimo
89550669
##008
pelucia
##act
##ticida
395
sug
##remo
##esso
prud
kraft
chi
phill
combinada
##eiros
napol
sod
corolla
candy
leit
##si
sweet
fecho
prat
amendoa
chiclete
frigid
cravo
bela
gillette
##rex
gedore
liga
##kids
soprano
misto
fug
nadir
##alo
##ingo
##riso
##ni
concreto
##602
003camisa
fonte
shamp
lp
390
noite
colori
por2
tactel
l200
##x75
##007
palmito
bivik
envelope
##rosa
##ible
injeta
tecfil
volvo
de7999
##urao
isolante
tv
marfim
##tto
##352
chef
anacapri
15mm
01334
princesa
colchao
enc
##dr
##anc
escape
pistola
##wh
condens
##x9
##hao
trit
cabine
##kazoo
6un
rt
##use
##998
hidratacao
honda
pitan
marine
superior
difusor
895504620000
##icle
balas
demo
por28
##fao
batente
##406
alternador
##coa
cachor
varao
ki
capp
decorativo
##els
a2
##123
apli
crac
mira
segu
218
chan
quente
##cro
comando
mordedor
brisa
ralado
canton
##229
zinco
##ety
##riel
d3
##309
##lor
##ilon
dino
##ara
##essa
##128
happy
##1799
##toria
ceno
dila
##405
profiss
triangulo
jet
sals
5m
##121
arara
artic
n4
##fral
64gb
turquesa
racas
##pom
ched
origem
prol
legumes
invic
multilaser
126
##ctica
15mg
##355
lamen
arcor
##finho
calo
##utz
prom
dentil
vedacao
lubrificante
bp
mortadela
frozen
trena
aromatizante
easy
##403
costa
wo
sardinha
##501
lasanha
mundo
tech
biela
qua
coord
detergente
sanitaria
repelente
frigideira
sr
alakazoo
beta
##rach
ess
##erador
##form
tip
##rif
energe
pitanga
##0100
##grs
##x13
cantoneira
##zzano
ae
10mt
rab
fixo
gam
##pto
detox
coquetel
eletron
gin
tiara
adv
inverno
##ibre
home
circulo
##165
##ggi
mem
500m
##ag
costas
pedigree
automa
march
assadeira
rodiz
concha
guarda
filhotes
primavera
marg
soja
neck
fume
##ixao
mousse
pig
##esel
trio
spa
##326
fanta
##mallow
etiqueta
##rand
pascoa
fiorino
crav
##way
war
diaman
por5
guri
160g
##359000
coador
30mg
amox
info
acopl
extratus
##etto
##jogo
195
##375
bet
##plus
##har
escor
olho
porc
letra
##vol
##illa
lavatorio
mentos
##pack
crn
##entado
cloridrato
ft
movel
atum
ok
caroco
f4000
ervas
##327
goiab
peda
##cus
civic
3000
escort
1a
apontador
roque
##ford
anatom
##328
oce
vegetal
thompson
nap
aqua
bisnaga
30un
farm
##rilan
espaguete
125g
mania
128gb
##805
##vita
##dema
##408
gii
volta
gp
twister
cum
##tras
violeta
largo
forum
panta
alvej
de1599
corta
bibl
phillips
055
suedine
hem
cor050
16mm
##umo
ko
vip
2019
faz
marco
insp
premier
maresia
##ution
vent
conex
chopp
##324
240g
123
puxador
boy
francis
bip
##uco
local
capri
completa
81
##alt
20un
##daia
##8999
rede
zirconia
wom
4x1
alfaia
##ignon
polv
tuba
##tage
60cap
np
infer
guac
plush
caminhao
##rama
salsa
travesseiro
by
bag
1016
##sec
schutz
a0
xr
##ash
jov
##oleo
rcv
##ben
##esio
taba
tcel
comprimidos
mond
10cm
tos
suina
wes
rodizio
##m2
estri
##009
003bermud
urban
##407
##cional
trincha
copos
magico
ume
##crata
##606
granulado
0143
alm
##802
cara
##missao
concentrado
##fen
barro
eletrica
##sapa
##eais
611
modelo
550
##147
##385
bucal
punho
##olol
vod
##129
##digao
kin
lub
aromas
007blusa
interna
50m
voy
rb
democrata
##358
gb
corcel
embor
alcal
carinhos
imperio
vene
##yn
280g
energetico
##issipi
agenda
1500
##bela
seguranca
5000
45cm
fugini
labial
por19
polida
macrilan
cenoura
75g
lombo
dona
74
paris
##tero
##bos
96f
aranha
##ric
##irio
quebra
gt
mx
32gb
nx
cartao
##329
473ml
gigante
sifao
antarctica
luminaria
##220
ranger
180ml
e27
##last
sorriso
passado
crocante
prev
##605
acido
360ml
de999
##157
##icar
0001
##inox
chaveiro
stri
##366
bronz
hamburguer
dentes
##1100
presto
mtx
quimica
hen
our
003kit
75mg
##osta
coala
jj
jumb
##jeira
frutti
aniversario
##elar
##cco
pato
forca
caipira
recon
diesel
antibac
raste
##1001
chato
pesca
##mes
##rad
##00gr
negra
avulso
##mel
##em1
##705
frit
##365
mississipi
hydra
blister
fat
jr
martelo
##144
3pcs
invisible
nati
stone
##30001000
##130
macan
snack
profissional
##polis
##su
por18
veludo
hib
##228
dol
size
lapiseira
##158
frontal
##x32
embu
mama
##227
##eador
##quel
protect
pampers
##226
isababy
pelo
liquida
##alh
##demais
acao
##derm
castor
compr
dk
regua
##pao
32mm
make
##celular
##pet
##rem
elba
##ning
stilo
carinhoso
c6
whiskas
cheddar
dul
control
##dex
style
inferior
we
pronta
##506
poder
108
chem
galo
veloc
212
dinos
enxada
5mm
gengibre
gard
##ceta
tanger
007camise
ventilador
##213
aram
##icleta
makita
corporal
noturno
c5
cip
##fru
##mim
catu
beng
carolina
ket
##357
indiv
##tran
caseira
sombra
branc
miz
##ater
##255
##1002
dh
pock
129
##ense
sempre
perdigao
spar
##ssol
patr
homocine
azl
##trin
##rog
##156
mouse
ob
##348
pedreiro
ud
##fri
##258
batavo
nescau
but
carbon
frald
pelic
tradic
neu
resistencia
##tima
##345
tabaco
fusca
entre
amendoas
reservatorio
##3200
castelo
chee
ciclista
##utor
factor
5500
bozzano
xicara
fg
##504
iv
##155
capsulas
003short
abobora
8g
##146
rd
##len
##quard
rock
##cio
##press
paralama
speed
coluna
2012
##tanado
##flor
pala
granola
sv
anzol
1mg
sanfon
15w40
hidraul
paixao
loc
colecao
escorre
pares
89550664259
##ways
##hid
10kg
docol
condensado
##cafe
degrade
estabil
##tle
metalico
fras
##pas
##378
fig
##osto
##elos
pulso
homocinetica
##uel
carcaca
tudo
elastano
marshmallow
aplique
##out
live
herc
bx
##alho
frita
ciser
umedec
blukit
core
sazon
rebite
##607
bicicleta
larg
lanca
divina
080
80f
depil
250gr
ever
johnsons
hero
12x1
prudence
texto
grossa
elegan
##dal
##uta
canal
silv
sub
simp
##tilho
sortidos
tila
diario
##ai
fp
##oro
diamante
1010
30comp
externa
meta
##ffer
scania
##ab
##wear
tic
conexao
dalu
5un
ze
piranha
solteiro
alegria
tt
vir
sis
##rida
summer
##iver
caseiro
pac
condic
textura
bw
slide
199
4un
apo
foroni
grs
dvd
coxinha
##eros
##idades
##313
adapt
##ipava
##erry
##boa
cw
##0006
viscol
##808
##ons
furos
##boo
109
vale
mizuno
##706
##323
boni
whisky
30mm
##159
##709
##469
marmita
dente
abrac
c20
girl
normal
maiz
qd
decorado
fivela
vul
addan
pets
floater
alfaiataria
##221
##itario
##tinha
##vada
acabamento
isacare
escorredor
4mm
##idual
##x48
004camisa
wave
pilsen
kad
buque
001celular
scot
toddy
2010
220ml
##tech
mancal
##508
corretivo
iris
##neta
tricoline
ellus
macaneta
tel
##free
##macaca
##224
arti
truf
a11
deo
anjo
keleck
##ershe
200m
vde
trancada
vs
##376
trs
bomb
##uble
aberto
cuia
funada
##zy
##30001
decorativa
gro
##den
vista
##iagem
lic
##354
ehv
it
compacto
piscina
275ml
##707
##sunga
intimo
n8
ofic
xl
camu
##vanna
pratik
cracker
017
##333
desempen
injetor
a3
lore
##fio
babosa
##uba
recar
##176
##223
rasteirinha
##152
dream
##x250
ll
##slim
pow
esfol
cloch
##3600
vara
brasilux
ckj
01355
porcao
picanha
cremosa
##409
vt
compl
metros
lez
cereais
instantan
##448
parana
day
penelope
##509
##tell
##juda
600mg
##sauro
##143
vic
##cur
sapata
pick
##ern
##902
jacquard
sf
##806
fir
fosca
axial
##prazol
nk
##148
##349
##ble
rg
grama
glicer
buz
arv
pronto
01339
##cinza
n10
165
320g
blend
clip
vodka
##2022
##443
jaguar
marinh
##onato
10x1
##704
direito
desa
n7
rosquinha
space
##265
##344
tubes
laka
eletrico
bellesa
10w
estab
cardan
355ml
##166
peuge
piquet
modulo
jandaia
##259
fei
6x1
##708
##463
##erico
stic
starlux
mela
##604
acon
rubi
elma
##167
clio
terc
kim
##367
dual
itaipava
wal
multilit
cardigan
saches
pate
fixador
tilapia
aaa
his
##210
ah
a10
todo
list
##yda
individual
kala
oil
delta
##pg
chico
bond
##unico
8955066425900
##2021
stro
1200
##amida
predilecta
pantaco
preserv
td
ty
halls
anos
##356
elgin
dias
##x65
2m
##tena
##inte
selene
hf
ralo
recortes
t1
clochard
##illo
##trada
aloe
##321
sachet
mondial
folhagem
premio
ouv
##ness
ambar
##ji
imbu
125mg
corp
emenda
##vermelho
##gno
ano
biblia
##424
cuba
linda
##vir
##807
automo
30gr
perfil
gf
regula
vag
edre
queijos
garden
##vac
##bco
##bond
15m
avan
amaz
##lass
canto
ketchup
##507
c8
##lac
##cd
##esco
peugeot
girassol
pant
muito
cont
casca
bordada
maleta
princes
##essaire
##138
##379
620462
##346
tempera
nar
cheetos
##603
005calca
##178
004kit
bufante
##izacao
alcinha
cobal
##lev
drink
velas
##resso
tratamento
bolinho
pista
sabo
ath
seringa
americana
atanado
jns
##osh
d10
##459
desempenadeira
bian
dim
jus
baixa
##397
bebece
abr
004bermud
tonal
##olinha
##bet
104
##mais
guarn
850
460imei
##kar
##play
wee
##174
4t
##cer
##terno
double
polvilho
moldura
##368
oxford
sno
lb
esquer
mh
mars
vh
205
crm
indus
tangerina
cif
##904
sabone
##brisa
como
##185
fh
spot
##dora
##white
sque
santo
ramar
oreo
2t
##396
1x
hershe
cloro
de8999
goiabada
##172
joy
morma
##ics
extr
cutic
##emme
##9900
115g
20m
dailus
850g
imbuia
barba
ramarim
shake
bud
lig
uma
porto
106
##198
lm
mv
truck
grand
japon
supreme
alec
sym
##ari
##154
##388
nin
##187
lider
150gr
imagem
anima
micelar
cachorro
##lado
mik
wil
##703
monster
##168
roscavel
final
hol
##297
defum
##195
lavitan
italac
##cx
cuid
##acuo
018
610910001
bate
torc
cachepot
seven
fruit
emborrach
ajus
acelerador
euca
2009
always
triton
##1200
glade
bull
##398
rea
pmg
city
margarina
c50
##c1
boot
encan
difer
vigor
alcalina
nectar
001vestid
##tz
wide
##iant
elegance
60mm
pratic
24v
##wl
##velo
hastes
ferrac
140ml
nv
perfumado
##387
queratina
430
##rof
cone
unip
##192
nasc
angel
balanca
##pm
advan
1113
##frut
107
subl
supra
necessaire
##343
rejun
##169
carter
ciclo
##ction
shine
intens
##ucho
low
fak
89550667
vento
##ilh
bastao
resp
ke
logan
m2
show
##acola
##252
old
versa
##vet
magnesio
invicta
propolis
glu
lanch
p2
##chio
acc
mach
lact
lady
retrovisor
decorada
zirc
##4500
saboneteira
##barba
isca
ferracini
tg
##ude
##tir
shcond
ouvido
durin
##257
##369
importado
g4
mae
napolit
pantal
churras
carreta
pedras
fixacao
bq
##rox
##804
note
pantacourt
magne
##uda
lactose
noz
pendente
##icha
cors
##frog
##maio
gab
ns
cookie
azei
doblo
belo
granado
##30010
oxigen
01335
##457
japi
coqueiro
muriel
##emento
##irona
picante
maquiagem
060
western
##254
##427
polit
tema
inova
##imp
##masc
ingl
##362
##986
shoul
fund
##347
peru
kinino
clin
set
embr
charm
40gr
capim
flash
colle
##x120
bule
iii
anton
mijao
elefante
##isch
maos
cord
ferram
los
##eze
removedor
ran
traz
008camise
f250
##ificador
dil
linea
sueter
##etec
##364
##inz
##996
grava
rast
##ling
joao
oft
##cab
world
ilumi
##iew
pelicula
022
3mg
mei
##urth
37ml
##426
##usa
##177
##196
felp
##anal
boneco
bebedouro
apoio
efer
sbp
stam
loreal
primer
dinossauro
pinus
trabal
##range
galvanizado
sanremo
008blusa
over
pantalona
##toc
10002
pva
toda
elo
alb
##20001000
##rald
mex
##heiro
recheada
fronha
mot
tru
giovanna
5cm
tie
paraceta
##456
franz
intense
##enca
##256
40x60
arvore
rosc
frambo
ak
##izo
hick
maizena
##25mg
inseticida
265
##x27
##orio
620462001000
##icam
parabrisa
sanitario
relax
nf
v8
##609
ping
##269
umid
renault
cac
piracan
3g
##164
##374
giz
##ped
##803
gorg
maior
##453
89550665359000
cmst
ff
##traca
chao
antique
501
##yle
2013
soci
sobrepor
kenner
tamg
estilo
paracetamol
##yu
60cps
friso
protein
wurth
150m
alis
##gavel
tij
you
##ptico
##0031
##995
preserva
coto
14mm
stan
junior
##186
nosso
pij
##905
610910001000
370
##452
bandei
win
standard
##372
teste
##809
##377
##x55
automatico
##din
amargo
chev
esportivo
grampeador
sabon
close
urs
squeeze
express
520
##0007
##353
##447
uz
##lar
frasco
along
coelho
lavar
##153
eu
004short
##echom
##510
30cap
tonica
222
##xg
velho
repa
conserva
pampa
##x38
pais
sonhos
##arco
mata
##444
##nagem
portugu
##str
##0034
##line
##188
35mm
075
buba
ampola
evo
c33
hort
##141
cromus
fluido
202
hipo
tekbond
espec
##0038
pequen
fen
io
##x17
##fla
bandeira
puma
ent
##373
compres
##via
##lu
dipirona
2002
pud
##ismo
bub
01378
85gr
tamm
bolas
sobran
negro
carga
nb
##pos
aquarela
trilha
##uga
louca
fusion
##terial
sandero
##163
amoxicil
chicote
##eita
rob
berco
700g
##sul
##cy
reforcado
##var
##iliar
correr
caqui
refl
##quin
lilica
tambor
bianco
chal
idea
tas
calota
##sia
catraca
enxa
##428
brw
head
grip
itam
##icas
vib
##itta
interm
camufl
660
kal
##mb
flanela
##amina
clips
suede
c12
##iola
##eston
##zolit
de9999
##455
##uladora
evolution
20gr
185
alema
ambi
engre
80gr
panet
catchup
fine
mim
147
vintage
meg
petra
ervilha
alecrim
##wny
##382
zinc
##0022
tmun
xtz
##tatina
##icure
balcao
##imax
diamantado
absol
exc
assado
hora
##ixe
eletr
3600
achocola
01366
toy
topz
scala
fib
potes
##ester
apple
##eld
##389
tris
dragao
action
2008
nutricao
cappuccino
133
compac
##bermuda
azeiton
##reta
trilho
##x23
bk
##term
18lt
graxa
mmt
fusivel
opus
##162
hello
acp
360g
petite
bau
01398
##386
jean
##tti
panas
esgu
animais
naval
aveng
198
ls
dot
356
argila
##inco
##jinho
301
144
rejunte
laminada
##manta
galao
armario
vz
##pag
elastica
zetec
amig
005kit
citro
depila
##tis
banco
ata
##lit
##yto
##ase
baton
psl
fatiado
prestobarba
##0025
matiz
maggi
acd
valis
t2
chumb
##bul
por7
gramas
feliz
##rio
##eirinho
##gens
rex
mov
##429
##bec
##0032
##chas
mk
##fra
rei
deseng
silenci
napolitano
##encial
##ffee
valisere
west
caix
luna
##392
##ttan
##gina
pouch
samba
##elle
##olao
05mg
##342001000
gri
##0036
cht
velcro
society
vei
derma
perman
##997
##oes
cza
##maca
##vin
stop
60gr
nacional
##fila
n0
##20001
prolong
dois
##363
##179
gn
apti
##ork
lotus
display
##197
##423
aud
azu
45x45
flip
babysec
h2
##copo
##ris
20l
pratel
6m
##flon
##chego
little
##182
##0037
nxr
cana
vacuo
compress
##kkkk
ideal
vias
540g
1100
crv
batman
##0039
##cake
##x140
carburador
##food
mormaii
##pes
plu
##ticor
pind
preservativo
land
##omar
##ucas
ruff
guarnicao
##icida
rl
3mm
150mm
ep
##0035
proc
hersheys
dum
anabela
fermento
stella
##berry
xxx
avant
c60
##eiras
balance
lei
torrada
22mm
extre
eletrod
##x110
textil
ec
escada
chantil
spider
##211
enca
teto
005bermud
##mins
##timento
##xt
700ml
##384
10x15
aconchego
nip
conha
ppa
desenho
bba
lince
achocolatado
carbono
##0101
##330
12cm
##262
marsala
lencos
##uguita
butter
tq
engrenagem
hell
##276
##men
##erra
verti
35cm
##ineken
##graf
030
pata
##try
c100
##159000
descarga
framboesa
##elinha
sete
jam
sei
motorola
teuto
fuba
corrug
rold
matern
01375
quartzolit
dray
calculadora
##tora
espacador
acer
##161
politriz
vmp
nescafe
pilot
pepper
orma
pot
##alhao
presilha
##ms
pudim
019
##culo
fraldinha
brim
embl
invisivel
##ggio
cobalt
##adel
elege
##906
cdd
##fox
mann
cadarco
azeitonas
##fal
01358
440
##ost
61112
economia
avengers
hs
sing
reti
fleisch
##446
##fun
pull
##268
006calca
230g
wyda
##imetro
##omo
boa
cruzeta
soda
deterg
##ticos
ting
tren
##bril
##urg
raiz
intel
flap
princesas
lor
650
filme
##liq
411
n9
force
lastex
inteiro
##394
##tempo
2011
ng
60un
sandalias
edredom
##hada
gaveta
25gr
talento
terceiros
bj
mort
wb
##inador
256
##189
dakar
acos
log
##econ
eucatex
anticas
canaleta
sle
amo
##less
##959
levo
sereia
coloracao
minu
req
amido
rsa
penal
##ipe
externo
vareta
selo
##287
fur
##1003
oxigenada
##onada
##camiso
rayo
romance
##x25mm
duz
parm
##cota
cxa
mestico
feltrin
##emia
##253
75mm
tresemme
riv
eletroduto
6000
colon
tosc
##arte
rato
##449
cimento
005camisa
qj
1000mg
##ondas
bulbo
sto
##inos
rainha
##ast
5500w
copao
kanechom
##mat
herb
zincado
##759
##cker
onda
mecan
ea
alimento
abacate
2g
melo
208
##asso
##omi
unibaby
tl
##cinto
nesfit
orient
pegador
vazado
esguicho
dm
serum
##cher
##249
plafon
##0033
por15
blanc
diet
francesa
##c2
decoracao
bolsos
kiko
cacha
presti
bee
##pina
moveis
arl
japones
mogno
eir
##idra
tenys
##valho
scotch
##ump
marchetti
##cinha
flow
bronzina
neop
bich
duloren
belle
fps30
178
c34
circular
mno
##fol
amante
prt
##elhado
antigo
auxiliar
oficio
cidade
flux
##estle
##tadura
bibi
##xac
pregas
cresc
##285
marmitex
##288
paete
foto
crea
abridor
ampla
335
##361
emblema
aten
ami
ceramidas
curativo
mant
##upe
stor
##unid
anex
##ref
8955066615
sco
zo
##278
rolha
petr
4mg
##sil
##yer
de1799
##itrom
pingo
laura
sementes
##transp
tala
##door
catal
visor
silencioso
picoli
##468
heineken
running
##hs
01388
adultos
##entacao
tortuguita
acostamento
desfi
cavalo
##inea
moco
traves
##3003
2018
##nes
##omet
tha
##orth
epo
suav
focus
guaran
pita
confe
##cardig
start
lille
##0008
##arrao
217
tns
piracanjuba
ic
anticaspa
mna
papete
##led
##151
choque
##485
28cm
hex
122
liss
ort
cimed
salsicha
366
##310
01336
##x85
##riga
cummins
##500g
exper
adesiv
pv20
lh
##rote
##nd
antonio
09l
tulipa
kf
3t
deline
bottero
ballet
ean
pv19
2001
##garra
por26
80cm
##zza
antena
ferra
##vd
30cps
flac
##454
ovom
panasonic
roldana
muc
##rite
amendupa
antisse
rayovac
plat
96fls
rende
##uru
esfoliante
fim
artesanal
12l
pr107
##ami
cort
infan
##351
##194
esprem
##book
time
dumond
##letic
kera
##320
##0048
##board
##jaquet
pepino
instantaneo
65g
bulla
##let
##80g
neutrog
sobrancel
ipa
##wi
adri
trama
##267
fraldas
ruffles
60caps
009camise
preview
carbo
##251
156
##909
ced
158
dz
anita
floresta
biju
##0042
sky
2014
jogging
por8
liquid
rapadura
fortlev
##aline
block
##ier
adm
80ml
chimarrao
sober
termosta
sulf
##tch
reino
good
serie
hickmann
calcado
arq
serial89553149297
##red
##anato
cabelos
##elheira
downy
##eat
20w50
sodio
229
##unha
9mm
##cort
embal
anexado
##erme
dajuda
tribu
cupcake
414
##tek
##10010
##421
brochura
permanente
s5
sds
snd
ourolux
1p
fumo
##cb
##383
##465
611030001000
##x57
now
##483
01365
##rito
spt
dl
laise
40x40
##perf
intenso
##247
zen
##vm
retra
##life
##farma
##dove
mabel
002vestid
##topy
##tebol
hb20
mio
##itec
shoyu
trufa
c35
##bolsa
amam
18cm
##458
disp
pesada
six
##x10m
##alaia
parril
jasmim
zi
croco
resist
cachaca
##286
champag
jack
por47
##urado
meses
620342001000
##itromicina
mho
potas
aper
##artana
k2
caf
rota
imperial
vox
cocada
##755
##trial
poliamida
mgo
tio
70cm
organizadora
3pc
tun
##mul
##iri
##kin
pau
##ianas
luvas
##iez
##2020
2pcs
trel
50000
delica
agile
rig
##shorts
giii
##c3
cromo
gaiola
##x50m
flame
compressor
##dinho
##nestle
##2003
horiz
strike
fore
cica
frac
##992
polip
##277
bamboo
selfcolor
##500ml
laser
america
koleston
fuc
##0047
eletrodo
h2o
##ah
##bolo
atopy
der
##0044
p1
##vis
crianca
estilete
##zen
por14
152
##669
ceu
dun
cake
amaci
drops
7kg
##orr
ui
354
rattan
quadr
bono
cotovelo
235
prateleira
##sten
b1
manj
##jax
ovomalt
moon
sou
confor
porcelanato
155
##ecedor
roxa
disj
docile
ior
pk
arr
##985
drima
tommy
##iche
tok
2005
1000g
barroco
penalty
##pam
##0041
utiliza
##908
##274
ralador
##zel
futebol
1t
##edo
sata
divisor
solido
nappa
eur
punto
imperm
##0045
##3004
citron
sensa
640
df
calcinhas
01368
forno
##903
talheres
shoulder
leb
trim
##rugem
avental
##ylor
linhaca
diamond
fcx
champagne
vac
10x10
princess
pec
navy
##40010
##ulos
12m
starret
alface
##fac
##139
bolinhas
purp
##olab
capuccino
zig
221
##utri
##488
pran
energia
##ax
refei
##hal
12g
suino
paralelo
panetone
7000
organico
industrial
##0049
pw
##184
g6
pado
##sol
conhaque
tir
##958
##907
##seda
famas
stick
mato
rip
tea
##zil
##x30cm
dye
qjo
artific
hial
alma
##10001
##193
##292
estre
sna
##power
senior
412
##rop
maciez
metalica
##fruta
045
##ioneiro
platin
n39
composto
lurex
violao
week
##edio
economica
b2
tigor
01389
##fos
##0046
alpes
oliv
##x28
50x70
travessa
##lav
toi
eb
lus
##hler
toal
750mg
angero
##xacino
cid
finas
mir
##cell
itambe
##rte
tr90
outono
9ml
verona
pern
##icarb
hibisco
n12
solucao
pigm
##tier
009blusa
trator
##171
415
vivo
##nivea
##bone
oleos
transl
freezer
##264
##qued
tartar
sele
##hor
##randa
##etaz
botan
fris
twist
##vaianas
nata
##371
temperatura
shot
catuai
01376
guacira
touch
##mara
pinduca
##ibo
office
9990
tmg
##av
01359
retil
121
colorir
##thy
trufado
eferv
##dental
##1004
##467
safira
01399
dou
harmon
bailar
##trol
drg
sofa
bica
torre
cetoc
pulla
squ
##zinha
sanf
km
15lt
poleg
##20010
tributos
##756
kl
dez
##esp
0125
raso
well
garraf
aplic
mamao
famastil
sif
62064
##cotton
rayon
01401
##porta
##hair
colg
##331
regal
##fone
##jet
##0043
##183
retratil
##eton
freeway
##onh
coc
gasolina
fps50
esportiva
hug
musgo
bowl
santos
##x36
olhos
amb
aplicador
refletor
colonial
geomet
##reira
##urier
380g
##adelfia
reves
##240
press
por6
1ml
##gran
efeito
ecol
pequi
ete
kle
boti
##itania
forever
bit
ppo
xo
##estr
ref0
moder
n37
karina
hidrol
natureza
203
delic
mj
arran
caderneta
enfim
dus
cou
ltda
006bermud
confei
ribana
busto
simona
oring
folhe
vanish
calco
006kit
##00018
5lt
##0050
titanium
145g
070
c36
resta
##nt
##triz
laranj
beach
injetado
mucilon
puc
##dent
caniv
luk
tubular
contato
revest
gerg
pup
sof
##750
lou
##296
reserv
prestigio
potass
athletic
100008
bovino
##amassa
2f
##anh
10cpr
##iveis
virgem
rit
microondas
##opla
convers
encaixe
16g
carros
aplica
sicil
cof
##rix
luks
stanley
a01
malbec
ferr
jadefrog
castell
pier
plac
transmissao
##ika
1x2
##iner
tapa
facao
601
##imar
##381
peix
perm
scal
##665
coun
filadelfia
andre
tapioca
chaleira
rem
##urri
recem
##oth
2lts
tablete
##iser
conti
capr
13mm
camarao
61099
dose
##lace
##almo
16un
exec
click
bali
n35
comer
colore
organic
270ml
295
##onico
##rexona
spor
021
4a
01350
##00000000
peso
fritura
zam
##set
argamassa
pituca
ato
npt
bipolar
##ebe
raio
##fato
##679
pitt
##rin
bife
mits
0124
##ranja
mast
30l
##1005
nd
rr
de12
18g
##mani
##ome
kits
monta
45mm
portuguesa
giro
##any
salame
de11
eng
bombon
sobreco
270g
n16
##amarelo
cuidado
##rofeno
push
escura
polie
##181
meriva
##pera
lanche
kitano
tecn
kt
classe
##x300
por16
board
cerejeira
vitta
##eladora
norte
##00030
##ecida
br100
refeicao
lul
##ques
##173
rolos
##8003
##forte
nadador
reparador
25un
supl
yes
01385
fitness
canivete
bay
16l
300m
chantilly
vet
cacho
quartz
tele
##grip
12w
lazz
noel
cpd
##vil
167
pera
##493
##kata
vc
vans
magica
neutrox
troca
##cat
##pril
##00020
masti
15x15
##illi
sandhavslim
eirilar
por17
termo
##palm
10l
trac
25l
ajax
henna
sig
telado
##fest
##dox
waffer
game
##entina
lara
##191
women
g1g
funil
umbro
##diant
gord
vp
##lastic
chocol
perolas
c37
carinho
babados
##fresh
##bina
##arope
virabre
caneco
312
perfor
opala
contin
##272
zirconias
expert
875
bir
lentes
azitromicina
##2004
terracota
serv
talita
245
xp
molin
sports
1und
strogon
ai
c38
01337
britania
##282
blueb
quela
01347
##676
surpre
##199
##1kg
##hu
##989
abertura
bike
##kl
##pop
raid
barbec
##2299
plasti
##696
cachepo
rj
##955
##x20mm
sintetica
portas
exg
##ronorth
belliz
patrulha
esme
##rey
1416
##x210
n20
##ycra
n38
cres
torrado
impacto
reforcada
nan
##gal
1020
ref2
##464
24un
280ml
fatiada
710
jumbinho
01379
pint
baruel
assedio
bits
carto
joelheira
7908
100l
##tron
petroleo
950
##yd
##chos
cotonete
lolla
brasileiro
tpa
##umadeira
##486
luck
##alas
aditivo
modeladora
lingua
bascul
pompom
gluten
dohler
tral
barcel
ondulada
510ml
rama
road
lugar
##487
banheira
##dis
##idona
desl
2201
videa
aloha
cuticula
country
patim
1600
fly
fofinho
ref5
croche
07mm
bovina
vies
rv
calecon
mora
pip
passarinho
citronela
uht
aberta
sae
01357
192
pai
##393
mercur
comf
panda
avesso
avulsa
damas
courier
alu
001soutie
emporio
anatomic
##555
bujao
aguia
beijinho
solu
190g
pequenas
zal
lap
480ml
##sep
spec
perfect
tup
##fan
##pore
##ometro
adel
taylor
ingles
fx
cria
fb
##ucor
##nus
esquerdo
fab
007calca
sucul
pocket
modal
220g
gravata
regaliz
315
acion
149
##668
mtb
stz
laminado
globo
plugue
##391
tork
bailarina
##sacola
urca
juva
##than
345
ei
##entus
vital
##450
danone
jabo
ferrugem
##x50mm
liberty
1300
dd
005short
n36
##entas
vedante
a30
xarope
##dau
fase
citroen
##4003
vapor
flamingo
germed
fucsia
9w
s2
##hp
passatempo
##dallas
lancheira
50l
2x
##eza
##hz
cobertor
chimich
por12
spin
aromasil
zoo
atl
ive
antartica
retilinea
##tileno
##x40cm
wega
extreme
zip
##ther
alav
kuk
##floxacino
##garraf
jlastic
tico
##tta
knorr
collection
sinal
dacini
amoxicilina
estof
used
maternidade
##kes
180gr
ibup
vogue
quatro
aus
droetker
marisol
grav
calcio
frito
sanfonada
##bara
emo
lister
case
17g
2x3
1400
##idao
##resco
cus
##md
por1999
adere
ati
##land
papi
neb
##etina
canario
2mm
hidrata
empan
animals
10gr
##edi
404
grf
8955066926
glow
entrada
baloes
straw
##amour
tramb
ovomaltine
alen
prats
##90010
rendado
embutir
##312
##nos
por44
crp
monog
karsten
##lic
##cora
marl
##341
fruc
pants
090
higienica
##unt
##odles
nasal
complex
##x220
##fitthy
##956
almofad
amanteig
##icarbonato
##vw
##erto
aven
##brasil
6l
a12
aparador
bocal
vegeta
##758
graos
##telli
brink
lukscolor
##cast
duzizo
arqplast
22cm
recarre
##132
##elly
##andy
transpass
hidraulico
powder
1x3
701
##kala
canina
rey
1620
##00017
##697
barbecue
##teina
indoor
grau
taupe
##60010
##etinho
##dera
##ibe
patch
cetoconazol
virabrequim
##rinha
adicional
francisco
px
0122
1000ml
beg
suti
textu
##generico
##ye
boi
cravej
esfre
##gor
soul
maguar
01338
slime
axor
mosqueta
acetinado
anal
infin
resid
buf
passaro
##eda
mcg
mig
ofer
por37
vv
##saida
vanilla
tributosr
aliv
preto38
48mm
##7003
relevo
tralala
n14
##razol
cinz
montaria
modelador
001sandal
7g
##496
acetona
##ws
##0009
fast
yog
##tema
##roupa
freetaz
jocar
utilar
gerdau
##200ml
furadeira
##1113
carvalho
##forma
fleischmann
artificial
prog
bijo
bengala
##80ml
ifood
##hen
##oney
##sueter
##almofa
condimento
strogonoff
gil
hum
ref6
blackout
2016
260ml
encar
zincada
##eirinha
250m
2017
sextavada
pullman
##vem
quartzo
massas
acad
xux
shell
passat
alpino
surpresa
01342
##1101
##ings
zaf
rodas
predn
toscana
leito
rosado
##954
##279
belzer
##777
capacitor
720
modas
mold
jacare
165g
ipi
confete
##box
##ppes
##tard
esmeral
##dem
saidas
alcas
biocolor
secador
##inter
##icos
sprite
##289
##uxe
juvo
00004
sala
##lon
mosqu
vick
bolha
70ml
1mt
##arm
bruna
##294
iveco
vitam
t4
mart
##479
vision
marmore
variados
conforto
vn
##redo
##0160
ref7
mbb
apa
por9
##ingos
##vale
tubaina
162
sacos
folh
corton
acessorio
perolado
kadett
##2101
acerola
##vc
##ibras
214
##esul
20cpr
por3
pega
banan
aspira
torcida
lirio
hydronorth
##binho
##x29
cor350
##136
##torno
pomar
modelar
venez
620640001000
6205
meias
hit
800gr
gorgurao
##bem
##x26
##into
##edia
amil
amore
002soutie
yak
##752
alemara
226
paracho
descolo
bold
##664
bamb
jon
##dia
soq
pastil
borr
##berg
gc
##340
01348
kat
minuano
panco
tabl
petalas
##natado
##resc
neutrogena
365
2006
##macaqu
30x30
mob
tric
##887
##black
robust
##360
grill
010camise
adriano
todas
175ml
ht
jomar
por38
ref8
##psi
##ucci
##230
frisco
##666
basculante
maguary
xre
stret
por34
friend
pls
todd
listerine
7mm
8cm
tit
##ells
babador
hyunda
912
smo
pratos
##boi
006camisa
tops
##zao
##soft
vazada
395g
4l
ester
parmesa
tornado
##tions
geo
futura
tf
007kit
25ml
##754
panos
##xia
60mg
##243
##ific
duas
kelli
##jas
##vastatina
ricino
pepeta
uti
codigo
##957
1110
fant
##umi
307
anda
pratico
marc
dello
5w30
viscolycra
4kg
##heje
glam
01419
dna
opp
##tc
##xan
ade
##2p
##497
89550318
gomes
q10
50x50
purif
##uni
intensa
parachoque
##imbo
ativador
36lt
antider
cy
##ung
nativa
alvejante
brilha
##nier
por27
chow
niquel
vl
##unfo
##241
##benza
228
sonh
descolorante
035
nakata
solapa
##994
fog
sg
##inj
desma
agro
032
silve
viscon
bulg
##ark
admissao
mille
##etron
preto39
352
rischio
termostatica
quelato
equ
antitransp
ramos
morang
sistema
por2999
##tufa
cirurg
qualy
manjer
adu
sopa
##ensi
##inder
parmesao
##656
bifinho
multicolor
havana
007bermud
vitoria
4x
##gle
##utex
zaxy
330g
8x
atadura
diclo
mimo
colch
hialur
5x1
##ader
antisseptico
##00040
removivel
n18
unis
##zzi
##malwee
amarrar
sedan
35ml
confeito
bicho
variadas
chanf
oferta
038
arand
dic
saquinho
mayle
bif
##70010
1313
##nc
chino
plen
##686
night
##maq
ajustavel
244
harald
wk
cancao
metalizada
##688
##1027
##eracao
##bany
##bd
estica
lavat
toddler
f350
##00w
forrada
pluz
margarida
##fap
nutry
thin
##imi
80mg
##ejo
##temp
bainha
postica
##grafica
2em1
##randi
tartaruga
530
axe
c7
##785
ramada
##788
##ogico
hemmer
##ited
fend
##bg
##987
acoplada
wr
01332
destro
petala
fortal
dexter
avel
congel
255
cremos
intermedi
minha
##edas
parafus
petis
##qf
##9090
tranca
massage
r2
##nam
##nec
rustico
028
jf
##sl
maco
loca
pintado
curt
zamac
femme
pintad
jd
##adec
##deo
prop
##trona
120m
monte
##quimica
40ml
##similar
planeta
n22
prafesta
arn
tape
torno
##entada
elec
ilhos
8955066525
soluvel
tonico
circ
furi
collor
leon
biq
merheje
sobrecoxa
cul
bls
portao
convite
lager
sopao
001tenis
carneiro
266
bene
patin
redutor
pantufa
##789
moida
##casa
roman
kiwi
expl
machao
warner
##anda
##988
amendoin
due
copobras
lx
##hes
campan
rain
phs
bonare
polietileno
bothan
kaz
eletronica
slee
##ranga
calha
venus
extensor
simonaggio
od
##uper
cavalete
frescor
folheado
edi
fand
100000
6pk
hyundai
chuck
##rilhos
##opram
##xina
##482
part
08mm
magia
neopan
600gr
8x1
net
acuc
38mm
##clor
maxx
york
##x20cm
adocante
qboa
##teca
3600ml
portatil
juncao
negresco
c0
filt
martin
rolete
fosfor
##410
nauti
##477
fixed
coffee
##oreto
##pic
baiana
159
bolonh
hct
nak
fertil
##boro
iluminador
acetil
##benzapr
solado
mont
equil
baum
##283
torx
2015
sinc
gorro
cebolinha
lubrif
r1
saca
preto37
proadec
soberba
xtra
rafitthy
velocimetro
momentus
entrega
##lab
carv
##478
plax
dermac
advent
##667
24mm
##857
bestfer
depi
##757
curvo
deluxe
andacco
##fena
chama
guidao
agul
adoc
churrasqueira
preto35
casinha
28mm
tijolo
mexic
216
nh
##225
faces
sonda
parrilla
bup
glamour
champion
tonalizante
corfio
003vestid
##70ml
##0103
kukie
ek
##30030
marro
anne
noodles
eno
supers
graph
##print
##oxetina
tx
preto36
40un
brocol
fof
chimichurri
h4
made
brite
##frutti
##beta
joia
010blusa
irriga
roupao
##iar
unique
girls
8955046700
futsal
mn
zm
##andon
design
##284
##271
termolar
silverado
##uka
##iteiro
selecta
compel
##ifica
escapamento
6a
##nese
##473
21cm
sandhavaianas
florarte
##inda
therm
rischioto
##rina
##rita
freeg
delineador
alad
##rido
philco
##vers
##ello
de2299
##00016
aves
vitro
##x58
lacos
por11
bwb
##1l
##gano
##ch0
polar
##293
stylo
nim
##uo
verdes
tracta
coll
rosq
tacas
stretch
9cm
cest
1418
teka
48h
teclado
guarany
l16
corrida
##bat
pratica
cabec
selva
800ml
120mg
##ficado
eau
c32
##tio
##metas
aguard
damasco
##gute
canad
assim
urb
recheio
glicerina
01380
##ides
belina
01405
seleta
garg
##125mg
wc
mash
coq
europa
fruti
volume
ocre
56g
temperado
##benzaprina
##fenaco
##ype
enlace
valor
reconstr
gatilho
crist
##x188
brc
senso
champignon
jaborandi
##9990
##new
brinqued
bigfral
sparta
ambiente
##30000
##00013
008calca
##cisteina
4v
##of
##489
malta
##658
sanfonado
transluc
oak
de13
##0102
lunelli
hdmi
falcon
egg
conce
##ferencia
##adro
16x1
minions
023
quin
import
erv
tacho
leitinho
veneza
use
209
60cpr
28g
##cores
rodio
eletronico
##fig
##mine
boldo
100007
festas
brocolis
##iacao
70gr
oceano
16kg
flower
funny
magnum
oh
canecao
frases
opa
##p2
1050
paramo
##tais
babu
sobr
viseira
suspiro
rustica
t8
##rel
banda
120gr
edt
house
320ml
zafira
##xx
udw
##ratad
01345
saldo
esmer
proteina
pockets
espremedor
188
2a
sino
##hora
2023
neutra
##ces
01340
por24
sequil
toro
roupeiro
gtech
##irante
alpar
204
lite
aceb
diana
asics
revol
6mg
boleira
guache
bia
kro
nina
pena
pinta
texturiz
maes
1218
80fls
sombras
##lis
01367
ref11
fabri
80mm
formig
promocional
toalhas
executi
hc
medley
compactor
yel
ref4
castrado
closeup
##palmolive
nl
##00014
impul
itamara
dolce
giratorio
nacho
pico
##etinha
##263
velutex
236
lta
20x1
solt
injecao
cavadeira
cian
##erie
julia
franzido
lander
tad
##400g
costel
felic
schwe
marmor
coen
##etta
conico
selador
leave
##ith
clea
##dam
lavabo
mobil
148
250mm
##776
blow
ipiranga
a20
stea
unf
50und
maf
caixinha
##100g
##grafia
advanced
bijou
halog
seta
##fran
cog
##784
brinquedos
v2
##arel
cacam
sole
pinos
##273
fruteira
cheese
pedaco
##137
##4599
suculenta
##elim
##edal
##palio
emborrachado
quer
310ml
126g
pedacos
inspire
##vinho
refle
limps
foster
pantanal
##x34
coloridas
serrote
por2699
##gi
horizon
gus
##lm
##orin
30mt
revers
jolitex
amanteigado
##b2
01356
60cp
2003
offwhite
dani
liberta
thinner
n40
##cit
##zepam
speedo
de10
001saia
a5001
regulagem
criz
sist
##zio
activ
friboi
237
glace
skate
walk
##lasse
por1799
25m
herbissimo
024
##753
pettiz
kess
sape
##556
neopre
4pcs
ela
marreta
##lock
manete
##telado
lavadora
bv
s20
##indo
phala
heinz
recarregavel
esticador
5pcs
padre
codor
panett
tempo
gallo
##x10cm
apolo
sensea
##cious
triunfo
talh
sense
hidraulica
fco
##tac
pima
miojo
pts
##ary
##953
pear
chap
##hel
##idazol
##476
volante
oppnus
hl
manopla
13cm
##polar
jomarca
js
##mos
##bella
110mm
84g
letras
##psis
bolonhesa
##484
voce
##creme
nozes
##aba
##x180
juntas
wheels
festcolor
impermea
##lla
##city
carr
##662
##tronic
delicia
kd
##rax
##90g
nutrisse
censi
orange
calvin
01407
condicionado
##bby
##izer
##952
##trum
##659
five
ipe
##bt
carna
karite
##bm
##plex
##ilas
yokitos
sucrilhos
lucky
mignon
##olas
##993
##ucula
24cm
grendha
fakini
cran
icon
##x01
10cp
flore
esfero
##tencil
stud
valentina
##dyne
##787
queim
tutano
prega
tempra
passas
ocean
py
##mans
1401
plastic
18kg
phalaeno
01346
305
pintadinha
##wo
papai
rasgos
##base
duna
##99999
india
##tapete
##694
fogo
persona
##grafite
311
ua
alten
##ball
##rapante
montagem
dud
##guinho
three
melao
##irius
4m
macaco
316
dcre
hcl
##ule
pastilhas
##del
corn
aramis
randon
##x33
por25
roth
provol
90cm
viga
constr
marinex
jh
orbi
avon
garrafao
viena
##x30m
finotrato
piloto
dg
##311
tranc
refriko
blowtex
panettone
gon
##00015
posticos
425
carol
##itador
lisos
clc
pctc
##burg
audi
242
##frit
bothanico
canadense
reflex
##796
##tur
##x44
barras
f000
006short
##vesul
sequilhos
biogas
helice
comoda
kolosh
##cinho
01327
natur
##x500ml
girafa
classicos
vrm
calif
15un
nuts
##sapato
213
200mm
espigao
camuflado
epoxi
tadala
steak
224
carefree
automotiva
fps60
phalaenopsis
n02
coreton
30x40
##451
##corsa
##mont
hialuronico
100010
yamaha
picado
6cm
mona
##ket
##pres
reparacao
##iere
inga
##itao
brownie
##frios
botijao
##inom
kitty
spice
atf
pilao
terco
first
versatil
esmeralda
lacinho
468
preto34
48f
thera
##bla
##x240
depos
prisioneiro
sweat
united
##gora
##492
##4004
##eller
358
##tural
##558
290ml
crizal
gracious
##2199
##etasona
blueberry
pluzie
c39
eff
2500
01416
violet
single
legrand
grafit
baygon
gum
mq
espum
##00012
034
036
##reia
##50mg
##igra
suplex
remoto
kian
##fd
##hd
acresc
003soutie
ursinho
jose
##vor
505
arab
aromat
sincron
jbl
sq
##dak
escumadeira
##474
herois
amazon
catar
porco
prin
esporte
elem
sunless
fond
point
cx12
planta
bancada
equilib
hil
##672
caramel
##lins
810
pero
pevesul
##261
cour
75cm
vap
educa
sunda
3000k
gest
rico
deep
##emar
amaro
trik
selecao
furioso
saleiro
secret
vk
##uss
cars
6109100010000
diferencial
2004
6pcs
armani
##0105
senhora
stil
cata
anjos
##161000
presid
giv
marie
crio
escital
##30020
jaq
##911
143
supremo
campanario
b12
dama
jes
##ute
##uador
##x42
1214
##1900
18w
brocante
##cular
chamyto
512
jic
kent
100und
ermin
magnetico
atenolol
sobrancelha
duro
##san
apim
lavagem
penne
ciganinha
cacamba
##guinha
congelado
woman
defumada
holog
##vl
##mic
##b1
boom
bory
##phy
##tivos
20x20
rosqu
leather
0900
1x10
##pn
cortin
mamy
002cueca
170ml
restaura
intermediario
30s
clima
48g
##metro
gabinete
t10
10und
acuca
bandana
##gress
001calcin
bravo
helena
inal
albany
##nat
premiun
##6003
xia
##lha
##15900
sodica
##ticona
##angos
memoria
bak
##escente
freegells
##vid
##b0
chia
desin
salo
##786
210g
bend
esd
preco
fda
##zida
fric
nega
soro
##brinha
acaf
weg
inv22
jujuba
vegano
alvejado
queda
01397
descas
254
001cueca
89550664259000
##gs
##rando
incol
##tudo
cartucho
tricolor
cordeiro
##rais
por4
01418
45l
nossa
compressao
herme
304
##bau
cloreto
##belle
##300ml
1201
##677
coralit
por10
##bow
brut
olhal
750v
fleece
chemise
liquidificador
mitsub
##ratadina
##ert
##rade
titan150
gelatin
375g
10003
011camise
sime
##ossol
rucula
sabliq
##685
davene
neutral
ot
sanol
melox
1x30
141
##494
tirante
a5002
25x3
flv
moleque
cupim
plata
esquadro
carnes
0116
30caps
##peti
cabare
matelasse
chaves
rabicho
560
ref10
##elao
rolon
medalhao
gergelim
adelbras
##bk
##c4
##hy
gat
##tizado
227
002calcin
paloma
cubos
rapida
electr
kis
##bic
filezinho
autor
##701
meto
guip
##00011
alisante
6p
00pt
adult
petisco
palmilha
2pc
stencil
urama
##35900
gris
##field
cianorte
fial
salt
3940
008kit
baumgar
acrescimo
##214
castra
nota
##ologico
##901
##esi
89550665359
##mac
carioca
hidramais
##cks
salgad
cortag
ferramentas
vertical
##bz
cofap
boh
##peridona
doritos
340ml
coruja
por3599
luztol
pelos
mectronic
vertus
post
##80010
7899
jontex
oeste
##cs
##x62
nay
paprica
##jard
profunda
berinj
historia
tmm
oregano
margirius
dress
##c0
##pul
iorgute
costelinha
acafrao
##ileno
prend
##vitta
niple
960
ear
rk
sallo
filh
##tonico
assad
variante
viscolinho
bandeija
erminia
##toprazol
relacao
fosforo
sensodyne
nig
##eida
sandu
sonhart
hill
tet
##izi
esmaltado
feltro
klein
inteira
##881
##iti
20x30
talhar
friends
uramaki
475
##iato
beblac
pires
125ml
sapatinho
tecno
##uvas
026
kee
luiza
adventure
cb300
massinha
estabilizador
provolone
sweatsh
caminho
##984
##mance
beijo
por32
blocos
2102
bento
iqf
posticas
amamentacao
veneziana
splash
raspa
##flan
frios
hope
00pt01
550ml
##212
##x56
amet
progress
##hebo
menor
emborrachada
antitranspirante
itamaraty
azulim
##ienne
concept
##asul
306
gax
platina
7896
mvs
515
##ges
buff
lumina
##322
##div
##ilica
100mt
loop
abac
musical
codorna
##fritura
044
pliss
##rb
ador
rotor
neston
l12
nau
mezz
quelado
sonic
##991
##30g
soc
canta
0008
801
lito
desidra
nav
passo
encanto
8000
##uk
##une
##tano
##ille
##undo
16cm
turim
##biquin
panosul
poltrona
##654
calcas
homeo
arandela
12x
01344
##tros
perd
biz125
janela
##711
marina
arno
percal
esparad
##dip
reco
##mate
##472
fardo
fermentado
strong
acen
crepom
santin
imedia
pelica
##x60cm
defin
knit
histor
g7
g9
adt
couve
studio
tadalafila
914
b6
nuvem
007camisa
rsf
##sapati
01330
carena
179
jesus
279
334
##687
visc
##ishi
##50mm
cocacola
cipro
trento
mana
proced
desmaia
234
nero
zol
bah
fiona
tampao
##ifico
290g
nitril
hellmann
monograma
767
toff
##751
wood
snacks
fabrica
19cm
trancado
family
8955066615900
telefone
##442
##00100
rocast
rolinho
mesclado
##fari
por2879
l3
##arma
saladeira
lamb
dobravel
californ
baumgarten
##ef
crush
##663
geriat
talhadeira
malu
pesso
cbx
notebook
suz
10005
melhor
beija
bandeirante
unif
geladinho
xiaomi
dub
06mm
transporte
divino
##x08
ligacao
capricho
##iage
femad
26cm
bulget
kilo
reno
##gado
estrelas
vich
inca
30w
resf
divertida
performance
manjericao
##pink
##ols
incom
grd
##281
1130
direita
89550669161000
gamer
t12
##eto
sensivel
brasilia
comercial
fsc
s4
##uit
camisete
quar
blond
chocalho
sweatshir
4x3
##554
##652
##888
franja
palitos
potassio
poti
occl
toffe
tatu
reativo
##necess
cogum
7cm
mur
##band
608
termometro
pedr
01411
visual
matizador
##metasona
##patia
corona
she
##689
##50010
cega
spark
aspirador
##gonal
botinho
anatomica
680
edp
##314
marias
##1201
rov
003cueca
33cm
maquin
estabilizadora
defumado
##601
lag
##559
##657
##858
##463001000
tk
##uton
##x2m
atalaia
##tp
paulo
vidros
carenagem
rack
chica
addera
molico
pt15
ultima
oi
##gm
tenere
mooncity
g20
canhao
varias
011blusa
paulienne
8x3
v21
pague
poosh
ment
815
##vida
##roma
01333
filhos
##2005
inv2021
aerossol
ner
v20
roscada
antiderrapante
n24
##kr
##bf
##itro
deposito
ligh
mte
sj
yaz
##rena
alk
inffem
378
22g
##prox
##bilo
maravilha
cherry
escovado
57g
magnetron
89550669261000
lf
l4
minho
##30040
##rome
brio
3924
pacu
por999
desnatado
serena
01408
microfone
beats
almeida
visconti
##estra
##661
torr
valda
##essoni
bauduco
ngk
cicatr
##dd
##mr
48un
oralb
kam
##x31
cabern
ciafrios
marxan
mango
blum
32l
extremo
##vitamina
simeticona
6g
##131
##10000
elos
graff
naninha
safari
pulv
chevette
630
##370
altenburg
autorizacao
rest
unitario
calcao
finalizador
placas
incomfral
##uva
##poko
volt
008bermud
aplicacao
##wht
##3005
machado
fisio
regulavel
611120001
rezen
corneta
moido
rot
rorato
london
xs
isolador
por4499
santinelli
00001
##420
##isona
##ream
index
beleza
ferrete
##7004
charme
detalhes
tubarao
509
bracadeira
##ween
480g
dj
xlr
tecla
##779
##istatina
aparecida
importada
california
dema
##esse
este
parach
graus
##982
##772
italiano
xt20
pnb
neoprene
##kinas
##old
neos
mentol
##674
adesivos
hard
##1500
rocam
elemento
zan
169
lex
losartana
lj
##wb
##alux
shoes
grey
ferramenta
infinity
##doll
estil
today
cunha
32g
##grada
ninfa
irrigacao
bec
##552
pesado
350gr
radical
##tttt
232
p3
cheiro
##000000
clav
retencao
artesanato
desfiada
unisex
042
##cz
paula
por23
1800
horse
##adol
##brid
sono
fontana
inspira
yellow
bh
##enza
unit
dox
##x160
puff
5d
nq
##133
##isso
##toys
24g
atlhe
##tria
170gr
varilux
agric
vegetais
8m
ams
boo
##764
trw
jato
fasolo
almofadado
gesso
##ulacao
##kov
hertz
aventura
oakley
f1
##ache
brush
##focal
3ml
470
516
hul
ub
retard
ale
15gr
dist
bfh
fazenda
jovem
metais
g8
prada
cabedal
valsa
under
drape
aspen
autom
ventosa
cint
895510
leds
##tude
prolongador
weekend
##iba
banqueta
cms
text
batedor
garrafinha
fatal
##782
frontier
##inomoto
sundae
820
ecl
sandella
farnese
100009
##env
14cm
##weiser
##x100mm
kz
##lafa
end
##586
##tuario
##poli
dorm
##isolona
511
aq
001body
##mania
bermud
##anga
20cp
pod
40w
gaze
modular
1167
breda
grow
suplemento
jelly
##ap
##vana
##amba
listr
laminas
lob
prate
macadam
10004
##ture
por1919
mach3
nema
##7g
3536
medi
geladeira
525
##ali
mafessoni
1x50
spid
water
tern
miolo
odorizante
bichinhos
transpassado
168
004soutie
h7
precis
mueller
aquario
castrados
anlo
deslo
nugg
hiperfesta
89550665259000
acendedor
901
vf
wg
##liane
##eu
##ams
01328
poker
crocs
fandangos
roca
medidor
suprema
n03
##150ml
##anti
rox
planner
nitron
chipboard
sisal
##lot
##ivery
##astra
refra
molh
##mod
pantoprazol
quadric
atlan
transi
burn
89550667159000
3c
cofre
##ici
camera
tomadas
##0106
steel
diclofenaco
paisa
##ury
marcha
tripolar
florestal
domingos
hexag
c31
##tn
drive
plataforma
ligan
##fino
collins
arth
verme
crescimento
scoo
pomarola
vichy
##cop
raquete
escr
capitao
scud
snow
ametista
2b
##ser
##1020
302
40x50
##ralle
solo
belgo
bubble
3738
dermo
bn
oss
vitamin
italia
purur
vrd
rezende
cent
bistro
actvitta
lq
##5109
##tigre
01395
robo
superm
rayban
prancha
marlboro
##relogio
azal
cry
tradicao
jumbitos
##bp
##elina
01360
sher
runner
modelos
estribo
alimentos
##x43
hobby
berinjela
gang
de2199
002saia
molecotton
revista
mhx
acetilcisteina
maquineta
back
##yma
01349
luis
solitario
1120
pescoco
velvet
cg150
pearl
cabernet
zeb
coton
suspens
daily
leonora
electrolux
bz
##inario
shark
fitilho
haribo
aladdin
g0
x10
0120
infla
##557
##adinha
146
1018
iceberg
lyor
empanado
wind
manha
##200g
valent
delivery
009kit
homeopatia
##291
##plan
macadamia
3w
435
imo
##lgo
##eva
##rapo
##egg
##481
formas
perfeito
01406
selim
##colate
clinical
4f
gian
##bege
##x37
por35
2007
odorizador
gomets
corrugado
salopete
topa
loucas
monda
food
##extra
10mts
chanel
##multicor
oz
p10
##pers
##0104
fechada
tuttifrutti
contact
minasrey
buzina
rainbow
001chinel
70mm
repar
fazend
ibuprofeno
12kg
frd
003calcin
congelada
##cheiro
##trata
very
perk
55cm
lynd
ibpt
a03
oas
sauv
arisco
260g
kibe
##blazer
##vs
##260
quedas
##794
palmeira
580
##983
pespon
caveira
cipla
schweppes
hologra
n41
##cf
##quito
azulado
lhama
platinum
de4599
rav
##762
repos
siamar
gatorade
pururuca
aur
asep
amen
salva
figo
eurofarma
225ml
jum
tto
##tone
357
##692
facas
talharim
atlhetica
##925
285
1014
amores
##pf
verb
trium
justa
cirurgica
954
n01
r12
##rr
algas
##ibus
abc
kuky
triangular
steck
965
fec
wash
loiro
3646
##formina
##x25cm
##igrafia
##441
esparadrapo
##isen
broxa
bordar
nivelador
alpha
felpudo
flowers
luiz
jota
##x45cm
##tralina
licenci
prednisolona
##chor
strip
8955109
outras
nissan
bengaline
ciclobenzaprina
escitalopram
friccao
##urante
abrange
620520001000
x5
##imao
##40g
tamgg
##colgate
611120001000
519
yang
##bene
##pid
##roc
004vestid
comfortflex
converse
him
18m
200f
natucor
finire
cidreira
332
jor
vem
sag
##ipse
mitsubishi
giga
##x95
##idi
##vec
descol
mascavo
01409
temperada
amaciado
mit
##x54
mezzani
##315
##zero
##down
alvo
##bota
styl
##4005
sulfato
trambulador
translucido
910
940
01362
abss
002sandal
malhas
01429
hidrox
cruze
kika
halogena
##00034
##ibu
38cm
numeros
ult
##411
##pta
##trad
apres
mb1113
##beto
vittamax
hellmanns
kinder
gatinho
avent
selante
rothmans
nam
basc
##00019
##x280
lace
##metal
silvestre
8l
n06
desta
crf
01420
herbal
##x15cm
fructus
impulsor
cortininha
diva
kra
##utador
polim
broc
geolab
merced
##335
##mil
##hoto
polly
##1006
004cueca
pimentao
mocoto
359
##tario
camisao
celeste
009calca
89550664159000
##iclovir
324
web
molinete
casco
1407
elastic
##baste
feijo
cec
pff
r5
siage
##316
por29
quadra
lavand
degraus
vibes
1618
60m
guitar
prest
trein
budweiser
322
alcon
menos
biscuit
##x215
outros
2213
bicarbonato
kell
zebra
##alu
##riti
##461
fatia
709
assa
750g
hype
ativo
nara
60x60
redmi
tuti
colirio
0010
escu
confec
asepxia
##00026
##suk
4cm
0115
20mt
roc
##gex
##tony
140gr
quartzan
souza
490
##olia
ortop
##kat
pt12
plasticos
ideia
##urinol
##clean
318
era
##2mm
bora
dupl
cefal
work
shak
kimono
314
bad
##anhe
##deca
##951
encos
seu
##774
##xaco
passeio
italiana
fantasy
paulista
tornozel
equilibrio
267
rch
zf
##kx
##cing
##olan
camila
carimbo
parte
juli
m12
osc
saara
##10020
like
malagu
mamypoko
666
crown
55mm
brochurao
soleil
jacto
##intimus
##gav
sertralina
05mm
##6004
pantaneiro
xicaras
dispens
n05
##taman
##elet
37g
##792
deli
naturals
antiqueda
bohemia
##nn
##00037
25w
ska
##682
pont
##859
cisne
gargantil
e6
##esis
kit3
25x1
##uxo
durex
cartografia
239
bik
vila
##ful
##day
meada
pasx
350m
essence
lingerie
esquerda
rej
##ersor
manicure
fria
raca
carbografite
starrett
if
paper
porte
canin
##brox
economico
kil
coalho
canj
pryma
##eao
curc
globe
boss
lama
espelhado
aprend
01430
extens
por4799
wellmix
complexo
##tik
peach
metformina
levorin
papinha
atitude
711
##enc
milano
mister
ferrero
hos
nico
##urada
suisse
196
##854
##897
vai
viqua
tucho
germani
syl
##698
alga
amant
##ized
soph
18k
cintil
193
1405
##ifi
pizz
fascil
mangas
syn
deus
gelado
##acor
16a
lousa
tritec
agra
tasch
paramount
4pc
714
##enso
##tical
diversao
dacar
##20030
##852
##ctus
string
fracion
##geiro
toalh
anta
##684
##diol
##x45m
rovitex
1bl
sma
parab
18lts
bananinha
11mm
couros
blusinha
adoralle
gfa
##30012
sany
##693
descarta
comprimido
vitaminas
evas
por3999
36g
cabra
140m
sandhavtop
zalike
##elseve
gatinha
hallo
fluorescente
estriado
winner
seios
hidrolight
amarok
gargantilha
2700
428
n34
aciclovir
fluc
blind
limpol
##30015
bettan
bil
0112
pepsi
##981
mescl
localizada
palav
vulca
amazonia
rotony
guerra
atuador
valvulas
100005
##opurinol
peccin
plenit
esferografica
nice
##pant
caia
tracao
##0010001
120cap
13l
01434
ouropy
tornozeleira
419
920
db
lte
##vest
mood
t3
por20
infini
acinz
01425
##564
007short
##grax
felicidade
yazi
##lack
##kito
##jg
##00021
gratis
broto
nistatina
##ametasona
712
de14
##20020
##ilax
verao22
pratika
aperitivo
pxgg
inflavel
690
phebo
50mt
abre
##corp
##uave
de11999
##lafaxina
##jero
macio
##5003
stars
descan
segm
technos
moderno
1417
##bier
mirasul
alenice
fish
deserto
transitions
434
670
##dt
ambrox
anth
1101
bals
voil
vovo
alpargata
azaleia
poliure
logus
estreita
servico
##idina
arqu
trakinas
##856
piment
fritas
billy
etor
##x125
map
164
16gb
turbina
hamb
##figer
bonder
pix
tol
caligrafia
##terol
40a
01414
aviao
300mm
cottonbaby
##aleu
snake
alv
garnier
##x40mm
font
babuche
##gy
citrico
##x5m
carreg
encosto
065
cresp
ariel
isla
##x15mm
8955066445
027
3mt
fich
hits
lad
rust
##gh
alice
polos
elim
01417
##iflex
4d
5pc
l8
pump
##rt
##ique
##asse
baga
405
##prolol
01439
puri
blueto
sba
lego
##ggy
furacao
c9
rh
01390
ferret
pescador
msl
locatelli
fertilizante
462
dio
glass
hip
kj
##2l
##zeta
1216
robe
amarel
##polo
secre
secante
##treme
wars
camuflada
##dena
##2023
paes
madre
210ml
manu
##utros
split
##tens
modern
champanhe
omeprazol
naruto
mud
orb
protec
astral
##00024
##cmt
1414
flexiveis
##797
revital
##branca
##303002
tablet
monaco
inplast
camb
chilli
##3500
3518
estampas
tigs
2750
7891027
02023
660ml
ferrette
kron
##ilan
01384
lambda
liganete
##350ml
##mid
grelhado
##896
ondas
diagonal
dni
injetavel
geometrico
1x4
side
##710
##00036
poco
flut
cerca
duralex
lustra
##wood
rosquinhas
aria
##alato
##2006
compressa
botanical
mago
##00022
01412
##opy
aquecedor
quartzanlgo
anchor
cang
chocot
vermelh
linhas
burger
melaton
##fle
estan
cor0
desent
##calc
radio
princip
pj5
arthi
336
bes
eisen
vaselina
##40020
009bermud
pitaya
por56
mandril
revestimento
estofado
yamas
50w
hilfiger
2mt
calend
touc
##eauty
##40030
galho
distribuicao
parmeg
comed
servir
coord01
figura
csa
##ijo
deg
##ulina
oliveira
historias
cats
##653
tomara
caipirinha
610990001
t6
##alapril
cascao
32cm
alcaes
ortope
cavada
maritimo
tucson
og
1005
jahu
desemp
mecanismo
xuxinha
811
##00027
50x80
coloridos
neto
bichos
##x50cm
##ripante
kelly
pickup
8955066735900
dilu
guipir
7l
anil
hay
32a
##x12cm
darling
umedecido
1001
separador
##pretom
pantanitos
chiff
hipopo
petisqueira
##tie
##boy
120cm
##471
pluma
223
spring
de10999
4k
6w
sibra
##iado
##kel
##00025
##2200
##x500g
cintilante
##enic
shim
##10030
skf
55w
##nol
torres
sildena
maxion
160f
012camise
pistache
g1g3
nimesul
##cabo
##onha
##mag
##utti
##jardin
##ural
espan
20008003
jantar
##3030020160
200080033030020160
##coca
conica
##pea
gray
apito
cuecas
17cm
massagem
cravejado
halloween
5mt
floreira
berry
##intetico
nautical
evase
tyl
##lie
##ay
##ilol
cock
##7500
onibus
doses
adomes
fundido
andreza
041
c23
jal
pana
##rl
##titan
barao
envel
biscre
##udos
##574
juta
romana
siciliano
3lt
sad
waleu
##emon
conven
chl
grandes
##itaria
dragon
avelud
317
aw
##00032
br101
60hz
api
##parf
holly
dela
rca
adria
##need
rolam
simon
estp
tubete
licor
treloso
esmerilh
lola
vil
##fc
##teo
chipa
##00035
##00023
empa
laranjeira
1408
blusas
000000000
n04
##inac
##ems
cava
406
alumini
cprs
tiff
canoa
seducao
510g
poliuretano
##anto
1411
1419
clare
impera
texas
sundown
##cloro
450gr
dispenser
ari
nita
true
exclus
divisorias
zolpid
2ml
##zin
##2035
espace
11cm
biri
marata
atividades
queimado
##mw
##jetor
##oninho
amass
borboletas
galvanizada
vacina
ocmt
##ders
##00033
45gr
180m
starfer
pernil
buc
eps
##ius
castel
ens
fendi
029
izy
kia
##uj
marr
01354
308
65cm
daneva
aramado
temaki
kislla
jur
##istina
17mm
inv2022
100018
essentials
flamen
kodak
nascente
319
iverm
jc
##light
##pd
0123
bara
quant
001conjun
solto
##morango
seren
##673
felpa
atego
339
##sn
##arosa
153
crep
##683
##adex
mineiro
sensual
gabrielinha
hammer
quality
chaveta
trabalhada
thais
dzarm
12x3
manchas
01435
bios
erca
dalla
008camisa
biz100
pag
queros
pinheiro
chocolat
whit
125mm
surpr
3a
chif
##laranja
##1400
##1007
barr
flop
zabet
guapore
confeitar
bim
##430
##leg
##00042
femen
emul
252
frisk
chaira
granito
antiader
glicerinado
acucena
gtin
honey
chrome
marin
mario
##enau
1938
##flat
continental
chanfrado
##sx
##tila
1030
##00028
jeep
96g
higi
betametasona
ig
##stil
sococo
gaucho
varios
laterais
automotivo
5400
gitex
##imel
##00038
topo
regador
young
xodo
tupy
horizontal
scooby
2x2
612
##look
##bag
metasul
profess
2000ui
voltagem
89550664259001
intelig
iks
campa
chand
verao21
instinto
grampos
##ambaia
fes
rich
##fina
carber
toq
##491
172
inv21
nutritivo
alfaparf
zp
##enol
polibras
posta
010kit
##2019
##eria
##iais
escrita
##udur
interneed
tm04
01426
gestante
feijoada
chiffon
a02
nbr
01318
166
##antene
apos
##hex
##651
formao
fisi
duster
##ald
trato
##inth
gaxeta
mourao
carmim
##853
##9003
01387
argin
##prote
consul
lazzudur
restauracao
313
ccm
psc
##iona
##x53
pt11
barcelona
nana
##itas
camadas
mop
azed
aga
##cion
##cuz
rebo
sexy
grafiato
##riptil
keldog
esteril
bettanin
pst
##vador
##utinha
compact
raticida
##30011
##core
##596
##tidina
irrig
466
r6
##lum
##cen
meus
lenha
rubber
##alhada
poliprop
##dig
##mante
1211
firen
cristalcopo
sw4
ajuste
enxag
6800
kip
xtreme
##tino
pajero
nove
##etera
belmar
brassuk
400m
kapo
##x8cm
rigido
##itz
saude
alem
01377
batida
sugar
##10011
biscm
##icolor
wilson
cogumelo
luisance
6201
##xl
##cara
##chini
35l
##ibon
##150g
6pc
zomo
##vv
##todos
##choc
harry
##vares
carved
reconstrucao
fichario
##jur
##osos
days
millen
tons
arranjo
verbena
##aliv
espir
magenta
##x10mm
c24
hillo
n30
v22
##anos
0111
esmaltada
tank
churros
sptlha
895506653590001
buffet
037
ref9
120un
fk
##f0
##xon
##lay
24x1
##773
ultragrip
##lencol
bluetooth
528
##guante
enxo
autoades
carretel
perkins
ureia
##100ml
cortes
90o
##filina
levis
trelica
sildenafila
flamengo
jura
pua
100015
390g
umedecida
edicao
iss
oco
qa
##215
##jon
chens
##00031
panel
##x260
bufalo
malagueta
100w
##783
bupro
##nho
ragl
tag
purple
610990001000
##f5
probio
salgada
mucam
6000k
inpm
15mt
120mm
##tonado
##x05
##frag
bbo
##tv
##referencia
amonia
moedor
leop
pipa
flormel
##691
positivo
bcaa
alongada
hq
tmp
saw
##upla
18un
condu
##x5cm
##roupao
299
nord
##teco
01363
##calcinha
imb
lorenzon
arnica
eclipse
friskies
5p
n42
rum
prep
##unch
proven
micr
cabos
recei
passion
##assi
storm
mastigavel
mondaine
vg
##vinil
##clo
rafar
175g
8955066936
570
##big
##ardo
moeda
##brin
cristais
turq
dexclor
##hidro
5a
lich
t0
chester
infmasc
favor
torcao
##utia
asas
dinossauros
hermetico
bree
##300g
adi
157
forrado
##75ml
01422
petutinha
##pretop
100019
karui
yogurte
01326
2202
dourad
tortinha
pantaneira
tucs
lukma
##ersey
##bata
408
plasvale
espetinho
liebe
stress
cefalex
i30
##30mg
##0010000
##1008
##671
##tinhos
##blue
alfinete
deslizante
botanicals
cva
##0a
##fas
##218
##mento
##bai
brux
##3900
186
##40040
hybrid
burguer
nascido
descartaveis
0002
c15
zr
rece
01343
##ians
##4200
2101
611030001
finos
sublim
retif
taschibra
lz
mantimento
quino
rocadeira
##itel
##inger
##4800
##1301
6209
estrut
fps70
yangzi
canjica
melatonina
zolpidem
querosene
047
bsc
euc
colormaq
lovel
elix
formato
stabilo
residencial
triumph
##ftal
##x66
##tit
boys
001camiseta
rastelo
aviacao
phyto
itap
axios
peppa
10w40
dicoll
##jam
##elia
##20040
##5004
ortodon
##x35cm
depilatoria
atoal
descanso
01369
prumo
trizeta
##endazol
900gr
santista
por3839
hulk
##idora
duca
just
alopurinol
cambara
boina
##uts
##alat
enalapril
90cap
##ube
##mant
6105
calab
vertix
mercedes
curcuma
cominho
50fls
encor
182
zael
chicken
##x127
ganchos
megane
sensacao
guitarra
3em1
##zar
por46
tavares
frufru
generico
charoma
aniver
papaga
album
massageador
ug
##x76
preto40
por53
##toni
malea
baldinho
talge
##marinho
##flora
238
338
cativa
##bohn
plana
brava
frutil
burg
speedy
cedro
bomboniere
rafarillo
kp
##c5
##inais
croped
bomber
##771
morlan
400mm
278
fn
##nel
ref12
encap
resinado
27g
mia
##fios
01319
multifun
terno
mineira
maiorca
depilacao
meloxicam
confeccoes
dicollani
x1
alex
cheirinho
##00044
002body
fag
21v
matinal
diafrag
hexagonal
##020
clic
gode
##761
27cm
012blusa
##maxton
artis
000000000000000
##riptilina
sass
##mor
01un
coleg
14l
protetora
420g
de12999
carvedilol
pri
wifi
##ecor
glico
45ml
##763
brascol
donna
casting
rabeta
desfiado
2200
pess
tandy
x3
frt
##10012
melamina
coralar
koloss
tucano
piercing
alivio
coentro
epis
##712
##ingu
503
##ffel
variado
galvano
sublime
enxaguante
tiffany
cefalexina
gz
gioca
oro
inco
##idez
highstil
##clear
articulada
austral
jaleco
6mt
8mg
gy
##280
##x400
##00029
01410
##impala
umidificador
imperatriz
ez
##x59
##iste
paz
001relogio
espelh
granada
abajur
fresca
etorq
##icial
50f
desf
spir
cafeteira
absintimus
askov
kaf
sleeve
##3299
189
sabrina
##alhau
mc002
005cueca
fern
##793
scr
acaju
1168
aspersor
##igo
##610
##alerg
##collor
doctor
corsario
kalip
seiki
##uvastatina
potiche
conduite
h1
##sem
##1110
dob
3500
nozinho
##utora
##phone
carretilha
largura
creatina
harmony
mexicana
therapi
048
dur
##imed
check
refinado
##izina
##553
##iros
##0107
matrix
##dasa
cobrecom
fluxo
ternura
2bl
aure
cpp
arca
nex
orelha
mesh
frutta
620463001000
65mm
domino
trabalhado
mococa
zanphy
550g
por62
tampo
##tuba
##coracoes
raglan
00010
5f
c28
iz
desn
005soutie
1012
frizz
arado
radex
50a
15a
##2201
mello
##pretog
230ml
snoopy
sak
conch
20lt
bacalhau
expans
arabesco
##clorotia
3u
770
spo
30kg
verg
meiao
##aaaaaaaa
615
heli
jump
vibra
##eady
10comp
1250
vert
##mex
803
alcatra
cobert
inoar
comfy
marmorizado
0118
##00041
##ectina
cinder
recicl
feel
twill
etios
passaros
aguardente
demaquil
mucambo
432
race
##ech
##antes
titanio
##tampa
respiro
##leve
brancas
antiaderente
##rid
##zitos
151
exa
##trs
005vestid
##582
##pretogg
violetera
105kg
sutian
acucareiro
anthel
2k
5k
##5cm
##ivita
doral
001pijama
toma
confeite
##ronidazol
primor
passagem
intelbras
hosp
268
##fly
##vente
##mad
##quita
##bay
##batom
002tenis
gelada
##plac
duda
##sons
evid
##x70cm
papagaio
##anna
alves
##ritos
##bahn
regen
##60000
##fiesta
rotativa
lobinha
##ogo
##2032
rasp
370g
yamasterol
cima
##ste
label
cueiro
##6500
##essi
vabene
100006
profundo
por1800
looping
parmegiana
nimesulida
firenze
033
667
n08
##oliv
1415
spic
regra
estante
samambaia
victor
329
jersey
les
s1
##5ml
shp
15x20
only
lumi
invictus
bendix
aka
herm
incolo
vaqueta
27mm
triple
radial
maraca
dexametasona
cestinha
01353
desbaste
100028
010calca
gavetas
brioche
canguru
rosuvastatina
##plic
##uzido
##amarel
shape
stylus
candura
nayane
437
c300
deck
##tif
##uril
01352
quia
pisos
levit
cabeceira
039
2x4
439
5lts
ovel
##ield
##alon
intima
12x2
##urs
01325
##brinco
##0108
lilac
segredo
corrugada
story
laguna
625
6x2
jm
30x45
adfem
504
tam2
##551
##3101
havainas
duplex
lixadeira
racer
mamae
barcelos
urbano
248
##andia
crim
sofia
##zaeli
##sora
diamantada
purificador
nicho
##skala
baguete
##25002
32un
fisher
amigos
##cox
apis
simps
705
energizer
mosquetao
mosquiteiro
coo
retorno
sapol
motos
288
cmb
##vestido
descarpack
obje
feixe
a1
d40
##zima
code
cactus
corinth
anis
canetinha
cerda
cepera
##aaa
telesco
ecologico
0986
c40
fro
m14
##rd
sagrada
blk
desentup
pula
saq
##00045
##umar
desrexona
##x130
##john
merlot
aromatizador
mikdog
beblactea
##gres
##iter
maza
matos
carra
crtrat
##1620
plasbohn
encas
180mm
susta
kolene
jp
##250ml
##c6
por22
30a
gradu
correio
fofo
bambi
unipolar
tarra
##fb
##x39
##ugas
cbt
optico
alegre
256gb
##imiel
gvi
##chete
trab
rocha
##3006
santor
moren
tanq
four
argolinha
giovana
busco
justica
dueto
surprise
9l
##850
##nh
##itol
##00048
##2500
metil
epp
50mcg
##ralho
grax
slin
11g
teflon
brazil
selec
henn
eveready
compacta
fondant
refratario
ator
c16
eq
##eed
##ecido
16x
perfeita
thor
sodico
toffano
julieta
lichia
##fus
##port
1045
neom
004calcin
vitral
virada
##acolako
de1299
reversivel
shakeira
esmerilhadeira
ida
ora
##460
##iera
poppy
16x3
perna
##erado
160ml
ilha
hamster
bottom
650ml
c21
corac
chut
502
gl5
metallic
cetop
berlo
stay
airwear
sulfite
sportive
bsp
xan
##mu
##hm
espada
##tamil
girando
wild
bubbal
blumenau
445
p4
##star
##722
##jada
bocas
##25003
##pex
activia
campainha
anthelios
231
iw
cantao
##892
##8004
sobrem
##prata
50000ui
dormir
sapolio
043
fuz
r8
##dl
die
tecidos
##iflo
bracel
incenso
vulcan
574
ws
zee
##beauty
01329
comprido
##10040
ceramico
depimiel
antise
l16p
delave
328
nene
sbr
01317
crema
injetada
quinoa
517
m6
##00043
teens
##40011
##70030
bombeiro
recarga
cranberry
beter
##gia
##enio
muda
torcido
ramai
pest
wf
##sutia
##amel
capel
##urit
choice
havslim
##prev
lily
55gr
##chocolate
sunset
churr
luxens
meb
contem
##3400
scrap
mandar
cuticulas
polegadas
hw
tsa
vono
villa
caca
12x12
medida
1399
assolan
duetto
expos
retifica
##facil
breeze
##550
##rine
##hb
##isao
##tika
##osso
##ilia
cobr
por4999
001macaca
celebra
2805
square
oscil
zar
lift
lanc
tirol
liza
##jor
1412
38g
chumbador
sobrancelhas
ambroxol
9000
lk
mosa
##ll
##ae
tamar
bolero
##att
fazendinha
246
dam
tz
##ob
alprazol
##chet
banha
motoro
elixir
fuso
igu
sat
arto
##70020
depir
defini
514
pand
##sup
##5050
##882
transfer
usual
beef
gordura
sut
##jado
mapa
008short
##izzy
copra
helio
helanca
brilhus
mrh
##iclina
succao
coqueteleira
nipel
por2700
formigres
m5
01396
##queti
impact
130gr
cnc
025mg
acetico
233
326
eudo
w09
##nac
##1600
##10001000
fap
macico
177
##886
estopa
380ml
78985
inglesa
rancheiro
7000ui
alufort
cbo
virt
##ean
##tl
##couro
train
25a
remendo
kend
caldeira
arcolor
163
tabs
##681
oncinha
##monange
authen
antibacterial
quiabo
hand
mca
##ody
##20g
##quad
##30025
003saia
2400
8955066415900
isolado
3coracoes
##00047
arras
100025
75m
perfumes
novica
cuturno
por5399
ron
vdo
##itros
prov
estator
174
travante
001shorts
games
esfregao
pizzas
gib
nho
0119
lau
##cart
##colora
moscada
10w30
ripilica
##estrel
espumante
590
7w
nass
##oculos
amol
risca
sns
domes
drosp
##isc
##home
##x135
gmd
cozido
divisoria
nugget
3v
##630
coqu
cordo
01400
puidos
895506642590022
bermudas
desloratadina
serenity
atoalhado
c25
##ollo
##roup
##grill
clona
jaco
##irty
smash
karanda
flakes
hyper
##protex
alongado
desengripante
cotonetes
nitrilica
sfera
##1k
##kal
tot
molhado
##quation
hotel
burrito
colorado
89550664259002
##pantol
cpo
gurt
##00046
carmen
macdallas
cerdas
halter
4x6
##utos
##irl
canvas
mbw
##boraki
biriba
m3
ingle
saint
mark
##neut
rabo
dipl
veicular
##380
##x500
ina
20x10
##terias
154
olla
amstel
066
uatt
##ites
##tril
madri
dobrada
mantac
instantanea
procedimento
349
##1700
sede
24w
##884
lumino
corote
jasmin
89551094
baralho
ver22
pique
galak
jasmine
lebon
martins
hth
v6
##pec
intr
1513
##3300
249
capra
##9004
alfabeto
citricas
catuaba
scaleno
topseed
8und
##aman
paola
tamisa
##60g
recup
perfurador
mb19
funda
010bermud
kello
repair
confeiteiro
529
widea
sara
309
hatch
##2008
cuca
melfi
giratoria
cinderela
##cheta
por67
14g
1428
150x200
empada
moranguinho
yakisso
spiderman
695
sys
##dian
ame
spl
maxin
receita
1011
cacharel
romeu
prens
tqc
himalaia
heliar
demi
0075
##10mg
##quinhos
mascar
pode
##10022
sepia
medium
guara
plenitud
ducato
hm
##00039
013camise
402
condim
brincar
1409
protection
sinvastatina
750m
empalux
episol
telescop
1x100
6114
jb
##ulticor
cxc
moringa
23mm
##force
89g
vivace
dolomi
cuscuz
lovely
carlo
enrol
sorve
mm2
##0109
megatron
descart
1198
charmant
niqu
##icilin
arginina
cic
##reg
rega
##terona
price
0012
##10015
cpds
115mm
quetia
peruana
##vitar
##tak
3648
aptamil
45m
##kof
om352
##gold
bwg
6109100010004
torresmo
dicl
m10
##fixa
##tail
##ripe
##tors
lante
##pb
mobi
topper
16x4
cr39
##adores
##781
impresso
frang
ceramfix
potter
levofloxacino
acebro
nassama
p5
r7
##414
##irel
01437
linear
01428
011kit
explos
supersec
licenciado
c01
##izze
enox
48cm
##40mm
infant
3535
crop
gaspea
1195
rpm
fest2
buzzy
process
dunh
##400ml
##raba
##univ
liege
cristo
linen
guardanapos
impermeavel
01314
faqueiro
smile
pirelli
stander
thermo
aurea
cometa
002chinel
milha
menth
brasa
duck
pial
cortar
carpin
curve
ptg
hidraplex
##cando
pantera
##x22cm
##x19mm
pistachio
sifonada
eisenbahn
atorvastatina
##elada
contorno
por39
161
pcte
220s
telhacor
##fs
##ival
pretos
parad
macica
montada
sapon
ybr125
rabico
acebrofilina
atra
##ift
##isador
subs
esmris
impress
classy
33g
unds
tramont
42022
##duran
kenko
agrale
hik
rita
##fin
##nutri
limonada
mons
baleiro
01382
desoda
savana
motoss
luxcel
enfeites
321
442
gis
##338
##nut
0117
roche
rouge
prodasa
##trim
parizi
ledc
dival
##landa
embutido
de1399
inalador
anlodip
9g
##dc
##inst
jow
##ggs
##894
popular
##promo
cruzeiro
antibacter
desentupidor
##eric
molas
castical
garr
realce
lv16
340gr
046
n43
##30033
##2009
lond
volts
g1r
perfumada
pitao
##francis
keep
cicatricure
oasis
depiroll
ilus
parabol
##alacao
bisn
micropore
##romar
scenic
##phil
isotonico
bolachao
absolut
ivermectina
alprazolam
3r
01394
arc
canfo
184
tria
1000ui
75un
##85g
dosador
adocado
kipling
650g
##rant
##4090
01372
##feu
secar
corren
cooler
corpus
maleato
authentic
635
cet
fw
jamar
##10a
50x1
rotacao
##1800
esmimpala
glac
48fls
mandala
##inheiro
articulacao
firm
platino
rotativo
vergalhao
##801
por75
mangu
nail
##entear
183
002camiseta
28cpr
anat
natub
transform
doro
001blusao
##15745
eudora
tcho
##cg
##ranger
##3201
pince
eliza
##30031
##9800
1406
murano
ibiza
##kyly
sigma
cetoprofeno
cento
##lb
##cj
895505
lacre
cef
160mg
espag
risperidona
flaconete
##gorro
principal
caldeirao
4w
628
ege
##232
##inelli
de3
##eme
##0117
colmeia
ampl
3517
##sept
sevilha
skn
belga
##ulario
musculo
##rifador
gillete
peroba
demaquilante
etern
ars
##3700
disqueti
##colar
##60030
turb
turmal
helico
cortaven
yakissoba
dolomiti
2und
kb
r10
20v
moura
1420
resgate
##quiti
dreams
430ml
##cortin
895510944
polipropileno
##adril
##amico
##10mm
01373
down
toey
guga
coxao
dorflex
safra
##namic
uh
381
guir
ptobco
especiais
strawplast
triciclo
327
montar
danny
respira
r0
wran
##olf
##coral
colom
3555
1litro
04mg
618
s21
mak
bav
metronidazol
mdio
##balina
oriental
riviera
prancheta
416
##bate
60x40
187
1900
##bonn
bright
missner
construcao
bubbaloo
465
##minha
sep
##3007
mgg
##597
135g
corega
7ml
gama
##cid
##p3
camva
por1599
regul
21mm
plissada
nautico
b5
##iral
##estal
coat
##25mm
1410
##37400
##queada
silva
24d
pedro
##4101
cebol
personalidade
escapula
falso
ligth
##omeprazol
915
muso
p11
xal
##kan
##asc
##enas
12ml
trapp
100mcg
25x35
002conjun
valenca
100026
##791
##60020
biotina
brasileira
lavada
##comfort
calops
desengord
alvorada
##tm
estra
##goo
por1
##70g
multicor
visita
repuxo
##x20m
fracionado
glas
n28
##fu
crdental
##3008
cerrado
malh
176
cirre
marajo
envelh
##zapina
##joy
04mm
##584
01386
tpx
pendura
##127v
stripe
euror
ingleza
1o
nic
##ipanema
##1901
##1009
abaf
darma
egip
vedamo
tododia
nicopan
nik
pda
wcc
##xas
##anta
##olado
##3046
##ingles
##2400
##monica
##cris
sprinter
amoxicilinac
##colorama
wick
##oline
coamo
laje
##lagen
##ecimento
joaninha
balm
##x075
##120ml
beautycolor
expresso
analogico
812
ix
##sho
##niss
##678
##ori
tensora
##7005
heart
american
munhe
sticks
3x
5gr
b3
v3
##quei
##bak
194
85cm
primeiro
##gler
papelao
notur
santino
quinta
gusto
simonetto
beterraba
276
##cla
bigo
##ellizze
mistbolo
5pk
730
8x8
##face
1215
borrach
003sandal
meninas
metalcolor
brasfort
0900ml
bicos
ollie
biquinho
giopack
##sapate
moderna
bun
c14
cai
arra
1500ml
sound
pev
condul
farma
##cooler
pentel
lucboo
jadepro
singer
eaton
polegada
namora
corinthians
777
##etinil
006cueca
##therm
poderosa
##perfum
skafe
berloque
reach
100x150
acne
glp
capicilin
g1s
organza
pneus
vedacit
por6299
4ml
atar
efi
ref20
azulejo
valmet
##atm
mpfi
##crem
##alev
fogos
clareador
0rs
nerv
marguer
pochete
lour
limite
##ardos
100027
7500w
##bey
stevia
texturizado
biscmar
4b
469
ey
l2
##unca
##deral
259
##mop
todes
escama
xad
sukita
11kg
bueno
6206
ct0
##1111
baiano
anellizze
parat
tai
piol
100022
isqueiro
700m
399
ay
marino
013blusa
filo
amare
got
area
premisse
cacheados
##ologica
5w40
chumbada
destroy
348
4verm
atom
ql
##gada
##tele
brinox
1935
franca
letter
wrangler
422
atras
##mn
##idal
##lax
anas
osram
groselha
##paric
##vmh
descascador
menthol
fada
paro
##nic
100002
naz
10006
fora
lcd
silvana
cremosissimo
bracelete
motosserra
##334
##af
grid
sline
tp1
girat
clob
vigia
franzida
academ
sela
##cut
##upira
##iris
456
##ubos
ipan
genial
leggings
100017
611020001000
zeus
helioderm
##ouro
##time
esomeprazol
trail
##30039
fiasa
extraord
96fl
##film
castanhas
insetos
895506642590017
munhequeira
614
840
##pinho
##ugo
poro
multifocal
110gr
lavavel
merino
batedeira
430g
acm
##d0
##x46
0129
elis
##4900
dalia
furad
adorno
amoxicilinaclav
323
zn
##pton
comutador
ank
100x100
##22000
##2272
jequiti
tango
festao
hrg
bombons
ortopasso
pinceis
433
518
b0
##bros
##vaz
astro
dell
##587
prensa
magnesia
##ologia
enxadao
dermacream
aluminios
luminous
bug
sid
##tera
##itt
ader
manivela
##2007
micropor
raster
esmalt
escovas
betel
##tadeira
oceane
##bulus
estreito
moreninha
t5
##217
arre
60l
##30022
##20012
metalic
vass
most
789250
advance
easa
kw
l2p
085
##851
##1015
refrescante
segunda
frisos
revolution
##personal
838
cfe
dede
mats
descon
251
gates
natuhair
fresco
charming
sassami
kha
pola
##eds
jezz
esmcolorama
circu
judy
puppy
pierre
custom
ravena
4x5
555
fz
f01
lel
##isado
carl
desog
medalha
088
visao
cjt
charque
vitarela
carnaval
031
dprev
##kinha
10pc
labo
roch
simparic
##70040
vitaxon
##571
tm38
auda
estriada
##xgard
absolute
pupunha
ultimato
receituario
zup
##resp
saboraki
certo
##50011
racing
cupu
vinagrete
alimen
rj45
salgadinhos
segmentado
3002
##fiat
##ng
toca
40f
pr100
##10032
joey
apollo
##banho
##x90g
prateado
euroroma
i21
##317
01315
##timentos
sinteticos
table
predilec
gvs
caracol
pigmento
inteligente
n26
##fm
##612
perio
##estres
##891
watch
guaco
clog
crian
ferradura
537
dida
m8
##class
cavado
chil
##soform
feels
albendazol
crioulo
artois
tchocco
##332
##mini
##40012
##x200g
susten
imuno
##tivado
pessoas
maxinutri
d2
e7
obra
##x51
retal
##4600
##preta
clay
requinte
agricola
fluconazol
272
12und
poo
choker
##queado
##erade
estampad
brill
induzido
beer
sommer
logomania
9v
von
##412
##onna
de16
##00049
prazo
##queza
fake
borrifador
desodor
92g
cnr
global
divertido
juliana
chumbinho
patins
sauvignon
a32
iate
##pac
5027
##ssic
051
sushi
##cucar
##multi
clonazepam
agata
contos
50x60
tamb
##moto
triv
disc
003body
antiqu
siri
trevo
necess
makeup
740
925
##erio
##dourado
carri
refre
desamarel
rocher
temas
110ml
57x57
schin
defriz
cobreq
620920001000
geno
ghel
hea
kacolako
nm
##mili
##x72
100fls
##uth
409
80w
florenca
##omais
chicl
roller
viveiro
ratoeira
342
gulos
##cura
##p1
##igel
508
cinco
100020
##1105
animale
tabita
colorau
##hidra
6402999
bandaid
##clorotiazida
1x5
duty
k4
##nf
##amed
prosa
##pez
##30032
maxxi
##7199
009camisa
amortdiant
ajinomoto
bisnaguinha
desidratado
crespos
quetiapina
marguerita
715
benta
##290
##kibon
##acy
##chen
carm
boteco
pok
16x11
enfor
##17140
##3009
diaria
palmeiras
##x7cm
toffees
chenson
rasterinha
dsa
##idil
satin
105g
pinte
200fls
006soutie
##60040
##x050
pilhas
lrj
galvanotek
##275
10pcs
lock
##20011
terres
##592
duracell
0408
ambientes
catalogo
fruttare
dinel
##mers
##rador
##hael
alar
adr
emerg
001sunga
valeo
2800
inje
1158
cheia
intensiva
##extratus
640299901
dardos
rw
tch
ing
compa
amx
sani
alfaz
leme
6211
espirito
##x14cm
##x65cm
eied
colchonete
##fico
##bana
##cou
sauda
01320
##latex
loko
freijo
miconazol
taco
grano
melitta
052
costao
##renda
inv2020
camelia
##x16mm
tresse
##x150mm
snob
progresso
1mm
b4
kds
zer
##lh
salvia
##camisola
3848
plt
bicroma
queens
quaker
portugues
maped
01370
poda
cantil
##eaton
369
3439
##buca
fosf
bepantol
ativado
por2849
wrp
cmsta
guirlanda
##319
##x52
##wk
##onol
sato
maj
amper
16x2
##0010004
nexgard
tronic
hidral
malva
volks
##2015
scott
bombril
##ermo
distr
##594
gastrol
raposa
##phi
##icheira
1x1un
trinco
cappuc
diferenci
455
jt
ola
##yan
##rose
por3600
16x5
##uros
orl
01427
sobrep
##x06
odores
002shorts
##frutap
bimetal
##nl
##tix
##osinha
0050
sobe
select
passadeira
6006
organica
100016
##x6cm
amigur
paisage
2100
etil
##9001
##962
##pil
##uki
##xs
##work
camo
proa
1105
##6005
primeira
stiff
abobrinha
cnz
ventilado
metoprolol
8x5
n07
marea
nutrata
corretiva
asfal
minia
##x25g
isabela
momi
articulado
##x13cm
calopsita
a60
bge
dados
eck
##sf
##fibra
##jh
porteira
50kg
roger
barrinha
servo
antiga
antich
small
cerej
##aceo
pesponto
jorge
dedeka
526
6013
hus
kero
##tice
coax
sapp
camesa
1212
semides
##30036
skull
29cm
bloq
capacho
strech
encartelado
treinamento
espelhada
##promocao
nia
ince
boost
##3800
001jaquet
1850
005calcin
##561
##10002
gomas
personagens
convencional
bid
p15
##oio
##zes
##inza
##edredo
micanga
708
barbeador
muscle
dinheiro
##469001000
40x60cm
delicada
simpsons
ces
p8
xix
##ted
cow
camisetas
##queador
maxprint
pedido
4330
estrelinha
dynamic
zoom
89550669361001
1990
835
niv
sie
tld
##quot
##deal
amr
desnivea
sabre
perg
lipo
malam
70mg
jabu
brincos
qdb
545
717
##db
##ustica
3020
ref100
##gues
ver21
grazi
3926
10007
belma
zap
##filtro
##sortido
tetra
kendall
iron
##x61
##whe
##hot
retor
flc
aprox
ast
##ubio
hood
speciale
##etasol
reforco
goncal
lexman
professional
biscmarilan
arald
jar
1519
promix
131
dunhill
malamoc
5x5
##ulele
0114
##trac
##soutien
shortdoll
milag
vitafor
##piona
fixer
c30cpr
sprint
##x23cm
##looks
##gara
dafruta
sangue
garan
biscvitar
iogurt
##ueto
##barb
pacetta
20comp
##1535
605
36lts
grupo
##issima
barrado
##563
240m
skiny
shock
isoterm
##lacta
palavras
sest
01322
1008
tripe
parcial
##5500
biscdallas
antir
escov
coqueiros
bichinho
##folhas
crpent
bagageiro
biscrech
ecko
##pak
sour
##10035
##ilato
repelex
##x200mm
a10s
salao
carrinhos
catarin
##asi
01258
pretopreto
bow
506
002pijama
##nov
crocker
crazy
forth
nutryderm
vedamotors
444
449
522
##td
##ufo
##zinco
adams
##1112
limo
70w
1700
barramento
01404
011calca
mfb
kadet
harmonia
337
celo
##cano
##imal
##25g
casadinho
##1701
sebo
200l
cute
papeleira
##ressao
130ml
rms
##perfume
scrapbook
0904
rica
wonder
de2
pagao
chita
artico
plasmont
##10025
favo
texana
pneuma
frase
enerbras
criativa
assimet
##egging
turmalina
978
fico
l500
##caram
##terra
bruto
nogueira
parka
##573
dure
bonita
tramadol
automatica
spaal
##outros
powerade
ritual
londres
##inia
##erta
moul
noval
gata
dubai
musica
komb
safety
napoli
amaciada
antares
oscilante
pendurar
dinelly
8150
rst
##gro
##tirox
morce
phar
poliet
310g
magnetica
##x85g
ciprofloxacino
sakura
8kg
##amos
incr
adol
ref14
policarbonato
60comp
filete
##cadern
##inheira
dyna
graphic
balsamo
##216
##erc
cambe
marcas
poten
3532
loo
foguete
suzana
89550664459000
aveludado
anlodipino
destroyed
566
836
diza
##cxaco
##heira
##toy
rebu
cole
##sat
mozao
##21000
vitiss
1388
pbm
president
miniatura
60000
f100
i9
kv
oita
##lp
##r0
soho
tens
001meia
##neo
01415
##40015
morr
##oki
penteada
natula
hoya
folhalev
sapeka
pregabalina
l3p2
valentini
gta
rid
vini
##d3
##ione
move
natacao
trian
espaco
nitro
carame
534
850ml
efe
mina
##ev
##barra
contro
303
desper
brancos
noir
##30035
cuica
barco
##areia
oxer
280gr
scarpa
##anheira
todeschini
##kol
##bole
##roda
##ames
patinho
amit
mancha
##8099
brum
cron
pringles
001maio
maxlo
17l
formicida
##uzinho
magna
3334
volk
##dium
danoninho
3cm
5297
##junto
de4
detro
ref3
ench
jej
abelha
vaca
embalagens
embuch
de1199
desamarelador
lec
nup
##x47
##zam
carte
##10029
01438
calcola
##tadora
imun
##gnesio
cartolina
fibras
levotirox
lazzuril
continuo
diafragma
1to
6400
qvita
x7
##fita
##mz
##1025
##urinha
##10024
trink
ggg
##x275
##brite
gear
##marrom
groo
jambo
pedrinhas
vml
##235
##oster
##idy
may
##baud
001toalha
gara
nutrition
nutriplan
open
##prof
brigad
portal
##capsula
##x195
crossfox
5400w
441
6kg
999
eag
ico
##715
##cere
01309
##ibro
##10021
##piso
beige
desincha
akazzo
536
cca
##dw
defl
retr
##iani
lubr
lepper
bear
##prat
etn
betaistina
wester
acionamento
adubo
##720
esfe
diverso
canine
polir
bisteca
75gr
intercooler
sunny
cupuacu
amigurumi
346
476
##sel
##x41
dew
lago
forfest
blong
dentadura
piffer
malz
sert
##rilho
fotos
cozimax
doril
principe
woche
dusul
##pnk
torrone
shimano
han
tia
##422
##912
ancora
40kg
estac
##90030
radium
1111
tortinhas
##betano
saponaceo
nyl
r120
##vde
##p11
##tig
maval
40m
chok
tena
caspa
13kg
formiga
##entador
reser
link
madrid
venlafaxina
longos
pedaleira
prendedores
1x200ml
xalingo
1amp
1x6
3f
830
880
hun
##440
##jeta
##15g
##peral
plasduran
385
##estamp
ceto
duelo
##eyer
lugares
jhon
344
535
##dn
##250g
##km
andor
superman
curry
cabas
salgados
ciacollor
mxt
keto
chesterfield
idayo
pioneiro
qc
##dil
##650
##chu
moana
##20015
maxima
006vestid
190ml
drage
alklin
##rie
2030
##tramon
##uction
##carne
goody
padaria
axton
911
wet
##corte
##wor
##doce
##unk
##tilibra
aces
35x35
1205
zara
fan125
babete
##infantil
buddem
empaco
kick
vb
##480
##tados
de15
##2036
casquinha
cigana
##x75cm
crpentear
miguel
sawary
levotiroxina
wm
##x68
##uras
caribe
##elax
luan
cabid
denver
whitep
brasilar
##colors
##x30mm
ursa
ralph
fundida
itapua
ovelha
dw
vho
##gt
##c10
##amon
##urus
##eater
enr
##30037
sando
milan
702
shower
89550664359000
tingidor
bupropiona
298
briz
hang
peit
##a0
unhex
##16140
limpc
197
09mm
##x105
bemfixa
algatos
araldite
dri
##hador
##zina
magg
infus
##ianinha
suica
pingu
escdental
leque
289
cosme
dall
minueto
tipoia
##aleza
por2819
jer
##roll
mah
tour
##poo
##ianto
excel
##10028
01433
171
##40038
recibo
foil
##omax
integralmed
##x80cm
pestana
##moprida
nira
##frango
desmon
quem
multicolo
wheaton
##perola
##x080
universo
abert
460g
personalizada
luccas
lacoste
de13999
sanduiche
kelloggs
esmrisque
nbonn
##b5
##ppa
##alum
##olona
##ison
##osas
##5011
expan
chape
disflex
fabre
125gr
citrato
misturador
gardenia
a22
bumb
ses
##f8
inicial
mavi
##bab
gli
brow
floc
##cinini
overs
apimentada
##tamanho
carpinteiro
1pc
2cm
426
j2
##pvc
##alg
demar
507
1002
60x90
loja
rafia
##tensil
##30041
dior
22d
mosca
1kv
theoto
por1899
dimens
ricota
nove54
diclor
l2p1
1x8
95g
##tres
##bell
bouton
refer
manch
15x16
##hete
multima
##40000
antiad
smil
puran
transpasse
vassouras
kangoo
naked
amazonas
jurassic
eagle
##yama
16mg
canud
002chip
party
13g
100029
g1n
##x22mm
alfazema
sestini
vime
##kn
brincando
silicon
##x4cm
drop
##folha
platini
tdi
##ents
cass
bolhas
leoleo
barriga
estmp
eletric
071
fiori
angus
catalisador
965ml
coaxial
0004
cial
gosto
lella
m4
##zto
todeca
shin
##ucum
##trop
01442
##3110
whitem
naturale
natus
##ratta
everlast
6109100010001
##estradiol
nanai
kalipso
evidence
buddemeyer
drica
##dir
##wall
alle
por13
antic
##aroto
01436
004saia
tm36
copal
##flair
mecanico
parabens
1x20
r9
##yte
##tomate
1080
travel
15lts
01445
morina
delphi
afiar
112g
##drg
cumbuca
por899
executiva
347
837
890
990
aye
hss
opera
##zido
##ilex
coffe
##12v
pr001
blac
##30045
erlan
##bomba
esfrel
executivo
gangster
kor
ous
##270
##xor
cane
grape
plum
bromoprida
mord
##90015
minec
##5101
grease
colheres
jamel
parafusadeira
maquinetada
pff2
diploma
wisk
yp
##gard
moela
100cm
14un
malt
1108
thirty
rodinha
anime
kaftan
##7a
01374
por4500
##1210
60w
35mg
##dori
##30034
federal
legend
doriana
cilindrica
strogno
griff
amigo
xre300
2805700
novalgina
ys
##ej
258
tube
##50020
seladora
lysoform
reneg
ache
culo
jta
uf
##lica
##690
cau
mascad
batido
1422
##19001
lug
solida
002toalha
tribulus
st002
drd
nutren
straight
011bermud
lubrificado
oftal
produto
produtos
olivia
785
ster
rebolo
por959
toe
excell
ney
series
ponj
##uder
23g
amacroup
002blusao
##allen
ninja
078
6x3
8x7
lenda
pito
##uran
##20mm
toast
mlh
crunch
plasnew
##nova
escudo
condseda
biscnestle
jap
multikids
32x57
sloggi
##std
dvs
nylooks
galocha
tonaliz
acionador
chandelle
421
nose
##vos
##arinho
de1
alya
12pcs
cli
balanc
waf
##70011
passos
87g
611020001
talao
academia
texturizada
desogestrel
dpl
##fron
##kalo
caibro
lika
014camise
##pentina
rendada
dermacyd
gla
##lilas
##rj
chero
discos
007cueca
##80020
25mmx3
umedecidas
tmgg
blindado
##mantel
nhoque
2c
ring
##525
##pim
##tai
##0111
##vai
sodo
353
espresso
pld
240gr
138x188
1kl
cnt
delicias
acinzentado
clobetasol
catarinense
strognoff
629
lsc
ving
##c8
##ervas
##cama
##5010
alic
mask
latas
01324
imba
matt
vegan
##x198
integralmedica
stal
zim
##s10
##234
##kuka
##pj
prec
cales
chess
##andra
sabpalmolive
guilh
extrator
610462
instant
jetta
microporosa
##5mg
##rm
sapo
doo
##60mm
molde
polidor
90un
003tenis
160mm
160gr
43x43
aquatherm
thay
nazca
detroit
niraj
447
mest
pina
rala
with
##1a
por8999
379
macinst
junino
casaflor
219s
staed
de599
acoplamento
grifo
c70
g21
mys
rios
##ivre
cate
##iton
ali
chv
hab
rafa
simpl
g1o
lv2
##alez
progressiva
boots
alyaht
w22
##fani
##p7
##pecas
##prato
material
##30ml
andar
peri
##300010
gave
tradi
drag
siciliana
condimentos
suspensorio
culote
413
a58
bts
ion
opc
##f1000
##vela
##orig
pauta
##1214
##pote
01432
##icionario
asso
whiteg
012kit
escapulario
cacto
fama
##ugue
##tita
escam
##00050
estacao
alumasa
262
army
anota
chifre
expansiva
morcego
098
##icin
amianto
por7199
ref15
001jogo
caboclo
panto
31cm
coracaozinho
##x09
##teau
pj2272
##x11cm
benz
##fenad
mimosa
tingecor
895506661590011
680g
opt
##iha
##buck
##cn
##10ml
##sab
##pool
tam10
##egrip
cascola
pale
##x170
parf
70r
brome
brasart
twin
##plat
##rolos
silvestres
39249000
1b
477
obs
utensil
##ife
##kinho
laca
##oneurin
90mm
raf
283
lancador
600mm
##1102
abracad
##pretopp
900m
qualidy
chemicolor
frasqueira
heroi
esfrebom
sherpa
l10
wl
##tipo
10s
##eirao
puket
mattel
vivai
##glos
riffel
platinado
tupi
por3799
sanduicheira
hollywood
training
goncalves
4x30
dad
telh
uai
##df
##capa
##itacao
##10027
fren
##noff
##novex
##883
3003
brilhos
toucinho
multifuncional
natulab
##mv
##alia
book
18x30
##10026
##90020
zapoli
sobretudo
##desc
stiloa
ioio
hidrolisado
selvagem
antichama
4142
922
jegging
kisa
##algina
moc
pezinho
curso
##30042
calcica
##valv
profield
malaga
##180g
labotrat
2v
544
622
mtr
t14
##galo
##2025
##tencao
gastro
varga
transm
opaline
orion
tubos
##x6mm
68g
##x9cm
atoalhada
sandoz
5002
c0029
ler
##anas
##alcool
##icon
##1116
shseda
407
entr
abras
borde
volare
fechad
merko
aboto
clock
umedecidos
fibroc
parmalat
ferrari
luli
cyber
topazio
genova
equation
##5039
intim
sandy
mich
##tonia
menu
ph2
4016
fininha
##itorio
rocks
geriatrica
enxofre
neomicina
condulete
##616
##ango
comfor
por66
aze
roseta
tamba
sui
##10036
cafeina
g1z
450mg
##icilico
velour
cocktail
defletor
4r
a21
k0
##onga
0121
vestidos
36cm
pasto
guess
resfri
poss
craq
orquide
future
vedador
rchlo
paradise
##nissin
bumbum
4x11
##339
##taca
##onid
coperal
marinha
##iance
##itada
002sunga
fabi
tripl
##30043
457
two
vipal
aramada
##443001000
3001
m16
v10
##mam
##xp
##x71
##rane
conto
##rigo
01392
##lok
infl
1426
##36002
cintos
melon
esfrelux
minecraft
p14
##bia
25x25
cros
reval
desodrexona
##cross
a3072
definidos
kronus
haytek
desengordurante
0003
427
585
822
kre
m0
sash
##819
coast
##000mm
corino
maruri
moinho
argo
shi
elb
500un
11l
picasso
secn
##tellation
420ml
anatomico
climabril
durepo
x11
##ican
bou
douro
cruc
##1401
salad
suflair
001cinto
colorgin
##10039
##prud
003chinel
berbau
sucupira
mikcat
lion
sy
ww
wha
##nas
##argo
##etra
30c
cartas
15x21
1425
enter
compose
cx24
##prim
olmes
273
stras
primeiros
senci
amafil
shoulders
renegade
e14
gink
wmax
##rev
20x25
supr
054
argolas
009short
romanha
natalino
letut
4015
##x18cm
etiq
lezalez
destroyer
##casaco
personagem
encasto
orlista
839
##660
raquel
sapatil
003camiseta
014blusa
##6800
ponteiro
raskalo
clop
impermeabil
predilects
##elhas
remt
01351
##bove
257
suico
##9500
urucum
##1012
mundi
edredon
stripes
quantum
772
lese
##dm
##bola
accu
tribal
##80040
ultralife
##cinta
##itart
tapetinho
##fenira
processador
saudavel
husq
532
hir
sra
##g0
##jack
##quina
##20037
mild
mensa
##cias
bioextratus
fitas
sombrinha
horas
amplo
simple
precisao
quadriculado
##tramontina
aip
dux
##cacao
##enix
##terizacao
paste
1350
whi
##40036
indiano
estrel
tarjeta
xtz125
infanti
atlanta
##520
##mole
##1050
##3488
lunar
caravan
rigida
por4699
lauren
ponjita
3und
814
junto
oet
##cobal
##1030
acal
soya
sequ
crock
551
fancy
g1y
600m
flag
pipoqueira
dolls
##limao
nutriv
de799
##cabeca
fenix
##ville
523
##lub
##amore
tam36
cred
peper
##10033
je002
##moch
recor
hidraderm
smir
copomais
variada
antibacteriano
carriola
anotacoes
n25
##dz
##490
##b3
##raz
##tools
##adi
##hake
latonado
tamira
cx6
capas
##583
luminoso
sleep
drapeado
mosaico
biscvitarella
cabideiro
6ml
w06
wirel
##1313
##eitos
sai
12lt
01341
doxa
toffee
arro
sandipanema
naylon
##10038
##4400
003toalha
##umax
##1106
7897
oznes
7mg
hk
m1
wi
unitaria
4040
taran
faix
75mcg
hoo
girador
por5759
matacura
##vision
875mg
transpassada
sapeca
424
952
court
##iciclina
##itto
##chid
35gr
filter
truss
capto
metaliz
100038
2208
video
biscoitos
##10003
##you
fortaleza
antiss
ajust
estrias
everly
nkf
39241000
espanador
glicose
##caramelo
823
950g
##lina
##dinha
arcel
##ipel
##ucle
fator
alcacho
liver
##7101
##ilife
130mm
fluid
##renata
abafador
gina
##cun
##pantene
##tok
lays
maxalgina
##70012
296
verao2022
arauco
gorgon
lemonade
por1879
##hidrat
minhoca
imob
substrato
pevilon
565
kiva
##x115
ancinho
##egripe
002macaca
388
gaz
biolab
kris
itaja
entrem
figado
por1439
gelatinas
mangote
carregadeira
5287
piv
r3
##rios
adto
salam
3544
limpp
paliteiro
##20048
park
mms
piccinini
##591
ceramic
##uriel
contraste
fischer
##donana
gambey
felpado
vibe
ankle
xixi
mavalerio
guilherme
dacol
heb
igora
lia
paw
001chip
##10044
004toalha
##span
100034
assept
##castell
rodoar
looks
spacefox
895506642590011
courino
mouline
417
aid
matel
##sara
solid
crista
##80030
duomo
hydro
gerplast
conversor
emotion
etan
n09
##ror
##net
de24
cory
100lt
##1418
no2
##caria
solta
##20022
##emax
2318
concent
fluoxetina
persiana
lv3
odoriz
cobrel
evan
pca
##bus
##pu
cortica
tob
quando
credeal
cant
polimento
##10037
panelas
1941
34cm
7500
amortec
89550664459
##barro
todoliv
college
leopardo
criancas
kivah
418
5b
995
a117
twe
##cava
##eser
amiga
50lt
pouco
nath
##45900
cinema
jaki
1711
facinelli
##eleo
espat
allure
camelinho
alfajor
mecanica
anasol
rino
r14
##nis
##inol
##10g
##3025
clos
247
##illar
hepa
novacor
fenzza
amigas
audio
por4749
arquivo
probiotica
##iw
##enia
##ily
cover
##godao
mary
##1218
cantu
##10031
##movel
4500
assada
juriti
cg125
900mg
dv6
lucas
fiber
prince
proauto
8mt
ash
g60
tib
zc
##pass
##hort
##gacao
100f
polvo
nev
1207
biol
arej
trev
##iscose
##actona
charmosinha
crypton
antiseptico
##adrille
4cpr
rq
##416
##x89
##zos
##tei
reat
##idado
sapt
calm
50u
policia
3539
multina
003conjun
barreiro
173
##very
olim
29mm
lets
creative
sustagen
bicromatizado
calesita
dram
lio
lup
m7
nick
vmt
##ryl
##fps
##fane
##mato
ver23
mollet
luf
parafse
096
bbq
##treal
container
##x75mm
reconst
frasle
345g
sutien
yogurt
cib
fid
##4g
##garoto
##clav
dete
##20mg
sous
##inida
grad
##2900
tm37
senses
tintmaxton
totalplast
italy
sweater
facille
curat
1010kg
lorys
birken
holografico
alarme
616
816
ajuda
d33
mpa
##425
##puma
##caf
##quer
01312
##ecto
desejo
##4533
##10034
dabelle
multil
002meia
jogos
oleosa
19g
##00010001
eletromar
##blu
insulina
por3759
fecha
6800w
277
klass
##king
##ptor
##olin
de27
tam1
sorte
ceral
primula
isabel
efv
89550462000038
winter
peixes
950300
zarcao
holl
##ope
##yon
##eru
##20ml
comun
por48
##lop
infra
##10043
mmalha
g1k
oxalato
tiracolo
##icilina
##fenol
planetaria
de14999
multimaterial
cobreleito
732
ceg
qn
vga
##zola
##jj
01364
##20000
004body
1000w
buch
capota
30cpds
##x55cm
por6719
lantejo
5150
##alatex
##sey
mc001
gaba
##40034
lumanti
hortencia
infinito
audax
580ml
dx
eye
##885
##5048
##ries
marques
kitchen
##2600
80fl
bdp
spaten
catalizador
##klers
mobile
arnette
##versal
spirit
system
egeu
##cristal
495
##025
##yx
##erina
##gui
canhoto
abdom
002jogo
gelele
acougue
havcolor
##ramas
agp
55ml
7909
panther
pipper
arcelor
atro
bana
##dap
##1040
20und
batizado
##irina
42g
##valle
lamin
##friend
kazual
sophia
intruder
niquelado
r11
##p8
##ulus
##10023
1316
28un
pv18
stralis
injete
##2016
artl
flecha
leoeleo
triturador
cedrinho
8x4
g22
##zem
##isas
unilife
paint
altura
mape
colosso
marmo
martina
3030
shel
lisboa
##ibr
espar
##10049
gaucha
mandio
universitario
##x48cm
bifas
romantica
hills
dexclorfenira
natubom
rho
sante
01311
##1212
pour
##queca
florida
75kg
revitart
##xofenad
##illes
garfos
eleg
garantia
hangar
928
buck
jfa
##juv
1098
##chin
adc
anna
ence
##motor
sapateira
adulta
bij
pedicure
ferv
##581
genesis
justo
895506653590007
refletivo
##a1
##tilo
espo
algem
chb
##6600
##5584
100037
0500
##ferro
delco
whitegg
varetas
psi
palheiro
hidrocor
adora
##melia
boiadeiro
minhocas
aradois
lettering
wireless
todolivro
617
s483
##leite
##wg
##total
##mazil
trasp
##itam
##oneto
2502
macliane
1315
100030
offwht
##flix
boxy
ducoco
##2018
envelo
##x100m
prevent
coenzima
438
7142
##d4
##b4
12pc
sogra
602
##10042
##2700
simba
220m
##ession
plastubos
bracol
007soutie
pacoquinha
##2012
centrum
lv12
crocband
campestre
##duo
trabalho
fructis
age
otto
sene
##a2
##x78
anitta
##3511
prac
##30046
##60011
complete
articulador
mimoso
bird
cornetto
sincronizado
nupill
3k
p9
##jm
##icor
##doro
macro
teu
191
tm40
vassourao
domperidona
pirata
prednisona
alcachofra
##gus
carac
##rier
marcus
stn
similar
bompack
##entino
fertak
##ramar
moskito
c30014
##xe27
##frio
##ventil
memor
##velox
boardshorts
crespo
enforcador
638
aum
rilex
v23
##030
##680
##aldi
##ulho
por65
16x6
##guard
##25004
spi
##amax
whitening
dourados
010camisa
012calca
feline
lv8
pj60
cupula
front
fatima
falsi
agulhas
pimentinha
diplomata
6x
##sint
##ores
peep
##10045
pared
leiteira
skech
ferrol
profis
vizzela
##120g
##malte
usado
botone
piraque
voxx
referencia
645
8x2
wd
##onida
##eixo
alco
nevo
trunk
junina
sensus
##1104
mosq
##ickers
tubinho
duzia
leitosa
edition
glasurit
##prudence
captopril
skechers
##fel
##xr
##allas
##rek
incas
colec
pou
bruma
queb
##7085
ludu
encher
espalh
coloritta
je001
mcz
##iee
##condor
barraca
##893
##50030
volei
diamant
##x07
##x12mm
oriente
niq
cruzada
375mg
inseto
##escla
recozido
0mm
599
627
cbr
killy
##kker
##amb
esteira
esfer
10lt
blan
##mour
##tru
escdent
807
##2399
##40032
escobel
ultraleve
##x400g
##x15m
botinha
chambinho
papaiz
003shorts
trufas
purpura
carnauba
academie
avo
i22
##lg
##erna
de17
1034
coru
##olato
##onata
mgm
amacroupa
trem
luconi
buzios
randa
tecnol
fbr
##x64
##1022
##quetas
camta
1006
##ibom
##arras
tors
amarr
##4700
##ticaba
pimen
delamore
foice
##zzy
325x8
pedraria
poderoso
xuxa
picotada
presidente
precision
420222101
ludurana
766
duto
mpi
river
sca
##enus
##ules
##ranolol
pavao
##trador
403
##3333
1109
##ext
zag
##x3m
lowcucar
peixeira
encart
237ml
embuchamento
6u
619
kley
01316
aruba
##10046
##10048
granplus
torques
##tonada
09cm
620444
pfs
##alheira
fak22
rocambole
egipcio
##onolactona
jeite
jeit
lips
##tte
##ciclo
br1
##pedo
crepon
eli
chinelos
maxvinil
atual
poste
powerdent
irid
esfiha
roupinha
girux
sandhavflat
clipon
850mg
bananada
tylenol
artistico
448
970ml
bianca
##hinha
##tite
naterial
chope
solvente
pinga
382
##20034
glime
19l
flocao
##tosterona
sintonia
##1017
1389
drywall
hamburgueira
zeiss
industria
piolho
3x2
6115
760
r4
s8
##plo
##enha
##icro
15x1
joias
reduz
orvalho
##7800
melken
##brio
fexofenad
gari
berlim
lvmu
naturitos
cobalto
hipoalerg
##quinona
##37400000
aml
cem
##vent
##4024
bazar
suqueira
trif
trib
1312
01413
plays
saborzitos
viemar
##pirida
##wafer
refresk
##3015
velocidade
grafftex
0125837400000
8001
wine
##sm
##uve
##orosa
camur
cold
01306
01305
roy
1801
hai
gravi
tak
antib
vidr
43cm
10000ui
passada
78960
salsar
tonalidade
cifarma
collani
secnidazol
dramin
2x11
sic
vile
##ortido
##30mm
1601
001bermuda
35615
engen
limitador
##20035
extraforte
naturalis
scho
luxor
lrg
pinha
##022
##rn
##arox
##illus
##3212
praiana
monnier
2207
farelo
mbss
g1w
guabi
lumini
kanxa
pernas
vn0a
secrets
despertador
ginkgo
injetemp
eiee
key
##sav
dobr
taxa
##30047
##30049
1404
##70015
abacax
angular
termostato
mitsu
mexicano
noturna
1toi
067
716
adao
f50
ya
zor
##d2
##gp
##tack
01kg
marvi
ref17
0015
150cm
monitor
interdental
iden
refrpo
89550318002
hidroxizina
calendula
533
r20
##rona
##ery
##cats
0110
tamara
salvelox
1824
acobre
barril
turminha
tree
pirac
##vidro
trivex
celofane
smirnoff
1x12
5atm
639
fito
r18
dev
##untado
una
10x50
50x40
##iru
canga
forn
milh
havai
##pcr
brastemp
ip65
1000078
risco
##x070
pdr
xr200
subzero
catarina
##aldina
gorgonzola
436
7un
ble
shar
tam38
prova
##39000
tril
##amak
corresp
cpz
1015
estomazil
juju
clube
absoluto
335g
amolecedor
imbauba
thaygra
##zosina
8x11
lbs
oo
tand
##hr
##hda
conten
##sabor
##3022
ver2021
001camiso
sli
1150
##flam
interr
butterfly
parrilha
educativo
tm0401
helicop
orquideas
feira
ivai
jup
kk
n33
##riano
01393
30lt
acn
lisas
##colcha
gateau
parafina
70x70
##tomada
08un
naturais
pharma
85ml
1unid
falante
cravejada
sibratec
095
yas
##px
pay
aline
##3210
loratadina
choclacta
fabr
milks
biologico
##amentos
sct
350mm
cozida
piao
break
minty
tradiciona
jezzian
sousplat
ferrolho
4600
nume
##dra
##jan
##estar
armour
poliv
looney
medias
vazao
lacteo
duch
pacotao
69g
curaprox
metade
dublin
eliminador
539
##820
##vento
##nie
##algin
##onto
incon
##ded
##ortal
marelli
001cardig
bolly
1509
##trima
tatto
cabel
acop
100035
forminhas
more
##5005
264
iogfrutap
puxa
actine
vilty
2s
672
998
morte
##ancho
##osicao
##pat
##urio
##20032
diar
1318
##6007
kay
celite
##incy
unicas
015camise
autho
nybc
picareta
victoria
spaceo
bufala
effect
quarto
6110300010001
xantin
cheroy
stel
##3m
##ilim
##5037
10x
marisa
forti
##antenol
borb
denin
termop
resfenol
##10004
combinado
oxido
edge
biquine
##green
##1202
aquar
##farm
##feme
cavalinho
89550666159001
patchwork
manutencao
dewalt
crucif
a31
oder
##inaria
##roid
cater
0100
anj
##30050
##69000
olimp
292
008cueca
snea
##clio
aji
##salon
ekilon
236ml
quartzanlgocx
khaki
defrizante
##ventilador
1n
i20
rinal
##iol
##mf
colh
013kit
mantimentos
ornam
macac
##ensani
##40025
alumin
##tamina
ralinho
fusao
##x185
depilatorio
economia1000
049
3b
r15
##s01
##vt
##ils
##idrat
almon
amelia
bour
crival
##3490
freios
500mm
montreal
21fa
delicate
kara
beans
verao2021
##fruti
a0376
cofema
propranolol
bigode
namorados
tambasa
sashimi
moskitoff
fexofenadina
4e
930
j4
n17
de8
cami
desven
plastil
##100010
macarico
florzinha
##50000
kawa
marshmallows
fortalecedor
estilinho
expansao
aipim
kazualy
333
fadas
##tler
##vital
##bee
##ght
##haus
trape
choklers
exerc
##tuf
volum
##thers
g1j
siem
palhaco
juice
1x1kg
multbom
anglo
crosser
ebano
eiei
caramelizada
l12p11
amitriptilina
andares
nem
ut
##ega
##ged
##inv
##acril
maita
chr
chp
50x
##utch
1518
60x80
906
##natural
1139
24mg
##zepina
c301
om366
refresc
##aches
momfort
miravest
##abana
xantinon
4202
done
rural
##040
redo
##itch
safe
alba
01310
motion
doutor
##matica
389
396
brook
pt06
cosmo
##uzz
proteinas
cachimbo
##6101
95mm
pj1535
combust
alimentacao
zebu
##respingo
dexclorfeniramina
3s
3200
dsc
dicionario
fuma
##kers
camil
dobro
track
brist
001bolsa
colorifico
1301
multif
058
g1t
melanina
clipes
espremido
bambini
conchinha
1999
2e
m18
ufrog
##299
##ple
##uau
satel
desco
canopla
sabfrancis
torpedo
##tane
milao
1317
100039
##otto
g1v
passador
clotrima
magnolia
planet
personalizado
##x90gr
145ml
cuiabana
##x250mm
uniphar
##269ml
allegra
7x1
##girl
##alina
preto41
acin
verisol
clr
pintada
fiji
34l
34g
avi
006calcin
2600
garras
galinheiro
funcoes
pj4
artlatex
stain
##mascar
cereale
##x32mm
nk6
corset
chevron
claybom
glimepirida
1f
569
567
danger
##age
caffe
10cps
shir
span
chocnestle
907g
shampoocond
viel
snickers
organiz
antis
empilha
1372
pureza
cimegripe
pacific
ursinhos
potassica
por1600
##utonita
quartzanlgocxaco
547
a107
auri
blaser
d6
lila
nal
##rar
##algodao
##ecol
100u
1424
1413
supos
pietro
28cp
multia
##odia
##40039
cital
citoneurin
leaf
polyester
sublima
10x15cm
por3239
estruturado
coperalcool
torsilax
cq
wincy
##x82
repp
0025
1220
##1130
##tracao
bore
multiflon
8955314929
barbar
##00003
hasbro
natalina
63a
89550462000036
soberbo
didatico
626
668
6101
c200
wins
ye
coj
ready
redox
ref30
travas
nogal
ravi
##tris
##20036
montan
##bron
queij
imar
pacoquita
veneno
##pantuf
diplo
harpic
##x19cm
pnk
aguas
##cortisona
gravidez
por2400
utensilios
1s
tans
##lj
##elco
masha
##urta
anilha
exter
tron
##oxan
stolf
01440
cadence
100036
cev
queijeira
mtc
japonesa
g1g4
murum
elisart
467
598
642
8p
rif
x12
##f2
##rang
##10m
calibra
##ralit
projetor
blim
##telar
##flux
010short
alcoolico
ps4
constellation
114g
arcoiris
a30s
refletiva
ladrao
7a
cpl
cvale
oto
##080
##lv
##b8
##nit
##hire
##ross
coqueta
mare
baix
brun
##itake
canecas
001manta
##10041
36un
malas
##3199
correcao
##40022
cego
iognestle
shoot
yoga
benegrip
framb
tirinhas
vnz
mobensani
refreskant
546
832
xa
##337
##c01
##isma
pakita
corc
12mt
30x50
potao
##terida
ver2022
endura
##20025
##20047
05cm
##flu
##90040
galze
livros
sandhavcolor
quimico
pigmentada
retorna
impermeabilizante
photo
zul
##ybr
##adrao
##icio
inde
100pc
100pcs
##30044
##nature
003pijama
mill
458
corredica
melc
1117
##x060
festball
beij
noites
excent
sensacoes
colchete
apresuntado
39269090
fervedor
8gb
ia
##620
1219
##25ml
##2211
forest
##32001
abf
coxas
freedom
##eapple
##cinato
emergencia
bristol
h3
##242
##x175
##alwee
crdent
##irado
hawa
002maio
skil
ercap
antiac
radiante
1385
3mts
karmani
smartphone
segre
luminosa
78989
##ciser
##johnsons
olmesartana
3lts
559
6140
8x6
dime
melho
nini
##ek
##750ml
##gf
##lean
##000ml
##chumbo
doct
##mah
prots
frg
pereira
rolica
skyl
moreno
##9005
1000088
##grama
fixar
basics
surp
succinato
drey
##niely
nargu
l16p14
divalesi
empacotamento
clotrimazol
3bl
iara
minox
##np
##alle
##enico
decker
##hara
cocon
##eias
dots
16x21
acid
polif
estar
##20031
plutonita
22v
linh
##x3cm
match
transf
##trans
gross
hershey
netflix
neosaldina
caninde
tabletes
mml
rin
s6
v0
##osan
caustica
lobo
805
##4008
tm35
catuna
music
civil
begonia
fofura
oitavada
goodyear
4c
4und
##060
##728
##dagua
##vat
##1411
cremo
##3401
compasso
20000
##kaki
##8500
kaki
costurado
espetos
rcpt
setta
almofadada
retalho
andorinha
6001
jl
##fant
##433
##crom
pead
##grel
##hering
##40048
havtop
pime
26mm
ag925
interior
ti150
fps15
sodocalc
galzerano
2125
2118
331
##wal
##tab
esse
const
##quando
##umoto
ref16
notas
supe
##ffle
gl4
florido
10008
005toalha
##enoide
batatinha
autocol
miudos
kuat
hidroclorotiazida
225g
pelicano
provence
0vd
499
4100
542
562
778
##415
##910
##pente
##elhos
##itinho
0020
1099
##dez
3546
##fex
escd
##20033
004sandal
presenca
biona
pediat
##60012
##poliester
##x360
fossil
donuts
##1016
##iii
1x1und
##master
00005
flanelado
weber
taiff
matsumoto
5mts
9m
gior
lian
nen
r17
ride
##rata
materias
150un
locker
tripa
maximo
##53100
softgel
500grs
hidrografica
giotto
##x90cm
curativos
bitufo
definicao
almonde
398
hv
pho
xax
##g2
unilar
##20a
##elagem
##guica
3572
##inex
limpper
##70025
##onders
ctl
riomar
anturio
375ml
440g
s50018
dudoni
aventuras
##anchoe
sodocalcico
099
699
637
e40
ix35
pila
##wt
##ont
coti
combate
##edade
livy
genius
irres
espalhador
graviola
3pt
538
d60
vetor
##b6
##enex
10x30
tamoio
##ipur
crua
nobu
enjoy
##camento
150mcg
bast
pasc
trilux
100024
##umaki
95cm
##x16cm
docesar
sportage
##frituraaaaa
orlistate
0rb
n31
s503
yw
zz
##h2
##amin
repolho
##idia
maringa
por010
casio
prm
basquete
malibu
##ampers
belenus
##textil
antipul
##cules
620469001000
times
trocador
ombre
amendol
1187
fabercastell
##frutas
spectrum
nebul
higiene
gaveteiro
doxazosina
caracu
691
cele
nel
n15
ocul
pz
vie
##r15
##zno
##cod
##quero
mati
comida
corpete
batu
3524
semp
seja
balanco
##4006
maminha
01225
##x350
passante
hugo
encantado
##ulosina
graxeira
##bauducco
dacolonia
treviso
860
a23
ativa
gem
r22
xic
##oft
##sin
##ku
##kim
##erica
cotele
alessi
concor
bolog
mgs
42mm
##eleka
risq
copinho
rodeio
martelete
betta
dermafeme
kjt
millenium
elizabetano
soberana
de19999
nutrivix
700gr
826
b7
feito
jens
viz
wella
##hoff
##ivas
caj
12cpr
baba
ref1
1427
607
loka
banhao
torp
panama
nud
##40045
integra
1119
chuquinha
1398
##massa
garota
##ilhame
furta
amperes
de15999
limpcasa
canudinho
clopido
##inidazol
ibu
lino
##dup
##c7
##jomar
dedos
1040
mariana
baw
anod
##inew
ggb
1370
microp
350mg
rodape
frank
edu
##x4m
transversal
54g
senador
##paraf
##x24cm
550mg
hillux
controil
payot
numeral
diploko
3010
584
775
berg
njh
##435
##biz
##ares
##raneo
##aclar
unile
##guy
quick
lov
glicol
17x30
089
##brink
record
##ubes
minip
buchas
shoyo
macaron
soldada
1128
##x2223
campana
kalanchoe
gorducha
leavein
pesseg
circuito
staedtler
cien
##well
##qs
##org
##tato
materia
dora
tam12
brd
naprox
25mt
##10047
##rass
grap
vals
pety
quadrad
##40033
ferreira
##achem
extrema
fogar
##brinqu
jabuticaba
hebron
1u
##kod
##qd
##coff
##amen
cald
12000
20x50
##lara
lisador
3545
904
freest
palterm
200mcg
cuff
##6900
1000mm
##500mg
viter
crocus
glob
desenhos
kimeleka
murumuru
077
##x63
##ioba
##umet
##late
##9516
181
150mt
##2110
003sunga
pvi
farben
##7600
007vestid
shop
qualimax
angelo
por5999
##frizz
llum
citromax
reboucas
pinguim
crucifixo
satelite
7b
yonders
##dim
coa
pretobranco
##upy
anju
1009
001sapato
361
redutora
003meia
003macaca
70x140
goya
##40035
wap
bacchi
velup
dogs
6106
115gr
lumens
circulos
specialita
step
##bosch
duloxetina
nariz
todecacho
gabapentina
winston
9018
ful
##tret
##oshi
##house
##1118
sandalo
esport
crocks
##00010002
brinde
##zze
catol
012bermud
bloom
28058
003blusao
ondulado
anilina
envelhecido
sapphire
vilejack
1x40
bilo
duc
emm
oxi
ptr
wear
xav
##336
##419
##olha
algar
##1024
bauru
manico
salmon
plasmoto
panna
kidins
float
##issi
ferric
abstrato
temperos
##80012
##1018
##tizador
bmw
##kkkkkk
por2339
destaque
estanho
femenino
extraordinario
hunter
milanesa
lantejoula
docthos
595
aros
will
##4t
##back
demais
conqu
noce
##bug
005saia
140x140
##chool
thdw
salonpas
fluo
campeiro
vaginal
ekos
doxiciclina
baden
queensberry
oversized
caterp
retornavel
1w
8x10
aren
##kt
##arent
recado
##deina
##inacao
potencia
tracy
##eara
taurus
809
capinha
crisp
ultr
indica
rapid
##vaski
realist
charged
1378
trinys
advil
##meses
headset
##ivitamina
hospital
429
ime
##5e
##512
preto42
chileno
moo
100001
acem
bless
##mov
##1318
rasque
plaf
asteca
##chata
hercules
paulist
opaca
bahia
1c
5und
728
994
aki
gly
##cril
##30m
bopp
16lt
espanh
grana
medix
meninos
place
fiam
086
##filo
##claro
desinfpinho
##izavel
sulfa
racor
lactobom
plissado
maxlog
thdw5
2300
2115
c18
##399
##1lt
##mit
##arts
2060
azedo
##1114
mano
rober
procan
salton
sabprotex
meca
##174090
cadeirinha
##ogia
antivaz
##60022
##60036
297
2litros
merc
romao
latte
ventisol
ziggy
pimaco
manicoto
571
bita
mz
mga
ramo
yam
##810
amino
##utus
clutch
raban
grelh
cereser
revela
viapol
tijol
sanfona
895503180030
nerf
colegial
rochedo
demarcacao
telheiro
r30
rik
wok
##acia
maya
moj
tam4
tentacao
flics
pastor
paroxetina
monoc
galhos
darnel
facilita
##bacillus
retook
##ficacao
serial895531492967
geometrica
8955066525900
##ificado
gelatines
raspador
semidesnatado
nevoa
milkshake
f30
fell
ik
jess
kem
pio
##f6
##dp
##418
##x145
12x500ml
naftal
solenoide
pinteiro
gu10
gaboard
mallor
01295
loli
techno
boyfriend
tasil
##litros
nl10
reflexo
santorine
611430001000
segredos
ferricelli
gente
keita
nde
uc
##3001
##biv
##ilu
por900
##1155
##tram
##peq
police
##18l
35x25
##onais
sapatos
##20045
team
brosa
petron
flagra
nesto
contator
por1535
antissep
89550669261001
effaclar
tarraxa
oftalm
5696
636
k40
n32
vamos
##sola
##219
##cet
##50m
majo
1000004
15x30
blt
clenil
cube
42cm
100032
056
delik
folico
madei
risoto
lumiere
requei
harumaki
cascata
89550667359000
boardshort
smoke
pharlab
morrer
narguile
575
brico
ee
nilo
##uivitamina
##parado
bod
##ipes
round
nogrill
sorti
barilla
087
galhe
casaquinho
injet
mathaus
##metcom
apont
veiculo
h2oh
desidratada
l4p3
entremeio
ecola
lido
r16
##ote
##266
##isan
##tod
retan
cavi
1004
38x48
##7901
whitepp
garfield
mostrador
direto
vegas
segur
800mg
##salope
furador
birds
marrocos
bandeirantes
##fleur
brummen
548
654
795
##luz
##bam
##caina
##tag
1025
desert
roya
montel
baleia
##40042
##ramento
##4301
asus
plastcor
##70033
##diga
litrinho
garrote
##orenz
52g
plantas
##325ml
mormai
crioula
litoarte
mahle
artlens
780
tili
cairu
01229
##leto
camuf
01331
##ixx
##1120
acri
acima
001tapete
3516
##7210
siliconada
assadura
mdk
vdr
bolsinha
1185
florax
##x21cm
61142
por7679
bandagem
issue
kisabor
abdominal
cys
oracao
##3p
##sie
##uli
chun
cordas
shan
001sueter
palma
1208
##20046
borgon
0141
014kit
floco
termost
brinc
##6700
##polit
0105
##1203
royale
dompel
creamy
380v
eletroventilador
ciranda
miracle
1aen
comercio
expertise
chicabon
nitaz
espironolactona
salsaretti
naftalina
ater
##liso
##790
##incho
de3299
##amura
booster
baquel
##1250
kitkat
crt
905
basi
36mm
troll
croiss
guizado
gabi
vasilhame
##tase
embelle
fases
risk
360gr
pdc
desativado
##x38cm
ortho
transformador
biloba
2114
4344
5010
735
horn
lele
##ato
##2g
##rara
##2030
##igas
100x1
100mts
polen
808
120mt
37cm
brocas
##5745
##tinado
aereo
varella
lv4
76x76
dimy
imobil
acnezil
haiala
helicoptero
xaxim
xavante
petronas
galheteiro
2u
813
9pcs
ej
tera
##mente
##menta
##erson
30x1
carinha
quibe
salm
espac
vermif
sapat
dijuntor
4gb
agil
56x56
##2014
325m
charge
sandhavkids
61x61
virab
matizadora
tunes
emoji
agrojet
sleek
895506692610009
ossinho
climabrill
8u
9150
a57
k8
pral
##622
##real
##enid
##ultura
1021
combat
chame
massey
2075
brus
souti
##18140
500w
##olez
focin
2311
driver
##graos
toner
arary
##x40m
015blusa
dreno
cachorrinho
drapeada
fabreck
620444001000
tansulosina
fogareiro
446
6und
980
970
c90
fiv
gene
s35
wall
##f4
##d20
##950
01m
colante
por36
por8099
mode
pointer
tensao
18ml
367
trm
truc
mcurta
tau
maxim
##5800
indiana
musk
chipot
worldcolors
iorg
brutus
aprendendo
vulcabras
chocotone
minoxidil
rasqueadeira
montelucas
5001
819
f02
##fh
##d1
##kom
##ulto
filha
##33001
806
cabe
##eep
pt14
oxn
sentra
armador
playgro
oficial
reais
s5001
tunica
##fasico
empilhavel
##oxanida
procanine
1x500ml
cume
d1
##a4
reutil
##ious
##idad
1210
##upi
roseira
baggy
ref19
##iplast
peonia
fileiras
002cardig
##200010
montado
plato
##70038
decoupa
##60032
evatex
##140g
specialized
tropica
##303001
rebitador
papaya
misterio
emulsao
##tresemme
vingadores
4900
pea
pens
s22
veter
##045
##c9
##caixa
co2
##eman
##itter
##3047
rosarosa
ref25
manometro
##carta
002camiso
##2672
1380
##60031
##trix
5314
suspensa
##block
##illot
##gallo
navalha
drospi
citalopram
ercaplast
coconut
5x
a7
ceta
ctampa
mta
xv
coelh
##hood
##eix
ann
282
bomguy
brothers
1750
absal
##70039
##ifor
01239
##x25m
fortrek
tridente
##x190
maritima
furadinho
diovan
heavy
asseptgel
acam
xy
##rot
maillot
16m
##ralux
14359
002jaquet
##3301
guirado
284
moden
pontos
##8800
tangao
sc124
0006
1141
215g
costume
sagga
uhde
gulosos
french
tambaqui
acobreado
##metcomcal
montelucaste
527
f11
kill
masks
2035
01313
anador
shitake
tramo
sock
proto
1429
lux2
exce
compon
pinh
##erada
guer
stu
004camiseta
##40044
gali
##premi
125m
0913
ultrafino
grecia
##fire
stamp
fatias
##cereais
##x28cm
maestro
bruxa
2o
sans
##suave
##1p
##611
##yna
papara
01308
##magnesio
##irin
lopes
##ionador
##20038
##icionador
##ylar
friz
2195
corteco
##x60mm
fuji
63mm
desenhada
beton
rivarox
tamarine
croissant
cumeeira
842
lja
##a01
##2002
##rod
pretas
##gota
bakof
shime
##baxy
vestuario
3565
skyn
jaca
goias
##irox
raspas
estrelado
##gasa
absorventes
greenplac
##flores
sparkling
retardante
895506641590005
panelux
pokemon
fabifer
oderich
anjuu
nitazoxanida
0pa
1125
8990
bingo
ew
mente
wan
##sos
aci
##1618
##antemo
seed
acoug
##2311
atc
penteado
5301
nasa
claros
glossy
latinha
agriao
toddynho
selection
carmenere
##terapia
liverpool
zorba
chipotle
feno
nis
p7
s11
sign
zum
##ronato
##d8
##x88
##zn
demol
alcap
coruj
2032
##andes
por4000
ref18
##1519
desif
40l
guizo
003jogo
1140
mila
pandora
##1350
75w
##vert
##4007
fert
006toalha
phalle
##uiri
dn15
recons
004shorts
##string
patati
##corez
playground
549
8pk
oca
yl
##jem
##inpm
repe
boat
poll
espude
pratas
chocgaroto
curves
jazam
bromelia
1718
sc112
originals
profenid
5414
vence
constan
italian
horti
enxuta
aspirina
kehome
##grafico
6ay
4pt
8140
riva
sonata
##sens
##2001
##900ml
##isy
pregos
camin
12u
caricia
tote
sandalha
metrica
silenc
plaq
##koba
secund
flangeado
##medio
bagunca
610910001000096
respirador
bouquet
pediatrico
ecolapis
vermifugo
1gr
nom
xd
##bx
1035
20lts
##carmo
next
litio
gaia
capi
42b
##valo
##formi
dance
bern
dobrad
reforc
fgv
telinha
ciflo
ladybug
serial89553149297357
kleenex
1050kg
mbwber
mitsuwa
gaboardi
072
f0
w08
##alfa
10x100
2040
013350
doci
quina
canastra
##iramato
colorig
compar
clink
semiss
palette
grw
goller
17x21
belize
##50040
##50012
sensit
larissa
docuca
utilidades
refrigeracao
serial8955314929698
##mallows
##453001000
parafusos
parafsext
##chinelo
clopidogrel
773
doss
m22
mico
sas
##640
##gat
12x30
##boot
popc
infusor
exch
##20042
##tinato
485
343
053
##rost
interro
origin
##pionato
##vassa
##cane
packpel
4pts
144g
suzuki
etilico
shimeji
2w
8w
iod
##b7
12x50
##ches
ref50
1530
rote
spac
elisa
pcr
lif
gls
22l
17kg
##sense
bigen
trofeu
##ecedora
acoplado
vulcao
buzz
delicita
abssym
sublimado
encerado
6k
625mg
kenda
nba
t16
v30
##r2
##feta
##kiss
##g5
##pira
##inson
bax
609
blinda
##novo
004conjun
42x13
##rosca
cachecol
##tamin
bordon
88g
##x155
rodinho
bercinho
ilic
oregon
vicenza
##bmw
ghelplus
pfsxt
648
7800
g10
ure
zl
##j6
##gato
ch4
1510
cascorez
prado
soling
364
##head
malto
##spray
flox
white12
primario
##90002
colarinho
higienizador
benjam
##x80g
finish
850gr
infancia
encordo
graduado
7110
c120
ehp
gym
kdu
ted
velha
wol
##f1
##rec
##cost
##0110
mai
##paixao
arts
extang
redond
500mt
454
##pct
pinkcats
1106
diabo
danubio
bering
tampico
adesivado
620630001000
esferas
hospitalar
ciflogex
2n
4001
f2000
n19
rim
##sd
##fine
##tidao
revo
chass
001top
luxe
espiga
escre
##2800
dispos
200un
##40041
##10005
kaia
##1014
1115
psd
eurof
##ipiente
alimentador
albassi
iodo
chantily
guarani
parfum
pastoso
durepoxi
embelleze
0r
3x4
fdo
##hct
##0118
bokker
refog
no5
##queja
seus
##2150
2211
##70037
secreto
##glu
marilia
225x275
vindo
rustic
gijo
tgsa
hipoglos
james
crespa
89550318003
por5699
exclusive
exaus
cialho
sneaker
6404
885
soma
##oa
##sk
##gine
##wr
##5015
00bc
##etao
adn
anac
arred
##34900
24l
valer
ballo
##x230
lili
##593
350274
mixer
##ioso
bordados
afiador
clorex
fuseco
##inkle
targ
flamb
tirolez
415g
atit
niguiri
azedinha
ezutus
asfaltica
enchimento
cotiplas
4x30m
cracha
l9
pela
tif
##vio
##iena
cotid
##olate
##bozzano
engrax
born
filtros
quadri
180f
320gr
ripao
chuveirinho
00009
8955046200003
encantada
pequenos
hellen
finasterida
sinalizacao
culinario
vulcaflex
marajoara
fibrocimento
trapezio
rivaroxabana
ilicito
a110
kon
v19
##vr
##ylus
##tradas
##maos
proct
286
bomcorte
2210
2140
05m
astr
##60034
##1108
geor
fritadeira
##ponto
tabul
##170g
alongador
hlp
clavul
secretaria
cuscuzeira
zupp
groovy
9a
b8
jilo
sika
##417
##735
##mand
##cook
deme
estro
pazinha
##rir
calce
trado
100a
##60ml
exo
80x80
13m
floripa
##40046
crispy
##ferol
007toalha
cheff
hoyal
confortsec
instalacao
clarom
contrast
##grande
starschool
ridge
reduzida
4010
644
hinomoto
kuna
kmed
nell
rules
vamp
##090
##drat
##245
##eri
##tof
reis
unho
patral
2025
latika
##char
acrim
curv
##3140
004chinel
##2334
argos
vegana
10unid
lembran
flanelada
016camise
coord02
amoxclav
massageadora
catavento
de16999
barbarex
trom
x6
##tation
alive
compo
4044
probak
1136
397
004tenis
##40049
gall
desodnivea
##1011
rsv
bonito
##minico
embalado
k2b
162g
pulvitec
reciclado
paulistinha
absalways
a52
gino
wire
##rus
##alth
##cav
##tian
chik
comprida
chocor
escur
crisantemo
##monza
##60033
tm39
##angas
outdoor
##x70mm
050mm
por5400
loctite
torrezno
centrif
##vecto
3518401
school
freestyle
848
lume
##aros
escal
##idrin
##etado
1217
##9569
rara
ston
lonada
nuv
resol
vagem
##cpds
##vaso
soldado
cisper
6646
miraculo
hibis
##brilho
serial8955314929718
mirta
niquelart
auric
encapado
baquelite
paparazzi
hoyalux
2x20
a6
a13
a120
bano
rpc
xsara
##3g
##432
##elone
alerta
##11001
40x30
canetas
362
topiramato
##30038
stranger
antifrizz
cristina
onion
##7006
geolia
50unid
hidrofilo
athenas
##ceria
atacado
trucker
068
nite
##tamp
##rea
##codeina
##esol
##iderm
2070
botin
tam40
bry
salicilico
glt
bari
059
##isoba
1194
013336
campos
##kkkkkkkk
atenas
sideral
6109900010005584
objetos
sorvetes
amendolandia
ach
##800g
##rx
##uin
##zac
##tarato
##ilina
pave
preto43
##lazida
rosso
##6058
chot
flyer
001macaqu
001sapati
lupa
engo
##cambio
ex2
150x100
espina
90mg
guam
##20041
372
orq
plie
21cpr
teclas
respin
brascola
tiger
##cord
blackwhite
flauta
011camisa
helix
aquec
##x35mm
frag
##aleuca
01265
knut
ecolog
f00099
elementos
##vectra
femenina
buscopan
encastoado
mallory
borgonha
2r
sve
tmonica
zodia
##k2
##w20
10k
##chel
##1119
empo
qui
##3973
flang
haus
sept
pcas
silmar
##bresa
sergio
##70036
edm
transicao
chees
carreteiro
econo
clote
economy
etiquetas
btc
marchas
spagh
besilato
codeina
bifasico
sublimacao
a1005
peao
rse
teg
##1032
10p
corfix
##1125
5030
1007
brit
##tore
909
##7545
002bermuda
levan
24h
flocado
##rilha
##uvi
avestr
##70031
##80015
algod
65ml
macarr
0005
00008
standart
predileta
estabdiant
4ay
79080117
##bauer
##frituraaaaaaaaa
motoserra
atomico
focinheira
##formiga
662
ltr
lelli
v1
yan
##fp
##isque
devassa
##ulia
3025
##1115
##izinho
##2210
creat
choq
amarula
004meia
##tello
inoxcal
brasw
phd
lines
cbx250
##file
detpo
transferencia
flabom
diametro
##olinato
minutos
peixinho
zalya
apagador
##x33cm
encordoamento
688
dth
ecp
t01
##470
##kraft
##inse
##tese
incl
##00054
lay
##1165
bao
155g
##20044
skimo
##conjunto
funcional
buriti
008soutie
##1503
musc
65gr
##tivus
sucesso
prontas
ibira
anotacao
bkr
##risal
ziin
##fanta
objeto
canforado
correntes
exchange
3pk
bma
bja
telas
##a5
##rigues
10x20
##leta
pool
shelseve
desid
##itado
rococo
##1601
blm
##4601
cabides
texaco
cep
bravecto
1013
##1103
treino
011short
kibom
nitrato
dpantenol
##virgem
yakisoba
babuch
trailblazer
incepa
jeiteen
b10
nha
##vira
##bera
##2050
diversa
chile
lagar
por49
poty
loco
suport
raz
002cinto
broken
48x66
biohair
62069
##frim
##limp
ondul
yasmin
chunky
524
f12
##837
##eti
intu
patas
spike
borne
##iko
tuff
melange
onu
##oleos
41g
bamboa
tamanhom
1375
gliclazida
walita
prolongado
derby
encartel
l8p7
##ortalidona
pilates
bona
dmt
hmas
##2pt
##zia
##arroz
##usb
##2026
12a
##omed
##chur
ref13
100x50
##6025
polic
001oculos
luv
##4442
septico
percane
bisct
48x50
extrat
##uzzi
terr
terrier
##x100cm
sardinhas
##ostato
##rofibra
coloreti
##longo
##fronha
iridium
nestogeno
0300
658
##f7
##xin
##ham
##engue
de2399
ca50
pagina
##1035
adic
##1140
##1228
desd
pros
3528
35669
50030mg
parr
ponz
007calcin
##fogo
mascaras
sams
sonrisal
##8639
##2011
##1204
##craft
ci4
autos
520g
alivium
kamylus
destaca
sirius
drospiren
7100
8gr
gx
##lia
##agua
##bico
femi
admasc
##30cm
dod
##eclo
tools
manda
tam37
desm
35w
soleira
##iteira
##4401
pali
escond
##jour
gelinho
373
1314
multimetro
fiel
bald
picles
##90011
##70032
##ugh
sampel
oposicao
munich
##drd
strik
ticiane
##erosol
delicata
##x29cm
sublimada
ortodontico
ceftria
antipulgas
modenuti
chassis
7pcs
870
fha
qtz
##745
##beg
dem
china
chard
por134
mlux
teia
##4009
ergon
##7900
##70035
##chapeu
minis
chiclet
##bear
##brancel
envol
abotinado
nxr150
ecs
##urgica
ete7
##icioli
arrastao
##ciclobenzaprina
didi
kno
##tabs
##onde
##ilk
toco
polenta
salette
lual
happ
120s
parda
st001
392
morto
recipiente
125cm
##60037
brasao
tm34
bbc
160fls
buda
catucci
01238
sombre
##x090
testosterona
frontais
##x38mm
delicado
arranque
a20s
renova
tweed
fellina
00000
513
634
6mts
bex
c02
myl
rgb
##alis
indaia
##1060
2024
carqueja
anjinho
artro
##icat
emba
kit2
cascal
18x24
##1714
48fl
##herine
160m
cbx200
indice
estrelar
##2013
cooktop
hidrov
switch
masterprint
decorlux
stepper
mariart
bros150
bronzeador
polidora
##ugebauer
##tolia
furosem
##x27cm
atacama
ibupril
vicky
10000044
acebolado
reciclada
8a
hera
rinos
sidra
testa
xfresh
##nj
##uriz
##hc
ded
depo
##tival
##5042
cambos
##lastico
##1132
ancho
##chef
##60039
nutre
##illon
thre
megafesta
psico
venosan
andador
andralux
89550462000035
epson
ensure
apara
hop
nada
n23
##kb
##pado
alh
##gatas
##gog
##4020
3050
moedas
##1128
bode
##7022
pisc
##40031
140mm
tere
slow
##uger
##x108
009cueca
##babysec
diverplas
##golf
sparlack
pacifico
motul
garrafas
paisagem
##x127v
martinazzo
6002
feirinha
ginger
sro
wj
##1010
eskibon
moval
40x48
medica
babyhood
##3139
minie
biscliane
legacy
veet
varinha
fluity
20007003
copaiba
##viton
palazzi
finaliz
efev
bourbon
##3030010160
cetaphil
kaiak
200070033030010160
1f5
5700
dust
d229
e20
ficha
##fir
##tain
rekoba
maripel
01361
rou
##cargo
film
chocker
tata
1319
lance
6203
##bold
rise
gomos
gripe
por6999
ramao
por3455
fv
ges
n11
##jr
##ranel
marta
marcel
boj
anem
quarte
1450
4236
molejo
clarog
clarop
isdin
catherine
##plastic
##plasutil
saruel
copag
swim
frape
8955066545900
estabiliz
revestido
jotaesse
expositor
potenza
balancim
613
722
932
eze
##tx
##714
##g1
##alm
##assa
##tile
##eight
##0120
##itrac
shclear
desing
polylar
##3601
exbom
368
pcx
##20043
peter
##vance
3508
kapa
popmax
c5001
strawberry
bakulele
furacaopet
madreperola
tabuleiro
miraculous
4pk
jw
mti
##tw
##445
##gd
##weg
preci
add
canson
##ffy
##erato
maxmallows
057
##turi
olive
##stand
##four
folhagens
85w
lyon
25mmx1
dtc
calabreza
por2495
610510001
dobrado
drageas
rinaldi
reutilizavel
c06
eda
fracao
kop
ptor
x14
##bit
##icone
satinato
nave
conjinf
606
ablok
mgt
fung
##cinolona
##tidas
tpk
osmo
380gr
cavalinha
tsw
versailles
perform
stillo
por5639
doralgina
telescopica
interrogacao
3566972
577
5990
gero
k22
tco
x2
##237
##adiversos
1076
##00052
12lts
##umin
1003
polpan
biso
bang
torne
sili
barca
visi
##70048
cjto
things
##cremer
caipiros
102kg
bustie
lactob
patag
152ml
10000867
pessoa
61099000100
pouche
2mts
671
818
921
jk
vst
##trend
10x12
##99010
##ermina
12x15
##3067
acu
polies
enri
##cario
sablux
gratidao
##geot
39cm
balta
vasos
03mm
tm42
##cler
c1similar
abob
magnus
700mg
your
##binafina
australiano
mb1938
malzbier
roteador
00bc01
665
8pcs
bed
nux
nicioli
rne
##teg
##ilor
##5012
paradox
15000
14cpr
##20050
apu
##ticia
resort
##60041
lancamento
sensity
620443001000
afog
maisena
armarinho
1905
fatiador
nutrella
##x32cm
virg
895506642590032
875125mg
fondue
glacial
etnico
contendo
majopar
8ay
awa
c17
gema
h8
jala
zuriel
##malha
##2029
rossi
antica
##trav
##icoes
60f
902
els
condutor
condelseve
45un
plena
##corolla
##60048
zavaski
large
transpare
fosc
pomes
cartaz
fortalecimento
nautika
zebrada
brazilian
compativel
desvenlafaxina
nobuk
lusa
n44
n29
ry
stom
##a8
##248
sayer
12111
marial
##sazul
por95
##3050
pollo
jog
escola
24m
panam
32x1
rasa
##ramicina
2205
2206
limpveja
##80036
6202
direc
dermachem
dot3
cedasa
lebre
snap
scalibu
signature
910ml
popcorn
acrimet
1x60
578
gun
ther
##2c
cotuba
##ivit
estal
##itrat
##ioes
amanda
##1450
chop
ratinho
1199
plim
bross
aroeira
01299
edw
timer
omron
latego
woe
unipasso
351837
adijomar
ortodontica
desconto
imecap
hmaston
didiene
f5
fena
fbs
ple
p13
tbanho
wish
x9
##rys
##tamg
##idrato
##quio
##erma
12x10
20fls
bouti
arga
desdove
crd
rodos
crew
excl
sear
metalatex
##2135
disn
medico
milim
acost
17gr
delirio
naturallife
fruits
1000089
lenc
620343
tintcor
013568
##boni
sucral
levar
teezz
76mm
013046
##quimetro
##drin
895506642590028
zein
movimento
infanto
preparo
retificacao
pergola
4s
fum
l5
rda
vim
yd
##4mm
##orto
##0115
papar
adp
ref80
002manta
004pijama
##ramida
mangueirao
intera
##gloss
suspenso
102g
firme
serial8955314929735
1x300ml
explor
provencal
##florarte
621143
6400k
##rollon
##mochil
avestruz
ceftriaxona
069
5c
675
6cc
fj
fad
j5
jord
sinha
##sb
##iada
##nia
##ranio
##3020
shco
60s
espumadeira
take
condro
valente
##telle
sko
42l
42ml
##4110
09a
varre
velucor
almotolia
senhor
##bari
ruivo
pj4533
sandhava
norm
fazer150
guritos
tradicio
oxigenio
frituraaaaa
mastig
##ificante
alpargatas
cantagallo
serenata
autoadesivo
receptor
##cobalamina
exaustor
espinafre
rinosoro
oe
##super
##dade
##ason
##tivas
##ultra
repara
paph
1028
1250g
##omas
##irc
##7020
##3869
compsimilar
##neto
004jogo
tshir
01266
##1109
babos
993
after
aromatec
semieixo
sucre
ckamura
lembranca
clarissimo
ventoinha
frisada
arranhador
opaco
nautica
mesclada
aderente
blindagem
713
834
a8
bmovel
##021
##1c
##bini
##cach
##esten
calf
cortado
1290
##urf
sandipa
##6020
muleta
002top
boro
003maio
pardo
371
100048
##70000
lampiao
premiere
minesol
2194
caneleira
camping
895506642590029
rivoli
celecox
pollice
4lt
880ml
f8
fq
fana
iza
nadia
##l5
##rc
##475
##00mm
##iseg
caranda
contrato
marinhas
lazan
##bot
16gr
4042
pingao
leva
portare
2214
100047
melaleuca
005body
antiformiga
180mg
agitacao
46b
island
rioquimica
##1107
##1019
danper
digitos
##moleca
salsic
mexedor
cicatri
supermicro
borrachas
patagonia
521
dug
sce
##lc
##vig
botica
50fl
no3
##100mg
##griao
##shl
8020
120caps
gelad
##8900
##doso
vigo
strad
report
pirakids
frutapinho
pomaris
keeper
becel
barata
spicer
##kodilar
kunatai
4990
cba
mmp
merg
xls
##s2
##unhas
##00055
corpreto
##iria
sout
socador
proof
polis
35x45
daisy
##tskala
##usoe
tubol
pesc
##60042
##foot
lamem
2106
1390
230gr
hidrocau
100unid
segura
dipro
00007
iluminado
w0d
modulare
polimpress
excellence
valsartana
079
ebul
jama
namo
##tata
##cote
##ilio
ines
chest
20f
loira
cx10
120x100
13x18
chocolatto
biscwafer
jate
1000059
##x102
garib
impa
sony
xgames
##1205
defeito
neoco
colori39
158x198
equaliv
diluido
parabolt
cebolitos
holland
ravioli
2d
799
sider
##som
##f9
##fx
##cachos
caran
##1090
##urina
013bermud
por001
30und
ansi
##3499
##idog
legue
stpcr
gaam
moniz
pirox
amarelinha
##ogra
modelagem
fosfato
lolli
juanna
pj55
cuia21
mirtilo
315ml
humus
xtracool
por6579
naproxeno
2rs
755
brac
hella
itrac
piano
s3
swa
##kp
##kon
##oles
##isca
remix
10x14
##gaz
12x40
##4040
docin
##6030
suple
2110
mb1620
125kg
3509
celes
allestra
copia
0007
florais
tostado
##130g
submers
clipper
shineray
##x17cm
martinox
manaca
ultimate
2700k
pixel
australian
##iflora
enroladinho
maggion
por6649
envelopes
componentes
marialicia
632
646
bites
cush
##032
##hyd
##5018
01227
##unia
camada
camby
cher
marlux
##lat
##3066
##gut
jez
120cps
acomp
petro
44b
wabco
agranel
clarogg
bacter
##8005
##tript
rodrigues
##iluxo
004blusao
frama
munique
centralizador
figu
symbol
tassa
lustre
rj11
1218m
hikenza
boreal
beringela
3gr
s12
teca
##034
##aux
##mhz
##pirox
##caxi
##olly
##elon
2062
##cheira
mofo
toa
##1220
bruc
##eavel
##isoes
insta
bauny
cupilha
1376
carroceria
jasm
colori38
##intetica
alenia
agulheiro
1x50un
fisiologica
doralice
fuze
ombreira
##cartago
fgvtn
fic
p90
25x20
##7025
##7026
##gry
michel
denso
##2335
formitz
attack
cerato
ipra
vitamed
fan150
##tiaia
merca
copac
schw
##peugeot
kollagen
tipos
holmes
bootcut
amassador
adrun
infusion
caterpillar
semissintetico
chocoresco
itraconazol
0verm
1x25
f60
gur
##042
##3d
##sy
##aleao
##amox
##unil
##etis
##idinho
maz
amy
tora
ani
##1801
0014
ental
logasa
##trina
804
glifa
moletim
belive
##vanda
atrev
lampled
slouch
1114
lovecare
##2017
domina
retoque
beijos
aspiral
vhc
fakc
ranbaxy
ticotico
##sanol
climatizador
##krona
##midia
##amanaria
visiolux
1j
cml
f34
gps
kmp
p00
##inff
##eline
##5034
##4025
angra
ances
bru
plasn
legu
maci
apbar
pied
mali
jazz
quadros
##7009
##60038
genco
th0
madras
claud
sportwear
5635
95ml
miami
01139
##cciola
hidroquinona
selfie
fak21
kesses
retificador
creatine
drospirenona
celecoxibe
2x5
725
737
9d
aos
f600
oy
##f4000
decad
##00051
columb
amber
##andesa
##traves
popl
trass
granja
003cardig
parker
1360
caduniv
06un
##70041
magro
##80011
bonn
013619
##ucaria
sultan
mp2
2022003
triangle
pretty
016blusa
scoth
##x26cm
revolver
prateada
synth
wickbold
anaconda
##frimesa
1xe27
8500
german
jim
n21
rond
tips
##515
##4you
##pets
##arc
##elua
indi
##00053
colada
013calca
##bob
##1216
branqueador
tracker
##2222
##00101
sofruta
no1
386
200x250
sanfarma
tear
##hee
pietra
453
1000un
quadrup
##verd
mb608
terbinafina
274
passamanaria
umect
docinho
pg1
kodi
##uchan
de699
floratta
cadeiras
kisses
queravit
desafio
filtrante
chapinha
graduada
celebration
injetora
##estampado
petybon
balloon
076
7990
geracao
k3
relo
##822
##k1
##anel
##undos
uniss
##20b
pa7
01307
##1117
##mgml
arla
14x14
polib
forra
##iber
slt
tradicion
skioba
tutela
##tick
rasg
300f
embare
cbc
merck
tile
danca
xt2
refrigerador
tampinha
felpuda
wellness
jumper
descolada
festival
desmontavel
aumento
irresis
arredond
hub
ie
##ez
##295
##nini
##915
##ashi
##ongo
##rera
##amicina
preguica
##2024
##gaveis
1234
12x8
##1150
arref
100ui
##4201
1132
2831
pong
alumi
##flac
bbb
acacia
tramontin
edc
rng
1395
jvm
nissim
renal
hemif
esfoliacao
hsd
pigment
##442001000
carrapa
cowboy
ypioca
95030099
51509
bricoflex
botinas
572
7pc
apeti
gw
gut
tfl
willy
##nb
##p0
##x600
cota
1299
por3200
15cpr
luelua
##3138
jungle
##artis
urina
##phic
1355
vanila
aa2
patrol
611030001000885
seletora
##batavo
3rho
pneumatico
##tropio
pietrobon
respingo
furosemida
lazanha
2x10
2x075
865
916
gyn
rimel
tina
##berm
##5025
preds
alcar
##1021
##qual
mares
mouro
##1126
50mts
rouse
computador
907
dai
elka
redinha
802
064
athl
##70045
##60044
01298
240f
donan
leggin
umido
##azl
cilindrico
013419
tamanhog
margaridas
almeirao
10738
cactos
pingouin
chanfrada
therapy
mudas
nexcare
##neutro
dispositivo
ebulidor
glifage
073
4cp
8010
950ml
eros
fwb
kele
##sr
##x96
dexa
##impa
##icola
##quena
1079
12140
2050
mlv
##6062
##1614
encon
##cartei
peps
387
ortese
2801
pane
perfurante
della
26g
lanceta
##80025
verano
realzinho
mrs
fdupla
scarlet
streps
okibom
por1440
confeitos
laptop
burgun
revelacao
0200
3100
531
641
739
bret
lal
noma
sbl
##taro
##ild
##quik
caldas
2077
mox
fortes
graca
escolinha
241
multicereais
avene
##70043
origi
drin
selenio
##00004
hast
610463001000
craqueado
opal
1397
caloi
##quedas
##huggies
vegetariano
8955109516
kombucha
5297424
cateter
acintura
8955109516005
3990
6d
6600
z8
##s0
##bama
##p6
##x49
##qt
saud
1090
chassi
##sai
ref10000
##1215
tam6
##2219
25lt
castr
pror
287
balls
2135
rasgada
11020
##under
##pret
smar
bicro
temper
buett
vitis
beauti
csl
recheadinho
out21
gerbera
86g
nsk
robinson
caixas
##foods
##x300mm
lulu
aussie
maquinetado
nordeste
santorini
1824m
tattoo
calibrador
auricular
paparrel
portaretrato
ocular
##0114
##3039
tam8
polivita
##3427
castrol
escrito
##30048
sanro
multipla
multiplo
##00010003
corretor
75l
##ramina
##ixote
06m
coty
invers
massag
##80031
sien
610342001000
sarg
##adrez
1387
##ficio
sbt
bobs
2000ml
cruzadas
tortuga
117g
frescal
passarelli
akt
por7999
ddc
aprender
maracaju
explosao
de17999
quarteto
588
6200
744
c04
koth
rani
##fam
##nk
##jd
##baun
priv
blist
##queto
gufani
meiacalca
2811
##40043
##90025
##seng
##blk
##grafo
alcoolica
retino
##2502
##assol
diges
tramado
chemis
##cabelo
mosquito
amoniaco
diferenciada
niagara
cysne
polpanorte
8x30
ncm
pipi
s7
##236
##uy
contempo
traver
##35mg
clik
basis
joan
macarao
##7700
hidratar
postura
008toalha
##balas
325mm
dermiw
itatiaia
karinho
carteiras
mistp
cvc
gdc
gift
89550462000037
losango
collant
giannini
toalhinhas
diluente
620193
estradiol
faixas
practice
explorer
558
561
655
7010
825
bch
fett
hur
kada
n65
uzz
##mus
##hw
##yp
##jf
##jar
##tidor
##0157
##1031
comics
##icap
ensa
377
##colete
1134
orden
broma
gool
pedestal
05l
0230
##plicador
##70047
amacitel
tilly
##ienbier
pg2
015kit
picada
rt5
naprix
valeplast
deriva
bahamas
atarrax
hidralyte
nebulizador
demolicao
4cil
6990
6x4
dana
##vlar
##b9
##jol
##ulose
##dahl
##emb
##icid
cardoso
popper
##34001
001perfum
35003
35456
compgen
crochet
12020
45lt
calcuta
fiore
white4
##90000
##90038
##70042
##7110
passione
1118
10ay
retangulo
##x45mm
bosque
8unid
barbantes
vinag
##ratto
reator
gravatinha
relaxante
62034200100055
##festyle
thermal
alemao
unilever
algarismo
betoneira
osmocolor
4em1
568
ema
vik
##e2
##hine
##inar
0101
1058
caminh
call
##edu
labor
por55
por58
40fls
##1902
##mega
##3211
001bota
##ialli
36ml
##2137
003top
torque
petunia
bale
##rosta
plaza
1107
##70022
##bert
litrao
##1013
sandhavcol
alccol
kiki
ciment
##elsea
complemento
##luva
##varna
paramotos
domestica
6110200010000
mirtazapina
##rofibrato
retinoico
##tha
##famo
##436
##m0
##h0
reve
##itin
##1038
lak
cardiga
##pochet
br001
cancun
priva
luftal
no6
je003
36w
22i
##conc
scf
5546
##tinil
afunil
centr
ciste
seculus
##tecido
##achi
botox
divertidos
algicida
lombinho
patbo
kendy
pingadeira
educacao
neostrata
raffa
fhaces
lollipop
buettner
745
942
gk
gent
vio
##lbs
##239
##cala
##arda
##cobre
##1042
chum
2076
##6050
##1814
384
cervej
plant
004macaca
##spreto
##000188
delli
folhado
batatas
limpesa
008vestid
lith
thema
araucaria
##ossom
2196
mfm
23099010
itauba
italyl
chamine
expec
flatform
69m
540gr
patinete
enterog
a03762672
##premium
vencetex
cotidian
nhac
5100
aas
##7100
##iun
##glo
##pino
##ory
##roe
##ulders
esma
caos
##1224
tam35
##35001
##00180
##19mm
##fee
##estri
200w
mgml
005sandal
21l
21w
tanquinho
110m
##90039
linny
selado
vivatti
vizzan
hotwhe
013628
72h
##eteria
hpn
tyrol
stalo
antissinais
ergonom
2pol
4115
677
luma
m20
x4
##244
deere
prefer
pape
##1039
##parac
##goma
2080
porquinho
30v
botas
mlt
parabarro
15v
acol
##22001
##3701
sortimento
1336
monkey
valencia
orus
1901
nuby
488
005conjun
ptoc
antit
white6
func
exttom
liquigel
lavive
mader
eden
mostar
maracuj
norisk
reld
busonid
##bulos
delineadora
toalhinha
478
541
a125
diluxo
f70
lenta
zinho
##495
##nal
##olac
##2028
satis
##pau
challen
##00057
##1129
carim
##1211
##25m
quat
##ucil
##1910
001almofa
joa
grings
##3136
45kg
biscbauducco
bardahl
brave
##tinhas
sinus
thybr
matematica
neutrol
##close
##tadas
63g
criado
brie
040mm
620342001000678
##disney
vibrador
canfora
1x8un
strepsils
443
734
793
r28
s493
ypf
##3mm
##s5
##von
##nina
##nect
##yr
##arg
##aroma
paquimetro
10x01
escultura
##taneo
24a
28l
panceta
##endas
##rest
pt13
flexi
tamanhos
abaulada
bcopto
viola
##x045
##22210
vivi
quebracabeca
bulldog
raizes
infinitto
sincronizador
molheira
610510001000
bordeaux
sargento
dermiwil
i19
l6
##238
##bebe
##robe
##ranco
##00056
femina
##40cm
01391
##ander
por45
por2599
##1127
##olaranja
company
splay
##sex
elm
lifestyle
dios
malwe
##31001
gogo
ptovmh
##40050
waffle
minimal
neutr
bertelli
negr
gsb
johns
vermelhos
infatil
ramassol
condensador
memb
ciprofibrato
sparkle
##milk
husqvarna
sequilho
quartzanlgocxmetcomcal
antiacne
cascalho
kta
xingu
##2m
##uos
##how
##2098
10808
20pc
sheep
paraiba
15x22
noiva
michael
05ml
44x44
##50025
03un
classi
posi
vitao
013826
013548
pei4
pj48
conserv
quimi
desaer
overtime
relaxed
embalada
boticario
definir
sherwin
manhattan
##batata
limpperf
soutiens
enterogermina
8002
hrs
tiro
##dine
##but
##gurt
##940
##istica
##dara
##unender
camar
##00058
20cps
##chips
cartelado
##boost
vestir
18gr
##ibri
cless
##shine
1340
barri
005meia
playa
44c
##50015
delvalle
##70046
biofleur
##iosa
divis
primera
chefe
##oooo
mrr
450mm
angela
hamburger
luluca
lapela
smooth
romantico
elaion
gonzo
crimson
##neutrox
bromexina
skylack
621143001000
749
899
cral
cente
ira
lw
##r16
##bull
##alhas
##0116
##eth
##lush
came
013134
##igu
1650
1820
##seco
feminf
110x20mm
cpvc
katita
muky
nutriex
58x58
kodil
cloud
1379
##mascara
00006
679811
moranga
izalu
##queijo
algema
##triptana
2324
8350
wipes
##volt
##dini
##246
##cente
##hg
##yy
##rene
covid
30x2
##ecy
5094
arqua
##izza
paraff
##2212
proart
pride
rolico
lonas
glif
amarelas
tecplus
wax
##60015
smith
dentalclean
isis
cromic
bubu
sarn
##250v
latest
evap
hugg
floratil
rabisque
mx72
bombona
melagriao
keraforce
cremosy
extensivel
revitalift
colomba
exterior
rabanete
phallebeauty
submersa
##inffem
576
7359
945
x15
##298
##x74
##orda
##arina
de18
sagu
aluno
##1026
10u
chib
##veran
bayer
socor
creta
##onex
entradas
80m
##ampquot
28ml
floter
petrol
##tics
inoxida
220x240
astrona
44cm
brasfoot
1104
mb1313
agl
##corcel
casaqueto
##6201
pulse
##8006
homo
imune
##tizada
marilu
63cm
8955066515900
1184
##certo
umaflex
##cabana
6206400010007
frutilac
895506641590000
arenito
c22
otico
s211
##sv
1022
##1136
##1276
native
##320010
##mox
croma
unidad
biode
##6401
vii
matis
oxy
sombrancel
1386
derme
pantenol
##x6m
800mm
kings
cresce
abssem
quadrados
fisiologico
imbiseg
vizzan0
4002
8395
blast
g15
noll
rmp
rug
wix
zamak
##ow
##a3
##xgg
##cac
##teral
ree
saga
tam42
azulazul
aceclo
##1911
##3298
1816
semanal
florence
estd
##500m
4008
ecos
kaiser
2806
##x04
2pts
marchand
pantone
mastigaveis
1blh
920ml
gisele
redoxon
espanhol
ipratropio
decadron
8x21
atr
dile
gos
jei
kane
pfo
venda
yins
##lillo
##fior
##1300
##mio
##gest
##p5
##itron
dool
##iplas
crtra
##70mm
001saida
##17m
##170010
abb
002sueter
semis
jour
3846
##lyn
##2401
silica
meiataca
brotinho
100045
wahl
##9008
##60047
starter
3132
merco
lolita
lonax
gabriel
shaggy
76g
luminosos
marfin
aceviton
tradici
navalhete
squizz
geometric
capric
##baraco
leitoso
graphene
prensada
carlos
caviar
burgundy
0g
6x7
867
k12
pte
puzz
##acet
##quesa
##3026
##80mm
##6026
crusoe
604
##39004
0016
notes
elsa
kgs
dengo
whis
##udi
plaquinha
##70049
ppg
invi
popup
65l
1359
320mg
mundu
##farnese
##x222mm
slipon
fsn
##220v
trendy
spectra
diclof
flutu
firmador
jamaica
592
a118
##rf
##ring
##gc
##ujo
##jade
##coala
##usse
##5019
##itina
alter
algin
1289
mascinf
natri
60x40cm
3594
bolamel
dauf
lime
tr4
grace
chines
maxcolor
melone
asia
##6009
vitay
lamot
merengue
craqu
venice
danos
mrg
nobile
71cm
tictac
barbati
cotovel
pepperoni
bananas
bananeira
cauterizacao
periquito
arejador
##bronze
tropicais
sucralose
kollagenase
6lt
bnc
dtom
gul
hz
pian
##dv
##nei
##alio
##hav
intro
##2034
12gr
30lts
##1134
##1234
##izadas
##irra
peel
pineapple
elx
paleto
38x58
gracia
##aroo
diante
multilab
2638
##tubo
##60046
misso
mochil
motoqueiro
269m
unicor
013370
tropic
2unid
##olife
serial89553149297085
shampcond
fh12
pmggg
funileiro
madefer
89550467000000
autoadesiva
flaconetes
olimpo
611030001000150
678
738
8x20
a51
ecco
n00
oggi
pba
s0
##bis
##nu
##entar
##iler
##doo
##5028
alpa
conh
2069
013329
por8639
##1137
ref22
verdura
polaro
casu
3582
neugebauer
tinindo
1206
##tonio
capili
captiva
423
broa
tomat
2160
##vern
esmaltes
agas
postit
##imates
552
isero
babadinho
rally
nesquik
carters
noripur
##ponta
piram
magneti
50125mg
humor
unifor
895506644590016
centrifuga
kapazi
piroxicam
dtombini
736
866
cult
eeg
ged
gft
p150
woo
xxi
##n2
##x67
##emo
##active
2074
##1236
##1266
4046
poleng
3534
##42001
basike
joh
451
004sunga
341
005jogo
havflat
##itane
##6006
55l
essenc
lightner
especialidades
osk
baunil
armatti
##paraiso
##gonel
chamex
##x80mm
seduction
a0448
por7200
##transparent
##orthon
crocod
coceira
720ml
still
domestico
parabolica
olimpikus
sayerlack
alginac
591
9un
bess
htom
nz
nive
pene
##f3
##dale
##4d
1060
12x20
mariner
01301
25und
salermo
##36m
esping
loyal
##10050
rajada
2506
fresc
##4701
##celta
regi
1000m
##cons
21m
##4140
folk
##60043
##80044
##kote
g1m
sinvas
lentilha
trots
somb
ramal
##x200m
punch
poderosos
dilus
unifort
cordoba
reservado
mensageiro
kothrine
hotwheels
3x3
621
a115
hede
kc
tita
##tho
##a9
##ioli
##cand
##jl
indy
0113
alch
allex
chor
##guia
##6022
acha
luana
espelheira
##x1000
disma
medicam
005pijama
75x75
006saia
##80038
g1x
010cueca
donald
013534
geranio
beeight
craqueada
325g
1190
secagem
sulleg
copaza
62x62
##bacon
arteb
pratk
rasteir
vulcano
intensive
access
kanechomn
##garrafa
tablito
por2340
chapeuzinho
dimensional
643
grig
pell
yt
zeca
##yner
repeti
incot
0030
alend
10v
12x25
latoy
##1248
quet
1430
pean
bastidor
elan
002bolsa
gradi
micras
13130
##3134
##4935
48w
##2301
##resto
0301
batavinho
lilian
turqueza
divisoes
##liqu
85mm
araras
treco
alabama
drama
fibraform
4000k
leitbom
##x110mm
912m
burnish
oasys
biker
adoleta
chokko
akiy
inoxidavel
4x21
657
igua
t7
##tts
##usto
estonada
##40ml
##4034
2072
adlt
bout
10010
sopra
prolo
compass
##seven
002macaqu
seam
distin
376
##4139
263
##7007
valvoline
dalas
##59000
##5644
arovida
##x10mt
009soutie
5655
galaxia
om457
tact
1193
tinturada
sandhavbrasil
190gr
dropy
chicletes
##paleta
purina
679819
boyshort
dmw
blocks
polegar
cofins
8955109436002
auribalas
exceto
iodado
hidrovacuo
sandipainfantil
lamotrig
624
ava
gond
##zok
##arro
##estic
inalacao
##1037
chiara
##vais
cor01
##1122
carrap
manjuba
##2510
rojem
nocciola
blossom
spz
##x1m
##prima
tapo
003camiso
cub
flogo
nutra
modinha
005shorts
##70050
sclara
postos
vitazza
01237
##plastico
5726
dinam
globinho
##175ml
lizon
picad
ah6
279g
alimentar
pooh
6402999010012
neyyan
hipoalergenico
471
7013
926
ariz
bps
nino
sfor
##ppe
##coc
##titu
intra
preda
##1029
10caps
##etamol
azera
5050
##iben
lef
200mt
2000000
apc
monroe
28comp
##splus
biscma
##iroba
poncho
##40037
antirr
protege
074
pomo
fixadora
##metros
##hlacto
4014
glove
dolom
princesinha
cinzeiro
por949
esmeril
kelldrin
extensivo
cordoalha
impressora
terrestris
jupiter
hornet
secundario
##famotidina
noripurum
543
atan
d12
eiri
jel
lala
n27
wienbier
##aker
repl
##5075
##5058
preparador
conchas
10lts
##leds
chris
12mg
1295
colli
##4085
##urbo
3060
##igma
##ipto
acf
socks
3576
18v
pert
11j
copozan
2204
cremalheira
##6008
##timix
013539
transderm
grega
isop
isoeste
mecha
gengiva
haskel
550w
##ostazol
telesc
##0001880
rocath
meber
incriveis
tarantella
ceviche
demerara
afunilada
4144
855
fy
kades
nro
t50
##nor
##aris
alcan
marcos
adstring
any
shado
1619
tam39
solex
##2601
lead
##20039
dihoff
##ggar
10009
##rilar
posto
mind
mistico
46cm
herval
##1501
78g
##x030
fluence
artist
tabuada
conect
airlic
49g
esperanca
ventilada
promiss
cravos
glutamina
prolongada
selozok
##corton
frutilla
##onnay
stels
dilepe
498
676
cto
##811
##lle
##e7
##fis
##ifer
##p4
##ors
##anina
copp
##usi
##doc
##2060
chinha
2068
baianinha
50x11
10014
tenace
needs
sek
boreda
003jaquet
parbo
stp
maluca
##eek
terminais
1701
antirespingo
bonecos
lumibras
1x150ml
mometasona
labios
1a3
5000ui
017camise
nspa
eferves
evora
confeti
ritter
equip
fisiofort
washed
artsy
718
742
hn
tessi
uvas
vinh
##r1
##rg
##fg
##x297
##zke
##oly
##pato
##vacao
12p
brandy
tamxg
##15l
##8027
cr2032
roa
##7027
##7065
forracao
185g
005chinel
##plum
pimpao
botafogo
hidratado
titan125
294
01403
variant
013532
013566
liberado
pils
copacabana
51mm
janda
##imeto
a275
respitec
amigu
##kinson
criacoes
austin
horizonte
vitaminado
sanitiz
ww3
620343001000
beautiful
agasalho
hedera
2cv
5443
5x200g
6x9
jy
s60
t18
##a6
##espon
##ilhas
coalhada
repo
rever
##downy
##imas
##1034
20pcs
30x20
##inoff
##3801
3537
blink
eliana
##2801
level
##tanga
014bermud
biscro
2212
termal
goji
##1314
##br1
##90041
##60049
olk
funko
indian
sungao
bey
rodela
testo
pg14
ripa
bottle
##gono
##bacter
##rolet
89550462000039
##curto
unipega
eletrolux
acdelco
agulhinha
adocyl
minaplast
assoalho
nathor
phoenix
caipiroska
lamotrigina
3n
479
661
drac
helo
rick
u01
##een
##nite
##enzo
##roxo
almas
##1055
12cp
maro
##1175
##veg
##8050
40c
saladas
tennis
blur
estacion
##ington
semalo
escol
micangas
redes
1204
11u
maxixe
belg
##kau
costal
protese
##9006
cilostazol
##80032
008calcin
##tamine
78996
luzia
230mm
prism
sandhavk
pituka
paralela
##brancop
cuidados
windy
especiar
dot4
bavette
imunidade
dicloridrato
multiacao
docigoma
3ka
6x30
ciano
eut
fverm
##beira
##cow
##ilis
##20m
##quine
1055
1023
12x4
##4030
013508
3056
adf
cari
antin
shdove
##35mm
actros
14150
engr
joe
rolhas
leticia
pareo
condes
70un
1950
100046
balada
084
ponte
##5006
##50034
04un
legal
125150
##colorir
280mm
bauni
013748
013339
##pratos
benicar
serial8955314929676
strin
scotchbrite
pratsy
nuggets
foods
kily
palavra
cappucino
de2799
inconfral
chamequinho
barbatimao
akiyoshi
6c
719
721
ghee
lcm
sano
##zs
##antina
say
##edy
ref01
##1251
1623
##ipan
crinkle
soba
253
forr
##1650
001biquin
##eazul
##carga
blade
espadrille
louv
##450010
ellen
croop
##300001
gauss
##racuja
nutela
##1310
1603
013819
##pist
irw
cardin
nutritiva
5745
##brancom
schar
docura
##bande
105mm
bsw
##dentil
wilton
agape
neomicinabac
chardonnay
polivitaminico
rojemac
2990
494
556
8f
fso
jad
##038
##rive
##439
##bca
##600g
##espa
##decon
##chb
013365
30x40cm
tam14
propionato
25x37
14cp
##3756
passe
##21a
##3150
##31000
japan
1790
##uven
fiotrat
visage
##7008
tm10
##80000
autotec
bluebay
tpu
meritor
instal
vmh
cruzado
jacq
hrv
frascos
criativo
xlr125
windsor
##digital
igual
nervura
kerocopo
jhonys
engov
strikwear
ancestral
irresistivel
travertino
incoterm
0400
c26
cemar
jerry
##7en
##qen
cobs
regu
0078
##1044
maho
amiz
##uracao
boc
##14001
##7067
no4
tati
34mm
005camiseta
pisa
picolinato
elastex
2636
##radora
eletrif
kabec
homen
012short
ct0004
mulheres
sunmax
estria
1uni
up4you
schul
consci
91g
chamb
211s
017blusa
dayco
mika
trenzinho
chocoleite
por3419
inspiracao
##ubeba
gyno
mcazul
smilingu
excentrica
antivazamento
tyrolit
polaroid
c500
frog
##511
##fada
##dg
##799
##bica
##x69
##zone
##eride
##onado
demaq
rexo
##rani
##ranc
##5014
comes
colisao
arpre
rotula
##360010
cashm
##10052
escandal
39174090
mental
calcanheira
1944
##90033
400w
brad
livina
g1u
ultraclear
##6311
##perio
##phar
fluida
dtl
##x100un
outro
175l
100grs
##farmax
##ccitane
##ficada
3unid
btx
pruden
koyo
henkel
marmorizada
##micro
holographic
flutuador
panacota
tamarindo
6109100010004174
##etinilestradiol
aproxim
tijolinho
##itracina
afogador
669
689
779
atena
c72
gbr
jorn
mch
rsc
wit
##ties
##1028
##tildeo
0018
lora
lovem
granul
##3120
1912
1720
cosm
delrey
063
smd
##80042
##biqu
170m
##x50mt
arabe
000156
hb8
bolsinho
hall
##simples
aircross
segundos
poliplac
##lander
patinhas
fisiogel
maracatu
0986b
a581000
spaghetti
dodge
sandhavaiana
uzzilim
953
c27
god
p80
tbi
##028
##tg
##k3
##grend
co2035
coisas
##5040
##01x01
20x29
30x30cm
##3045
##25cm
4024
##6085
acqu
##itat
caseirinho
nevada
seq
80a
11990
valtra
70a
barber
1939
##1311
terrac
sc113
cott
2930
lambari
##liga
schra
dosadora
pg7
013418
kelcat
hydratta
unicornios
##1804
antarc
maravil
algest
sprit
##x13mm
nxr125
##ificada
lecimar
tauari
##tofano
975
r134
tik
wings
zaroo
##ou
##aco
##d5
##437
##mec
##pampers
##yeb
esmag
##imenta
30vol
tam3
##6065
canudos
##onau
36m
bart
##racker
##rosto
ipad
palminda
madeir
013578
mdp
almoco
evis
bertoni
##parati
maozinha
distribuidora
niveladora
bread
veneto
amoras
beeps
keraton
475ml
burnet
xadres
354474
mandioquinha
611595
coldre
640419001
hauskraft
nuxx
seamless
dolomita
4x8
664
h11
view
zon
##560
##caro
reba
recolorir
##unic
1095
lagr
##lagos
3055
mog
babo
50x90
1550
cinfer
##prel
003manta
condpantene
459
gow
tecbril
##itani
##50022
revolux
cevada
origina
drum
center
##mcr
person
luxolar
013916
ssd
##bloco
ciclismo
achocpo
##x75m
petiscos
endure
##mw0
por7519
351759
##kanechom
eyes
lufkin
naldecon
garibaldi
osklen
557
6cil
788
929
cell
gesta
iumi
iglu
j8
jms
q5
veli
##070
##027
##50gr
cajo
##1069
cali
calig
12x45
collagen
marile
carc
cartier
50x25mm
1515
2510
encadern
##sham
malote
diants
##ferrie
##50039
zagonel
internac
kabu
frutos
##iori
rapun
bepan
009toalha
1116
21919
nesk
defens
romanato
retropro
europeu
acetinada
ideale
lucy
novartis
chevrolet
##imarina
polimet
##fusion
clorexidina
predator
did
p100
sumax
vto
##875
##oz
##rub
##aen
##d6
##498
##nin
##neg
##xis
de22
##iment
concava
comigo
maruchan
20s
lagos
013606
conjfem
casado
351
bolete
boliche
pepp
triss
monst
45x60
skal
##00010004
tectel
alumilar
##place
09ml
0910
interlagos
##berland
origens
boxe
higie
##6301
0106
passiflora
013598
##1206
docum
magnific
pits
4901
##mold
novelo
summit
ginseng
aaa2
carbocisteina
##kinny
pecan
por6300
##granado
andreia
##whey
3003mg
por9599
milimet
bretzke
aceclofenaco
7x7
f2
lados
lord
t9
tole
tare
tinidazol
uq
##dro
##nha
##uano
##yang
##camp
##reno
##emil
##icum
##action
##4044
013805
##ecte
fresa
##2134
tatica
##guaia
##naq
##200m
##amate
1310
sk8
1730
##brum
antifer
hidrakids
minga
##57mg
bloqueador
##clin
2802
xadrex
sardenha
##brancogg
resistente
##funada
dezena
frituraaaaaaaaa
cirurgico
##presto
figuras
buprovil
tchetto
assimetrica
pj6036
nellonda
kadaff
promissoria
especiarias
palmindaya
marileti
8x12
955
b9
c03
dcapri
kbom
mst
p12
wei
wrap
##sus
##v2
##mk
##bucha
##inari
reign
cacao
sacar
por85
3040
batal
##iron
##2531
conjinffem
##ppreto
500l
sly
120mcg
004maio
sertic
756
raschel
09lt
3340
##tines
014029
herrera
veran
esfirra
evita
##canis
opcao
cartamo
romant
##ameto
##comb
##uais
68cm
florata
##rapido
artigo
desabove
supraz
075mm
dudalina
f000ke
960ml
pff1
##tamanc
de1499
manguito
closet
##politriz
teddy
grigio
tapoer
564
z5
##sort
##vina
##vonder
##d9
##bn
##c12
##pie
##zu
coba
##unc
##ettos
##1124
100alg
trd
joga
torcedor
menin
bombas
22un
100044
pontil
##doses
3005
feet
0103
lavado
toni
biqueira
cardio
##bello
013466
amorttras
450m
fiorucci
serial895531492966
desengrax
patricia
##past
50x70cm
ete77
suculentas
ariplas
scrity
possession
devore
zulu
giorno
7belo
cepacol
dla
nsa
sla
##oda
##risse
##tabu
##amil
##amendo
coron
##loe
baco
parar
40x25
salinas
have
003bermuda
##racor
##ensivel
foam
tempos
##illette
anauger
riobras
chek
beat
ventura
1196
94g
##ksy
horten
playboy
##0100002
hemitar
##ab3
desayner
40x40cm
##340g
extensiva
biliton
downsh
cronos
ewel
velija
8pc
l1
vimar
##rp
##iu
##nil
##hil
coelha
mauve
por42
16x7
##15m
desoss
tenox
gril
##3325
conjuntos
11000
1170
##5536
gliben
aval
400un
##corpo
##80034
thunder
ferroso
organiza
88x188
2197
1396
romano
230x280
itau
pulseiras
rendinha
fazer250
##entadora
##denza
iorane
economia999
odt
##arelto
##puld
chocottone
de2499
fumaca
##toddy
espacial
bisoprolol
arprex
dadinho
lid
pti
qs
viper
##abr
##736
##energ
##itr
##1049
chima
chelsea
01323
##poff
nats
##vorato
sorine
parma
monet
presentes
sacolas
plaina
white3
261
waw
waves
postico
claropp
##5301
##casual
voal
brasilit
ultragirl
triplex
013527
timolol
##90004
colorset
pg3
eurocel
w0b
walker
1200w
wilkinson
ciclopirox
matizante
##eather
quadrinhos
pyrena
caminhoes
becks
kriskof
correspond
protsolar
aterramento
repeat
italyline
carimbos
flogoral
coppola
771
cym
equi
finel
v05
wel
yumar
##fim
##vn
##asn
rein
##docol
##2040
pretom
tama
10011
100x120
40v
2526
25mcg
mechas
##onat
##00200
limon
eldo
golinha
1135
##0001u
fies
140x210
avante
magali
##60025
tubozan
##80037
##iller
014026
elasticos
ovinhos
ruah
0009
##3012
##crm
##pinos
serial89553149296
540ml
chanty
##eself
vodol
a315g
advantage
440ml
415ml
metoo
##x95cm
sophi
1x400ml
jurubeba
issam
667mg
ornamental
cisteil
puzzle
besser
schulz
6010
992
cene
d28
dart
noss
nicol
test
##055
##lita
##sta
##434
##micina
##genta
##nen
##anan
##teen
##terap
##isad
##coracao
##dac
cacul
0060
matic
013187
toc
##1223
##igi
dese
##sop
perfex
500v
lee
##ieve
goico
##90012
confianca
iscas
fania
1306
##opro
timken
65k
esfumar
5450
mucar
miuda
013732
013768
##ach0
explo
sodramar
almond
histamin
##inted
##cycle
retificado
botanic
sobrecoxas
de1099
##biloba
##protet
0075mg
chiclets
brincalhao
constanca
85w140
umectante
7359esp
cotoveleira
euthy
1x24
fta
its
tcl
xarelto
zy
##pir
##peno
##tium
##2048
saad
connect
##1045
##1052
1070
maris
marula
##1135
barat
doh
ref60
potinho
1423
triche
##3334
monal
piqu
malboro
##ressa
3008
4005
olan
ecopower
divine
varic
donut
tipo1
dorso
2190
luxxor
portug
norfloxacino
lemb
carneirinho
w0c
rcs
icder
keratina
89550467000001
zeedog
l16p15
tzu
monstro
assimetrico
pj2272ii
annita
privativo
7359esp2mm
1d
3300
4mt
4comp
647
a116
dha
hh
ivy
p60
alas
colson
2045
poule
16x8
manilha
bruta
##pecao
14kg
lotion
##100m
3650
002almofa
seal
esmsint
1202
45x65
cadioli
02un
perfurada
##okika
juntal
mb709
##ifter
france
cb500
cat5e
babad
##x203
mercos
osteo
danette
dardak
maq1
colours
tampas
amacroupas
escamas
579
7x14
ares
eterna
iquine
rola
xua
##cate
##eixe
saquinhos
##ricos
campe
##00059
##edrin
marba
013469
paraty
##001002
##sob
peace
##itech
##50031
vislum
##cionais
23kg
lancer
33mm
inv2019
013815
##forge
vargas
rolote
bivol
78995
afro
210m
danka
duratex
##iclan
bfs
triturado
comprre
gravataria
370ml
headphone
ea111
crant
chicago
##tttttt
reposicao
graxeiro
ranitidina
lovemania
mucarela
0j
7k
7017
853
atad
iba
ldo
mps
n50
r75
wp
##075
##pad
##ulti
chenil
##4038
##1139
##3021
acida
ver2023
603
##36001
001perfume
pastina
##2120
roleta
levi
80un
conddove
707
diane
00400
morgado
2312
##10006
kap
##thon
013846
##bolol
fashn
130m
##antana
hotdog
beagle
##tivada
levedo
slipper
013098
oficina
013559
ripple
apimentado
tatuagem
incrivel
fidel
stomaliv
arizona
kadesh
kabeceira
kabuki
7gr
733
776
htz
rucci
trosto
utens
vena
##024
##0144
aman
moas
tam34
##2597
1517
##2213
conjblusa
14000
##soff
3519
enz
150x150
sanny
243
19fa
487
005macaca
moro
061
1102
olh
##x305
tripack
chicco
bloc
##9219
integr
nesina
twix
passata
##3016
ibp
sdsplus
142g
016kit
ginko
reconter
carbox
avenida
##ilicato
quadriculada
5287210
por7599
manchao
prorelax
dihoffmann
pitukats
euthyrox
vislumbre
0az
6f
6x25
gres
kas
rivo
winf
##023
##tk
##inec
unida
saias
##1051
##4045
por59
##2218
crus
navete
35x50
louc
banc
sorella
valflex
##herb
220gr
oneself
##ifin
##tua
014058
dive
ultrafest
garf
espagu
fitty
aerofit
##tribu
lightgel
craft
semijo
colorante
gigi
##freio
lneck
195g
xr250
entretela
sinaleira
escritorio
suspensor
luizinho
kellmat
sbrissa
jacobinho
halteres
alimentic
triancinolona
##duplo
valeriana
610990001000558410
##vigor
slouchy
synthroid
derivacao
653
935
r13
tpl
##0p
##conazol
##arr
##usei
esab
corola
12cores
##1190
100x50mm
##utu
##7064
##38001
##390010
sabdove
##750010
##ioni
36f
mullet
##2701
stv
45mg
2219
jara
balan
pondera
0201
perfeitos
mb1418
mamona
tm44
vega
umec
##9909
concr
flavia
lash
stir
pirulitos
carbama
679818
querat
1997
##yday
104g
zoop
majestic
97885
kicks
de899
610990001000026
lusafilm
skool
raffaello
cajovil
pitstop
yumarimel
1ts
4x10
4x50
918
946
cst
host
riclan
t06
ucb
##043
##tandy
##madeira
##erf
##coen
presep
##chon
##lapis
30mts
##1142
1622
##15mm
peugas
blub
dafesta
##pping
##33003
sorr
condi
torra
milnutri
24kg
1339
valora
perfecto
agrop
galin
pesto
posicao
lilly
##xazol
bact
ecowear
fechamento
31a
escuros
radnaq
##plastik
arapon
insets
##9399
baconzitos
##1407
digitec
halo
71x71
essenciais
395gr
patrimar
barbara
##impact
plastificado
##issoes
awg
albumina
gibi
##orenzetti
elantra
bepantriz
765
a50
jn
nachi
z9
##oeste
##vg
##vix
##gie
##hilux
##alto
##regata
depa
sava
camelo
1235
##trava
desb
##6066
acq
##7055
canji
##380010
##10055
##faz
bebela
medidora
003cinto
plst
281
42c
##odona
goi
imperador
21i
bodyfit
resinada
embus
cdi
##ifral
cebo
olhar
##53001
g1l
cbem
620463
pinot
54x54
om904
52mm
miura
72g
usbc
qualidade
trinca
679812
alimentadora
##floral
patinha
pamonha
390ml
5mm2
avanco
dilady
lebrinha
formigu
bendito
perdig
##6500k
exposis
atrevidos
cenevit
comprrevest
497
7018
896
ehs
jem
mura
##3l
##lolly
##tum
##fame
##flow
##760
##x84
##cacau
##tamo
##aren
##esh
recol
##idol
alte
01371
##sazon
4030
2512
##340000
##sod
bolt
36kg
##x138
babys
19v
rasgado
antiox
##uvue
44mm
##90037
##80046
garen
riotex
210mm
2198
##oob
dermat
##acht
6217
vanessa
pendrive
furado
18mmx50m
polyplus
cimflex
glicerin
ovomaltino
desmaiado
bossi
espirit
encapada
eternit
tensionador
##parafuso
sroque
tubolar
columbia
adstringente
presepio
0f
2bran
5207
828
fgr
gmt
j3
v5
wass
##8ml
##night
##intimo
##onica
##reme
##idon
##2033
10x40
##bovi
refini
angry
shm
dest
acuvue
60a
sudo
18x27
hat
prazer
bisa
##ionda
##33002
##price
sanity
45x70
whiteoff
emboss
lampadas
franjas
voa
013839
1000085
1000084
ctn
6005
##clets
inspecao
trocar
##0002u
##83100
##prot
##3017
51j
fratello
divertidas
##bbana
89550462000034
295ml
1x10un
luminatti
103026
monstros
##kombi
predsim
carbamazepina
1par
431
6x5
847
923
dren
ntr
pum
s3046
tks
vx
##ots
chant
##4037
##champ
##1145
##3028
##25001
15mts
14v
encad
sabflor
903
clinoff
separado
stl
monstr
014110
chocolates
0225
006body
26l
2701
##mando
bbm
vigora
013812
##iveu
berlin
energel
twis
50uni
orificio
##asay
futuro
nortriptilina
giulia
reconecte
intensy
migu
arquite
baratas
fernanda
dentaduras
engraxadeira
##paracetamol
strinberg
smilinguido
desengraxante
correspondencia
0vo
586
5x8
brado
cft
eo
fia
g30
g80
icasa
j7
litani
nn
nich
sferrie
##sba
##fug
##dente
##4a
##625
decon
cout
##5017
##imita
##uniao
1616
##1513
crean
##3268
150w
##tsu
macrenata
longuete
multigraos
sereno
superia
##yller
##undial
motores
41cm
##ify
ecosp
0108
6204
620342
diazepam
desoddove
rapad
merlu
univer
esponj
karen
013325
idade
pulverizacao
automatic
marinheiro
sabonet
aplicadores
15x15cm
cataflam
recovery
mariotta
juntos
glicolico
sombreamento
anemone
kopus
abssempre
shadow
7lt
7125
913
mios
picador
x8
##e9
##e6
##alci
##tape
##arente
##ranto
01120
##iversal
##ermint
##saco
por98
##12001
1560
socia
##7070
moles
blonde
espinheira
palad
383
##2140
45o
preser
termog
4420
4134
tempor
##5314
1019
##manga
puido
620453001000
013590
dogfit
verao2023
sobrepos
100mgcap
##maria
neoquimica
pg11
magnet
amortdian
suspencao
perolizado
puramania
glicina
velox
##325mg
amatools
machadinha
##esterona
lorena
sulfameto
confeitado
champions
cicatrisan
jatoba
credeli
flambado
biscrok
juntalider
573
5em1
931
bena
bcalc
gart
hume
uba
yor
yuna
##e1
##sar
##sch
##t1
##pq
##coz
##ranza
ingrax
##1047
##iges
##8022
##370010
908
##7511
shortsaia
limoneto
##44mg
##2632
granulada
##sss
##5588
piu
45x40
gouda
serrinha
758
zae
literide
vitasay
trok
013647
schick
lixas
optima
hepr
##inhus
divertoys
xlx
1984
veiculos
fotografico
ferrara
pipicat
##gradavel
looper
playstation
a107m
natrielli
eldorado
mercosul
4146
888
aff
grif
mba
rno
s01
tass
##l200
##bin
##cabos
decan
##adin
##unge
alterna
maran
1026
##goutros
carmel
bobo
ante
branq
##2217
kitcia
lista
noe
bisturi
##guarana
gate
706
vaquinha
fofa
##62000
divisao
appel
argentina
##gravat
##osato
must
insul
hb4
260m
##onier
draft
fatiadas
bros125
globulos
404158
urbana
atlantica
phytoderm
1x100un
l500p
shih
nuvens
varicell
649
764
933
ders
ginga
jfo
lcar
mpo
##v8
##780
##aden
##ultor
##5027
cairo
##1036
##4022
por170
##loff
##3034
carinhas
4039
##6088
15x
25k
25x7
##7028
chokito
tendenza
lud
peo
##9020
90m
374
##tons
dentro
montela
1924
05un
180un
phan
phys
ceasa
##7439
radiance
geada
neutrofer
circo
210x80
013335
##cruz
vect
triangulos
costurada
ballerina
fleury
primav
01268
monofocal
punhos
quata
furgao
creation
trimix
oleosidade
martini
alphabeto
reboque
coletora
62034200100067864
eletrificador
cashmere
878
ccabo
hue
lust
rna
w3
##m1
##eso
##ivos
##omila
lax
##logs
moun
##1195
##point
##alao
sure
##16001
##3218
0013
3561
sabia
##pse
joka
##tsor
chinu
24pcs
014318
##41000
##poly
exttomate
31g
013576
ceramicas
felipe
icefresh
64g
out22
targo
decorfesta
c10un
sedutor
flannel
pedagog
corselet
pressostato
atenololcl
pelicatto
damyller
##hidratada
etanol
nickel
refogado
encadernado
0608
2x7
4u
681
723
830g
919
evel
itens
nx150
vell
##t5
##tbc
##bber
##ony
##5038
por800
##3048
ardos
sandra
##iantes
##8026
naut
3590
##campo
##75001
elani
002sapato
##3311
guit
diff
1335
babymed
##68a
08cm
havkids
vidrex
006shorts
agrido
097
lanette
biotipo
nude35
##6315
240v
3101
sonoro
##2501
3min
sxt
levux
dipil
93g
##praia
economic
59g
12unid
player
benzo
streetwear
precoce
820g
scoobydoo
chandele
sesamo
stereo
santepel
35615911
escrever
escondidinho
babosao
retroprojetor
merluza
4x100
dbella
e2
rings
##etico
##d10
##reen
##ilda
##1046
##1023
##3055
carp
50sola
100algodao
brnc
desonida
##1416
##3238
peplum
18d
cx20
pc1
lisooff
081
005tenis
2120
##5007
white10
4009
bactrim
autoimpact
miudo
##ponte
expressao
harpa
##uccine
falta
patcho
##ashort
##flax
economia998
suavidade
squad
signo
6109900010004
hirlogs
etaniz
cibie
siemens
hawai
35027435
gogowear
2117
5u
5x15
587
876
bum
c80
c48
etinil
fmp
iman
pys
r19
vor
xil
##231
##b10
##zf
##orb
coza
matura
10mat
##4042
##mmar
##3032
##ecer
ref66
ref28
powe
##1518
##7030
canyon
sueco
##carteira
filoso
eliane
trc
cxt
escala
sanches
##tant
##fty
fertin
morg
##90045
2728
istam
##71001
013538
##clamida
muff
vizzy
league
013766
sulbrasil
hidrocortisona
005blusao
vinigas
jasmy
ntk
chanin
rgt
dimalato
epocler
##fosco
tecnica
jordao
gibizinho
espora
indicator
plasnorthon
bromazepam
lithium
1ben
4x7
582
631
8100
a325
c11
d0
dq
genta
hene
jts
mug
pub
w7
##e0
##fish
##438
##b12
dead
##parada
##inagem
colina
marico
20x30cm
por107
ref45
##1242
##8028
espinho
##sete
estacoes
##faca
aprenda
1311
capre
014calca
704
004camiso
1911
##kay
recort
##90031
masculin
##60050
sc114
mints
##100020
012camisa
eder
manduvi
hoje
c100ml
opanan
defense
##uchinhus
emsgenerico
##x85gr
##facial
translucida
exclusivo
789250911
periotrat
volkswa
pneumatica
hookit
identi
guampa
atarraxante
rivotril
##alciferol
0w20
1998
6x8
996
f9
iver
vda
##relo
##fq
##viagem
##x265
##injet
##alet
##0112
1056
10x11
feme
##4028
##4069
20x
##boca
baqueta
ref35
##12mm
crs
##itage
60mt
##3975
forjado
##32a
##32mm
##iban
##anax
crok
gele
##geo
24x24
05kg
##70044
##80035
##90003
om447
##pretounico
luxury
palheiros
portinari
51g
russo
##hidr
preservprudence
tlh
netuno
sinot
##tituc
diferenciado
plafonier
3500399
algestona
##mw0mw
depakote
montelair
jasmyne
474
633
746
agora
loma
nucle
rpt
willi
zotto
##xm
##hf
##ivada
estrada
emilio
proib
canaa
##37001
3599
colorid
0024
trick
sling
703
##ikal
100042
##1315
005sunga
2199
erre
03m
006sandal
006conjun
magno
cerave
##elez
27l
007saia
##80039
##kout
014037
##00009
profuse
libel
##caneca
pillow
64mm
pj6
pulsador
013475
dominio
reluz
1327
koala
5000mcg
##3610017
epox
bijuteria
sulfadia
##betametasona
##copio
naratriptana
1005kg
lzt
checkstand
cosmeticos
opananken
0p
697
841
c002
dado
g50
##599
##vic
##enium
##osil
escar
##5016
ingre
1024
calos
1270
##1147
##3056
trap
##8042
##6077
25lts
abe
##ecake
gracas
1131
39g
orn
ordem
amarga
pv21
melado
2136
##rente
viii
##52000
1000087
merilu
ostra
013660
013718
013945
sorvkibon
sorveteria
ganache
##viol
swift
plantar
burgu
ribeiro
nyc
versao
verdade
feij
piracanj
ervamate
mbwts
sustentacao
wapsa
astronauta
crooped
hemitartarato
6b
727
817
eico
f17
gera
n13
seb
tirinha
##3a
##500gr
##lip
##luc
##kell
##uia
##asar
##toes
##cobra
preven
##mmac
##3024
ans
desca
1520
soy
255g
caninha
cld
rajado
38x51
grila
guincho
##2901
maxon
nudes
melita
14026
magi
motors
4137
cpb
kappa
##imais
##x340
ovinho
icekiss
calabr
nesc
isapa
hortel
lembre
##brancog
desemba
eurgenerico
abssl
habitat
recortado
28058004
suplevit
acinturada
sarnicida
amizade
rapunzel
insetsbp
agridoce
0ab3
4203
4145
7lts
9pc
bila
nvy
nunca
qz
sdom
sentado
##r14
##xam
##x94
##x83
##taz
##artan
##eios
##quinhas
##chia
boucle
##15f
##6057
##2214
##3901
suami
3525
3547
sabnivea
mefen
##17001
lover
curup
##33000
##30053
condimax
cadiveu
rasgo
ptol
##90035
##exona
premiu
minhas
##5316
##fofinho
##80045
##osoft
##giovanna
moscow
afric
elefant
somalgin
##x040
2192
tulip
##burguer
fiorin
aguarras
##x65mm
accelo
umidec
leitura
marluvas
utila
supermax
antiquebra
necessar
abrasivo
salaminho
mcz02
620690001000
destacavel
edwiges
##useigo
sulfametoxazol
1x9
731
mior
pion
rud
w07
##e8
##the
##folato
##germ
##cino
##elian
##row
coquito
##2090
##2065
##rian
10vol
corneto
marlan
##chuva
##3060
brid
3538
##carb
##100mm
clind
mediter
003sueter
gazin
24cpr
##odus
##1322
bebezinho
006meia
##pren
frandy
##80049
argentino
sicao
babies
sonora
danclets
rometal
isot
liberdade
crocant
kolu
brita
013349
depilflax
clinico
##fosf
##gorg
dormec
century
kilos
calendario
moscatel
hurric
glifosato
glibenclamida
1x15
589
7p
bion
hj
rolao
##860
##our
##f250
##dry
##619
##olada
##elete
##eni
de25
pretor
##unidade
sax
##ermi
camt
1200ml
##4050
30x10
##1138
rosh
##mplast
1516
##2225
##7075
canino
##1630
1800ml
150l
##ibl
clight
pintar
chaton
##3310
003almofa
pifon
##iki
tuca
antiidade
colag
picol
wafe
400mcg
##brahma
minid
014028
##6325
##pij
moscou
shopper
bonsai
57145
ombr
trez
290gr
lng
por2469
chemi
type
conhaq
adesivas
botanico
couche
termocol
720g
141g
61112000100017
wetzel
wmns
abotoada
lagarto
biodegradavel
aproximado
olanzapina
arapongas
6s
aran
aps
item
rcc
yu
zano
##514
##765
##c04
##pv
##caip
##reflex
eso
##5036
pregador
1082
##pap
##chee
1630
parado
crit
2550
##7044
peels
micra
apache
1320
014150
2314
injex
penteadeira
tintbeauty
013575
timberland
014248
frida
decorador
racine
c200ml
dardo
pitman
##x8mm
johnny
bellotok
eletronic
vistabella
##escova
##fantas
por3383
zaxynina
tmmt
914m
resfril
telescopico
malharia
carlton
##aluminio
bucket
rincao
acamurca
tshirts
prolopa
alcance
downshifter
ardosia
861
985
a113
bcorp
cime
fero
hx
pps
ruv
s500
yopro
##lets
##mest
##g3
debrum
##iaa
alian
chron
12h
20vol
botim
##1246
##ipress
##6034
##2248
emana
##icom
quidog
60x50
exodus
##ansas
colorful
002sapati
grupy
28gr
200mldemais
formosa
##brw
resma
malhao
4004
##corr
tempsazon
newpen
3505
nude36
1017
isb
assar
013844
ultrass
010soutie
01235
620293
penas
##150m
1155
miol
mp3
270gr
cravinho
paisley
##x85cm
##factor
orbital
hikari
brometo
bologna
sulfadiazina
acamurcados
1x16
472
698
6x6
6249
924
hed
kbt
##029
##dpi
##450ml
##hame
0150
0079
##1070
##igem
50x100
##mps
proje
##1428
##7048
001bone
##ceram
##ebre
espinha
compreferencia
lot
spra
##troz
##ecare
limpo
metr
##33004
perce
flocada
##resid
21g
lacfree
##undum
##brasa
##62001
464
starbuck
liqui
hashi
013577
irmaos
elect
mrn
##3019
coradini
##escort
colori40
sicilia
tecnico
##pressao
fernandes
##echea
pivot
camufla
eiriflon
airlicium
resfriliv
5s
bres
##e4
##tf
##gun
##yz
##toff
##refer
##amr
##ransp
##dour
caras
painco
0035
1037
013short
por4800
ads
azz
##1167
5075
shes
1617
##8032
quire
naca
polpas
##3225
hap
clom
pindu
##vox
##330010
##prime
goleiro
parts
394
##69a
48gr
1717
##50048
foco
postas
pulgas
##80022
##bles
riocril
cleo
oxidado
riscado
mosc
##x5mm
chevy
usada
lv500
opti
padrona
##vadoce
cobreado
msg
portland
##bsi
##pincel
quimby
glicel
01269
##kidy
automotive
intelli
revestida
4a8
analog
collors
duduka
por3240
sadi
plumas
lidocaina
benjamin
soprador
2cpr
g12
n45
penta
##526
##dina
##k0
##kia
##cim
##coso
##01en
1027
artec
##8044
acs
##alaranja
25x45
luar
lube
blant
##ibs
pintinho
##20049
marinhoazul
17x27
##etes
superled
##gany
##focus
g1p
higifral
selada
algodo
craquel
1156
sbb
##tralala
013317
batis
##012000
fragran
18mmx10m
pattern
a037
everyday
1996
trazodona
trabalh
##330300
ubera
dietil
iguacu
hands
centope
oetk
christ
piramide
alendronato
maricota
mefenamico
2223
3cil
4bran
656
6x20
g100
hema
pug
##iq
##rame
rez
##1082
coristina
16s
##6024
prob
##7092
moline
14s
1421
1830
spon
palisad
3850
role
parto
orga
marinho4
superfic
aviador
vidas
40044mg
##60035
##5318
selenia
cachar
genebra
gelato
castanh
##x03
013675
1197
013914
013938
lonaflex
brigitta
kodila
axs
axxis
coberto
pituchinhus
##x18mm
1365
##femme
golfinho
##basic
02226
nigro
adorettos
dermotiv
##original
peanut
braddo
batalha
chenille
6v
aerado
dix
fip
fala
igor
ville
##c03
##x012
##99001
coringa
maruseigo
lavorato
013409
##3030
##3035
##veia
boas
##guem
##ipramina
crden
##uci
##7045
saldos
6060
##160010
##3728
bolado
pex
1840
raven
never
##shs
002saida
trifasico
003macaqu
gatinhos
gabbana
##confort
484
2131
cosmos
##ighter
arena
jardinagem
nutrikids
##preto38
realtex
lasanheira
750gr
013978
##frin
vanad
bronzearte
bisnagu
gvii
79082
895506693610017
kiary
##out19
n10en
holandesa
por1519
dercos
engren
vvfh
mudanca
pandeiro
ousadia
atroveran
albatroz
desifetante
bactericida
allexof
parboil
mahogany
evisce
sobreposicao
quirera
3cor
4lts
596
844
917
947
tfrutti
##tb
##pit
##alhos
##alya
##cai
##ulh
##usta
inala
##20l
20x40
por2000
carbor
refw
##1255
##make
azule
canesten
polionda
35kg
##ceu
filamento
250w
fax
redplay
##30056
simbolo
ascor
plastc
intern
g1q
##x50un
6003
##x4mm
##preto10
empur
##belt
##3018
275g
##x162
marav
##hiba
memantina
ranch
030mm
mirim
1x250ml
smoking
nerko
##copacol
biosintetica
sobreposto
nenem
drinks
polenghi
comestivel
fineliner
1z
6363
934
k41
ttigre
tmaxton
widia
##065
##relax
##s1
##finha
##ved
##posa
##arca
1038
1092
12c
por68
ver2020
pr15
##3290
loj
spadrille
pinc
nek
##21001
leuco
stlu
simbal
belm
estj
220w
##pcor
absint
foot
##70034
iogur
620442001000
pense
troia
schnei
hdtv
secalux
2000w
girasol
armazem
30cprs
##pratik
candide
benalet
hamburg
90grs
145gr
viver
trazeiro
taste
6111200010000
striped
89550669361000
encord
regeneracao
ducrem
veterinaria
flutuante
ubatuba
starbucks
831
862
uk
xm
yumi
##mho
##melo
##nact
##wc
##ward
mab
1223
##4029
boho
##tilla
acend
##7050
##7039
choch
casc
prelone
3540
loft
##45001
chocbranco
limone
1138
##3137
##ikos
2250
feminin
##ensado
##x200ml
zaa
claro40
titan00
g1h
amacype
013547
013589
caramanh
profissoes
psicol
011cueca
##glic
##sorriso
##minuano
013399
total12
w0a
acryl
flamingos
darkness
cachorros
apliq
entregas
nsw
gripir
3543973
hipopotamo
##johnson
dimension
supositorio
1f5r
claudia
miguelao
685
798
7quedas
8004
9010
kh
p6
r26
##059
##n5
##618
##x92
##jac
##inten
##inary
##hayeb
##unes
##2042
10c
1088
moema
50x25
1638
15x20cm
##peed
##7046
##7047
camisetao
prs
##18001
001deo
abnt
orchid
##amper
believe
1402
##x2cm
volumes
buco
013838
010toalha
013528
##9499
009vestid
##1209
aparente
##inastica
fusilli
225mm
##x229
tricofacil
francesas
perfumaria
kikokika
013348
a0327
simply
keratex
eiffel
##kriss
bowls
##worker
wisky
termoplastico
entalhado
##jolie
pysko
caramanhola
2x25
2gav
4o
492
6100
epa
f6
fsh
fbi
k5
mada
m500
ria
rene
rang
utp
##542
##cfe
##jumb
##tazul
##acio
##def
##orton
013999
##lata
##3036
rosinha
boby
sandcartago
##350010
4050
acti
##7038
abrir
raa
taf
tay
slit
boross
macnissin
milka
mondeo
pione
3438
2180
faci
##x2000
fever
agitador
confetti
vols
271
3502
kaeru
assador
repub
6004
009calcin
transpower
araty
10mgcap
1159
##portivo
dandara
98g
013716
stiksy
charuto
colocar
025mm
germa
contini
magneto
pingentes
store
221s
##estrela
fendas
txc
cogumelos
jumelo
chifon
sustentavel
a21s
conquista
cheesecake
tegret
internacional
savage
lomaer
dermotivin
allexofedrin
1x90gr
2112
843
857
9002
bill
cram
grosa
l7
r1000
sirio
##rolo
##itiva
##beb
##teu
##harald
##emos
##0122
##ids
##2095
##2031
mater
##4048
amster
013990
##11a
100240
##1515
##meto
exte
90cps
supera
##trick
siloc
004cardig
##rigen
2133
pt17
006pijama
006jogo
##correia
phy
confeit
013818
1000099
applica
mdm
familiar
013642
adaptacao
ampicilina
secreta
magnifico
duratec
84gr
distrib
270m
##cream
frappe
nutric
hairlife
morangos
woven
tioconazol
tung
##boneca
smoby
a03s
favoritos
cooper
##selenio
multinatural
elegante
sharp
neocopan
##coenzima
bisabolol
necessarie
tegretol
3344
5v
5x10
821
8x100
bpr
sianinha
vonau
##530
##2mg
##grand
##n1
##zt
##jp
reps
##ivic
##0140
intex
inhame
##2099
##2052
##1075
coleman
20mts
ref37
tou
50ud
50x20
##icada
16und
brco
##3522
40x
##2242
boli
bolos
##17145
solit
shortinho
##4646
tintas
validade
004top
42w
2132
##vergine
##50033
3006
fev
##90036
bioc
ecooda
##80041
matcha
##ossi
c3001
013637
secia
hidrog
msr
aqui
spee
por2443
lbm
fruittella
permak
zipper
cultura
##473ml
growler
spirulina
metilcobalamina
##fusca
##koleston
##valvula
paphig
picadilly
cacharrel
729
a14
j0
jea
lbr
m9
sarra
tart
xe
##vu
##pole
##jt
##invis
##ivolol
##imples
##iclin
##quart
matelado
chen
colflex
marcia
01302
013505
toquio
##12a
mlonga
##8030
##alab
canet
polp
##340010
##39001
choop
##3798
355050
seve
bebidas
parti
22gr
1933
ponza
##cheado
46c
softhair
nude34
##7150
fosfa
tintcorton
dondo
tpj
lightning
greg
craker
##1208
230m
1374
##riativa
expand
dynas
##placa
importacao
finn
por2880
3600l
patata
89550666159000
adriana
formigas
construction
inspiradora
fecula
irrigador
80w90
entrela
caffeine
f000ke0p
istambul
applicato
7001
c09
i2
ife
ksc
##flash
##cta
##xadrez
##anza
##elf
##isil
##amix
cay
##iob
0034
conca
##1089
1089
calmo
chill
1255
cartie
tota
pois
##tilada
shorte
4038
acl
criv
verge
najar
rocan
extin
1818
solare
davi
cabotia
parc
partes
397g
microsoft
45lts
cadil
##6917
moleto
48l
4800
sertan
1806
brasforma
waterm
foi
oli
celast
013890
tintprof
##1502
midnight
013726
neoq
1126
bluestar
nutrinec
monof
lucia
a217m
srj
aaa4
stroke
enxague
##ieri
odim
reconstrutor
daniela
beijaflor
grafflit
nervuras
decoupagem
caculinha
goicoechea
canjiquinha
##titucional
2167
5x11
854
943
bprat
e1
fed
hana
igre
lseven
v18
##026
##540
##dh
##c20
##cbr
##elma
cacil
01a
##acriativa
##quila
##sau
motivus
50lts
10025mg
##1512
##1516
sodi
25x
##onew
colorip
trind
##tarctica
##colg
stk
24und
dende
piri
##4901
pt24
antimo
##90034
revenda
sincr
ultraboost
duet
013518
risoles
pelinho
merkel
cardinal
evisc
omb
freeday
##elhinha
marilda
knor
amaranto
dulce
##lendor
##cafeina
heroes
hortal
harmonic
8x31
fortalecedora
kiath
imbralit
sorveteiro
pasteis
356159
ecologica
braswoo
consciencia
grilazer
651
769
##rise
##sam
##iness
##aster
##oliva
##elta
##enog
##aduzzi
copc
pagl
##00060
12x60
013388
moka
##1149
##3027
refi
50pcs
tramal
##8025
15k
##2298
##7042
##190010
002sacola
palit
mclean
milli
babygo
panqueca
tranex
3201
082
754
pt09
ervadoce
##90049
agrada
blackfree
largas
vien
sinto
vedox
013535
##ruga
bonecas
lixado
##001601
5mgcap
##glade
pitpratos
monoidra
veloz
weiss
##passa
artig
complet
clinica
##macacao
335ml
artesanalle
dunlop
sensation
confeitaria
vitalia
intermediaria
jshayeb
428h
purificante
panacot
kalipto
refresh
moxiflo
amiguinhos
zonacriativa
7300
a119
d13
peta
phos
tum
torte
##3bz
##full
##mh
##ancia
##roco
##unf
##1058
calor
1224
20k
013427
30mcg
##tilon
##35002
quir
001edredo
##950010
boll
colorim
jogador
condpalmolive
florz
florio
corret
##verly
062
##vali
##eleteira
olamina
brav
massafera
tm12
lary
herweg
##choco
##tamed
013519
##110g
unifap
manipulo
56gr
280m
210x297
##preto36
fortnite
romero
1356
20mmx1
fleis
410ml
hrrad
colori42
bpm
0135598
mhobco
andrea
parafusar
romantic
##x31cm
escriv
1x500gr
##pezila
what
nevral
acolcho
maderite
3125mg
794
7005
apr
c56
eos
fpt
gicle
keru
qb
##5000
##522
##liv
##lixo
##eba
##d7
##iad
##tamm
##refil
pretinho
##20cm
marra
marti
lake
013140
por116
3070
carlu
##1510
40x20
quint
##torn
brancopreto
plasmar
enem
##90ml
estaca
join
##3316
lekat
1137
marinhop
barla
100049
489
havaina
superpak
##50038
jundia
claro38
vitamax
inv18
461
nude38
kak
duqueza
012348
vitor
##biocolor
vernizes
1112
##malt
dtk
csal
##atch
cupca
duragres
##3013
##ufen
fleur
bridao
##dogs
giard
dhb
fotocel
64022000
sofistica
elements
bzn
emuls
6109100010004424
eternity
##douradounico
672g
anticaries
boutique
iluminadora
3594108
embossed
sociais
hurricane
schneider
726
724
949
bral
gws
koll
ott
vy
##350g
##atanado
##mestre
##bly
##nx
##ergan
##estes
##5085
pak
00cz
colc
##4032
##4055
martel
20mcg
##lote
##1188
##3058
poas
##15001
##7066
001sapate
plasts
##carolina
pew
##idobacter
espet
tail
##30055
bebed
hidrom
dentas
##3132
4530
broinha
##x270
ceratti
##timar
nude37
liner
mamma
vez
##upoca
popy
013599
raphael
mustard
novope
bertol
tachas
119s
veggie
53x53
normad
lorenzet
qualite
cipo
papaia
pantac
pantacur
hibrido
itala
clipe
angelica
##x120mm
overtop
akx
61091000100053
##foxlux
##x36cm
imports
melhores
unitermi
kratos
azedinho
leopard
##baygon
regenesis
spices
vonixx
infusao
mocca
memorias
anjinhos
fenaflan
journey
##pistola
equipo
##relogi
1v
4x12
594
674
eure
mpro
nw
xc
xbox
##candy
##haria
##anil
##alce
##arios
deusa
##tiza
##tifica
##eimas
##dopa
##acta
##acinza
##1048
##quidea
1266
2026
##3037
##3029
16x31
##jaqueta
##7024
saldao
##3447
noc
bissul
glub
capu
452
metalurgica
##rack
##50032
atle
##90046
tempeiro
brake
livia
013825
classics
thmw0mw
013565
bons
rodelas
lvpg
58g
aerosfera
isolada
##x165
horta
steula
aa4
galvon
lomb
etti
212s
mikes
018kit
dezali
scalp
suplem
710ml
avelas
daniel
buffalo
shpantene
tarracha
bavaria
##classic
almondegas
batuta
rpck
f00099c
salsichao
mercadao
williams
741
743
8x50
aish
dpraia
j6
lana
ow
t40
w9
xale
xcle
yuri
##8m
##bw
##cini
##elin
##ener
##etch
sabat
pati
##queio
math
1032
chili
013358
##1168
caren
ref24
16x50
tam16
forc
lovers
abrigo
multy
002biquin
dismat
tauba
glos
1332
13lt
2825
004manta
calcit
##6801
ptochb
picnic
naturalle
postural
minuty
101k
ct12
rolamentos
hyal
##1207
rf0
calafeta
013948
xt2015
cacheado
escav
rusty
alfac
etiquetadora
##ersheys
1200mg
stock
hexa
dunas
blueblock
yakult
fertiliz
##x180m
vampiro
mergulho
chemisier
##0018069000
antiferrugem
##tribuidora
lcarnit
jtsb
nacarado
3o
9500
a04
bgo
bju
f7
gti
h9
r23
##4h
##726
##mir
##c30
##6a
##erin
##enos
##ivet
unig
##2044
1071
colact
porteiro
carbol
destino
embaraco
rover
programa
##1427
no8
##45g
##10059
##shi
joana
medios
##200mg
silen
1322
##1360
lanolina
nude39
##10007
nestl
1605
013828
01217
sunshine
velth
dormer
##junta
bg6
013946
pg15
removex
##3014
##3011
##x222
nutris
centrotabs
395ml
1500j
feita
6204620010004
overlock
arl88
marcela
##puls
vitaminada
flutua
catolele
tileesul
diosmin
antirrugas
##reflexo
padronagem
nutrinectar
2x15mm
c63
dpa
f14
jmc
oa
uhd
xer
z7
##r17
##e5
##1x1
##bei
##bucal
##nr
##npt
##6l
##ql
##j0
##5089
##0155
##2066
##1056
##1087
maur
chuc
por57
##1180
##12000
shor
tratado
paracet
##140010
##36l
001roupao
##480010
##3340
redley
guan
macrame
broche
##ensidade
0800
melam
1403
antiv
##chek
##9007
23l
mdallas
peles
014246
014288
flavo
libras
013635
unidade2
013745
lvida
789135
emplas
isab
aplik
ajr
paulis
bye
1500w
previa
##ydai
azuis
crescer
mioranza
aperte
bonobon
nebivolol
satine
amlo
donepezila
goyazes
shanes
hidrocauterizacao
6203420010005575
membrana
encaderna
libelula
termocolante
2x25mm
652
6x10
dps
kite
sana
sendo
uber
##5001
##lam
##tini
##honda
##regina
deportivo
##road
##imix
0022
##1033
##1054
1096
calde
cherie
##4039
0131
por3199
arb
manguinha
br2
40vol
nax
conjug
##1417
25000
spud
##6601
trilo
distracao
80x210
24pc
014190
copoplast
42d
vasenol
delvac
##emais
2301
cachinhos
01216
99g
luzes
hydr
fleet
aspargo
##ancora
dexron
centralsul
friminho
hipertextil
lezard
naridrin
intensivo
##ticorten
pingometro
ebf
manjerona
underw
##eletrico
7892509
pharmaton
almondega
contrastante
inoxcalv
dugs
fettuccine
bradok
batistela
artigiano
0a
0308
7002
bx2
ciat
f00
h01
jema
mcoff
ona
tj
##rink
##palha
##jul
##arizina
##istas
devo
##amulticor
##dai
##etr
##1065
maga
1031
##urto
ampol
20fa
013448
carmed
tova
toke
##igante
16x30
desk
procao
2540
tenaz
##quera
distan
##enax
##55g
1334
014019
##49001
2220
trancoso
extrac
006chinel
saborita
amacdowny
013595
1309
eleve
circus
omeleteira
works
pj46
##verdep
##acute
aromach
esquele
##ermann
safiano
##escuro
por599
cacula
alisena
lorea
carrara
virtus
##kalm
##cremoso
kwid
brooklyn
hibiscus
condesado
formigueiro
antimofo
normaderm
hre
ibr
##044
##v1
##ked
##iaj
estelar
unib
##1098
##4058
##uria
##olat
dop
##maracuja
##150010
desrollon
##3566
1512
15x10
3542
35556
90s
rag
elring
palitinho
##prol
slub
macgalo
1160
leites
##uxinha
mg0
70x50
balone
extravirgem
##50035
0600
onde
##90044
##90048
claro12
voltas
tiida
291
014039
013849
013514
felina
abraco
##preto12
leaves
soldar
tropicos
400grs
##aleti
##inset
metades
cartog
cartoon
790801
topsed
benef
fosforos
rontek
uhf
2805700630
hepatilon
mojito
enriqu
crocodilo
jaragua
nevralgex
ciaturbo
5600
ape
dtal
eterno
ltrs
oza
rz
t20
##nv
##626
##han
##ingue
##alca
##alta
##aloo
cacar
caue
save
0090
1048
marble
por1000
30x
aza
##3042
dok
topp
ro4
fryer
##3669
##45cm
##10054
basket
chain
else
semana
metrico
mictorio
redubio
80x100
003sacola
##pele
monydai
marinhom
marinhog
1780
impac
##1317
##verdem
##40047
##40059
##5008
26d
##5862
##prem
oliver
007meia
ecoblack
vw690
tm46
##63002
0109
##fild
diablo
moletin
##club
grecin
##cuff
sombrite
##1403
radiadores
##50399
014337
reflet
frisado
progesterona
bambino
doxifin
##protect
895510943600
accuchek
blessed
coelhinho
40106
5109
a135
cch
eight
kansas
oikos
p20
t30
ventos
wnf
##874
##divers
##mx
##bile
##n10
##pada
##wwht
##his
##yta
##amd
coim
cape
##papel
calder
##inato
##urinho
amos
2067
##lavanda
dodo
##1217
tratos
tamu
quiche
crivo
##1414
##1419
##1927
sutop
##1616
##9022
neole
mcr
200fl
st0
gap
##tando
2436m
014301
